{
  "version": "1.0",
  "truncation": null,
  "padding": null,
  "added_tokens": [
    {
      "id": 0,
      "content": "[PAD]",
      "single_word": false,
      "lstrip": false,
      "rstrip": false,
      "normalized": false,
      "special": true
    },
    {
      "id": 1,
      "content": "[UNK]",
      "single_word": false,
      "lstrip": false,
      "rstrip": false,
      "normalized": false,
      "special": true
    },
    {
      "id": 2,
      "content": "[CLS]",
      "single_word": false,
      "lstrip": false,
      "rstrip": false,
      "normalized": false,
      "special": true
    },
    {
      "id": 3,
      "content": "[SEP]",
      "single_word": false,
      "lstrip": false,
      "rstrip": false,
      "normalized": false,
      "special": true
    },
    {
      "id": 4,
      "content": "[MASK]",
      "single_word": false,
      "lstrip": false,
      "rstrip": false,
      "normalized": false,
      "special": true
    },
    {
      "id": 5,
      "content": "<s>",
      "single_word": false,
      "lstrip": false,
      "rstrip": false,
      "normalized": false,
      "special": true
    },
    {
      "id": 6,
      "content": "</s>",
      "single_word": false,
      "lstrip": false,
      "rstrip": false,
      "normalized": false,
      "special": true
    }
  ],
  "normalizer": null,
  "pre_tokenizer": {
    "type": "ByteLevel",
    "add_prefix_space": false,
    "trim_offsets": true,
    "use_regex": true
  },
  "post_processor": {
    "type": "ByteLevel",
    "add_prefix_space": true,
    "trim_offsets": false,
    "use_regex": true
  },
  "decoder": {
    "type": "ByteLevel",
    "add_prefix_space": true,
    "trim_offsets": true,
    "use_regex": true
  },
  "model": {
    "type": "BPE",
    "dropout": null,
    "unk_token": "[UNK]",
    "continuing_subword_prefix": null,
    "end_of_word_suffix": null,
    "fuse_unk": false,
    "byte_fallback": false,
    "ignore_merges": false,
    "vocab": {
      "[PAD]": 0,
      "[UNK]": 1,
      "[CLS]": 2,
      "[SEP]": 3,
      "[MASK]": 4,
      "<s>": 5,
      "</s>": 6,
      "!": 7,
      "\"": 8,
      "#": 9,
      "$": 10,
      "%": 11,
      "&": 12,
      "'": 13,
      "(": 14,
      ")": 15,
      "*": 16,
      "+": 17,
      ",": 18,
      "-": 19,
      ".": 20,
      "/": 21,
      "0": 22,
      "1": 23,
      "2": 24,
      "3": 25,
      "4": 26,
      "5": 27,
      "6": 28,
      "7": 29,
      "8": 30,
      "9": 31,
      ":": 32,
      ";": 33,
      "<": 34,
      "=": 35,
      ">": 36,
      "?": 37,
      "@": 38,
      "A": 39,
      "B": 40,
      "C": 41,
      "D": 42,
      "E": 43,
      "F": 44,
      "G": 45,
      "H": 46,
      "I": 47,
      "J": 48,
      "K": 49,
      "L": 50,
      "M": 51,
      "N": 52,
      "O": 53,
      "P": 54,
      "Q": 55,
      "R": 56,
      "S": 57,
      "T": 58,
      "U": 59,
      "V": 60,
      "W": 61,
      "X": 62,
      "Y": 63,
      "Z": 64,
      "[": 65,
      "\\": 66,
      "]": 67,
      "^": 68,
      "_": 69,
      "`": 70,
      "a": 71,
      "b": 72,
      "c": 73,
      "d": 74,
      "e": 75,
      "f": 76,
      "g": 77,
      "h": 78,
      "i": 79,
      "j": 80,
      "k": 81,
      "l": 82,
      "m": 83,
      "n": 84,
      "o": 85,
      "p": 86,
      "q": 87,
      "r": 88,
      "s": 89,
      "t": 90,
      "u": 91,
      "v": 92,
      "w": 93,
      "x": 94,
      "y": 95,
      "z": 96,
      "{": 97,
      "|": 98,
      "}": 99,
      "~": 100,
      "¡": 101,
      "¢": 102,
      "£": 103,
      "¤": 104,
      "¥": 105,
      "¦": 106,
      "§": 107,
      "¨": 108,
      "©": 109,
      "ª": 110,
      "«": 111,
      "¬": 112,
      "®": 113,
      "¯": 114,
      "°": 115,
      "±": 116,
      "²": 117,
      "³": 118,
      "´": 119,
      "µ": 120,
      "¶": 121,
      "·": 122,
      "¸": 123,
      "¹": 124,
      "º": 125,
      "»": 126,
      "¼": 127,
      "½": 128,
      "¾": 129,
      "¿": 130,
      "À": 131,
      "Á": 132,
      "Â": 133,
      "Ã": 134,
      "Ä": 135,
      "Å": 136,
      "Æ": 137,
      "Ç": 138,
      "È": 139,
      "É": 140,
      "Ê": 141,
      "Ë": 142,
      "Ì": 143,
      "Í": 144,
      "Î": 145,
      "Ï": 146,
      "Ð": 147,
      "Ñ": 148,
      "Ò": 149,
      "Ó": 150,
      "Ô": 151,
      "Õ": 152,
      "Ö": 153,
      "×": 154,
      "Ø": 155,
      "Ù": 156,
      "Ú": 157,
      "Û": 158,
      "Ü": 159,
      "Ý": 160,
      "Þ": 161,
      "ß": 162,
      "à": 163,
      "á": 164,
      "â": 165,
      "ã": 166,
      "ä": 167,
      "å": 168,
      "æ": 169,
      "ç": 170,
      "è": 171,
      "é": 172,
      "ê": 173,
      "ë": 174,
      "ì": 175,
      "í": 176,
      "î": 177,
      "ï": 178,
      "ð": 179,
      "ñ": 180,
      "ò": 181,
      "ó": 182,
      "ô": 183,
      "õ": 184,
      "ö": 185,
      "÷": 186,
      "ø": 187,
      "ù": 188,
      "ú": 189,
      "û": 190,
      "ü": 191,
      "ý": 192,
      "þ": 193,
      "ÿ": 194,
      "Ā": 195,
      "ā": 196,
      "Ă": 197,
      "ă": 198,
      "Ą": 199,
      "ą": 200,
      "Ć": 201,
      "ć": 202,
      "Ĉ": 203,
      "ĉ": 204,
      "Ċ": 205,
      "ċ": 206,
      "Č": 207,
      "č": 208,
      "Ď": 209,
      "ď": 210,
      "Đ": 211,
      "đ": 212,
      "Ē": 213,
      "ē": 214,
      "Ĕ": 215,
      "ĕ": 216,
      "Ė": 217,
      "ė": 218,
      "Ę": 219,
      "ę": 220,
      "Ě": 221,
      "ě": 222,
      "Ĝ": 223,
      "ĝ": 224,
      "Ğ": 225,
      "ğ": 226,
      "Ġ": 227,
      "ġ": 228,
      "Ģ": 229,
      "ģ": 230,
      "Ĥ": 231,
      "ĥ": 232,
      "Ħ": 233,
      "ħ": 234,
      "Ĩ": 235,
      "ĩ": 236,
      "Ī": 237,
      "ī": 238,
      "Ĭ": 239,
      "ĭ": 240,
      "Į": 241,
      "į": 242,
      "İ": 243,
      "ı": 244,
      "Ĳ": 245,
      "ĳ": 246,
      "Ĵ": 247,
      "ĵ": 248,
      "Ķ": 249,
      "ķ": 250,
      "ĸ": 251,
      "Ĺ": 252,
      "ĺ": 253,
      "Ļ": 254,
      "ļ": 255,
      "Ľ": 256,
      "ľ": 257,
      "Ŀ": 258,
      "ŀ": 259,
      "Ł": 260,
      "ł": 261,
      "Ń": 262,
      "ï¼": 263,
      "ä¸": 264,
      "ãĢ": 265,
      "çļ": 266,
      "çļĦ": 267,
      "åľ": 268,
      "čĊ": 269,
      "ï¼Į": 270,
      "åı": 271,
      "æł": 272,
      "ãĢģ": 273,
      "åĪ": 274,
      "ĢĶ": 275,
      "âĢĶ": 276,
      "ï¼Ī": 277,
      "ï¼ī": 278,
      "æķ": 279,
      "çĶ": 280,
      "åħ": 281,
      "æį": 282,
      "æķ°": 283,
      "åĽ": 284,
      "ä½": 285,
      "çĶ¨": 286,
      "å¤": 287,
      "ç»": 288,
      "ä»": 289,
      "æį®": 290,
      "IS": 291,
      "GIS": 292,
      "äº": 293,
      "åľ°": 294,
      "åº": 295,
      "æķ°æį®": 296,
      "åĲ": 297,
      "å½": 298,
      "åĽ¾": 299,
      "æľ": 300,
      "éĢ": 301,
      "åĮ": 302,
      "å¼": 303,
      "çĲ": 304,
      "åĴ": 305,
      "æłĩ": 306,
      "åĴĮ": 307,
      "âĢĶâĢĶ": 308,
      "è¿": 309,
      "æĺ": 310,
      "éĩ": 311,
      "åĪĨ": 312,
      "ä¸Ń": 313,
      "ãĢĤ": 314,
      "åľ¨": 315,
      "æĸ": 316,
      "å±": 317,
      "å®": 318,
      "åĬ": 319,
      "è¦": 320,
      "å¸": 321,
      "åĿ": 322,
      "çĲĨ": 323,
      "è¡": 324,
      "è¦ģ": 325,
      "å·": 326,
      "æĭ": 327,
      "çº": 328,
      "åĩ": 329,
      "è®": 330,
      "éĹ": 331,
      "å½±": 332,
      "åı¯": 333,
      "æł¼": 334,
      "æĪ": 335,
      "åº¦": 336,
      "æ³": 337,
      "è¾": 338,
      "å°": 339,
      "æŀ": 340,
      "æĺ¯": 341,
      "Ĳæłĩ": 342,
      "åĿĲæłĩ": 343,
      "åŃ": 344,
      "å¯": 345,
      "åį": 346,
      "éĿ": 347,
      "ç³": 348,
      "ä½¿": 349,
      "æĬ": 350,
      "è§": 351,
      "ç³»": 352,
      "ä½¿çĶ¨": 353,
      "ï¼ļ": 354,
      "æī": 355,
      "åŁ": 356,
      "éĿ¢": 357,
      "çĽ": 358,
      "éĹ´": 359,
      "ç½": 360,
      "ç®": 361,
      "å¼ı": 362,
      "ï¼Ľ": 363,
      "å¹": 364,
      "çŃ": 365,
      "äºİ": 366,
      "æĮ": 367,
      "è½": 368,
      "å·¥": 369,
      "æĢ": 370,
      "éĩı": 371,
      "ç©": 372,
      "ķå½±": 373,
      "æĬķå½±": 374,
      "ç±": 375,
      "ä¼": 376,
      "ç©º": 377,
      "ç´": 378,
      "ï¼īãĢģ": 379,
      "çŃī": 380,
      "çĤ": 381,
      "çĤ¹": 382,
      "«ĺ": 383,
      "é«ĺ": 384,
      "æµ": 385,
      "ä»¶": 386,
      "ç§": 387,
      "ä¸Ģ": 388,
      "ç»Ł": 389,
      "æĹ": 390,
      "åľ°åĽ¾": 391,
      "ç¼": 392,
      "åħ·": 393,
      "éĢļ": 394,
      "æĢ§": 395,
      "å¸¸": 396,
      "rc": 397,
      "ä¸º": 398,
      "ä»¥": 399,
      "ç©ºéĹ´": 400,
      "è¯": 401,
      "å¤§": 402,
      "åĪĨæŀ": 403,
      "åĪĨæŀĲ": 404,
      "ä¸į": 405,
      "åĨ": 406,
      "éĢī": 407,
      "å»": 408,
      "å·¥åħ·": 409,
      "¦Ĥ": 410,
      "æĶ": 411,
      "å»º": 412,
      "ä¿": 413,
      "å±Ĥ": 414,
      "è¡¨": 415,
      "æĪĸ": 416,
      "å¦Ĥ": 417,
      "ç´ł": 418,
      "è¡Į": 419,
      "00": 420,
      "Arc": 421,
      "at": 422,
      "ĥ½": 423,
      "ä¸ª": 424,
      "åĽ¾å±Ĥ": 425,
      "ç½®": 426,
      "er": 427,
      "ä¹": 428,
      "æİ": 429,
      "çº¿": 430,
      "ç³»ç»Ł": 431,
      "QGIS": 432,
      "æı": 433,
      "åŁº": 434,
      "å¤Ħ": 435,
      "åĮħ": 436,
      "è¿ĩ": 437,
      "ä¾": 438,
      "çī": 439,
      "æľī": 440,
      "åĬł": 441,
      "å¤ĦçĲĨ": 442,
      "ç±»": 443,
      "æĦ": 444,
      "æĸĩ": 445,
      "åĢ": 446,
      "åŀ": 447,
      "æ¨": 448,
      "å¤ļ": 449,
      "æĸ¹": 450,
      "å¯¹": 451,
      "éľ": 452,
      "éľĢ": 453,
      "çİ": 454,
      "èĥ½": 455,
      "åĮĸ": 456,
      "åŀĭ": 457,
      "æŃ": 458,
      "éģ": 459,
      "è¦ģç´ł": 460,
      "åĥ": 461,
      "é¡": 462,
      "ä¸İ": 463,
      "æį¢": 464,
      "æł¼å¼ı": 465,
      "æ¨¡": 466,
      "åĥı": 467,
      "st": 468,
      "æĿ": 469,
      "åĲĪ": 470,
      "å½¢": 471,
      "è½¬": 472,
      "ç¡": 473,
      "ç¤": 474,
      "ä½ľ": 475,
      "åľ°çĲĨ": 476,
      "åĮº": 477,
      "æĭ¬": 478,
      "åĮħæĭ¬": 479,
      "in": 480,
      "æ³ķ": 481,
      "ç®Ĺ": 482,
      "æĹ¶": 483,
      "ArcGIS": 484,
      "ap": 485,
      "é¢": 486,
      "åĲĮ": 487,
      "åŃĹ": 488,
      "åĢ¼": 489,
      "ç¤º": 490,
      "åı¯ä»¥": 491,
      "åĻ": 492,
      "å®ļ": 493,
      "åĩĨ": 494,
      "è®¡": 495,
      "æĮģ": 496,
      "åıĺ": 497,
      "éĩį": 498,
      "éĢļè¿ĩ": 499,
      "æĦŁ": 500,
      "åĻ¨": 501,
      "å¾": 502,
      "çŁ": 503,
      "èĩ": 504,
      "æĭ©": 505,
      "æµĭ": 506,
      "éĢīæĭ©": 507,
      "æ®": 508,
      "å°Ĩ": 509,
      "æİ¥": 510,
      "le": 511,
      "æŁ": 512,
      "è½¬æį¢": 513,
      "æ®µ": 514,
      "æ¯": 515,
      "éĻ": 516,
      "eo": 517,
      "å¿": 518,
      "ħæł¼": 519,
      "æłħæł¼": 520,
      "åºĶ": 521,
      "éľĢè¦ģ": 522,
      "ä¸ī": 523,
      "æľ¬": 524,
      "å¼Ģ": 525,
      "åŃĺ": 526,
      "æĶ¯": 527,
      "on": 528,
      "ç¨": 529,
      "ï¼īï¼Į": 530,
      "æĪĲ": 531,
      "ç¼ĸ": 532,
      "æĸĩä»¶": 533,
      "æĶ¯æĮģ": 534,
      "ŀæĢ§": 535,
      "åıĤ": 536,
      "åĪ°": 537,
      "å±ŀæĢ§": 538,
      "è®¾": 539,
      "ç¨ĭ": 540,
      "Geo": 541,
      "è·": 542,
      "è¿Ľ": 543,
      "æ·": 544,
      "åħ¥": 545,
      "åĽ½": 546,
      "al": 547,
      "åİ": 548,
      "ä½į": 549,
      "ç»´": 550,
      "åºĵ": 551,
      "æľĢ": 552,
      "çĲĥ": 553,
      "å¸ĥ": 554,
      "åĩº": 555,
      "ç¡®": 556,
      "åĪ¶": 557,
      "å¯¼": 558,
      "é¡¹": 559,
      "è¿Ľè¡Į": 560,
      "æģ": 561,
      "ç²": 562,
      "çĽ®": 563,
      "ä¿¡": 564,
      "ä¸Ĭ": 565,
      "çĶ¨äºİ": 566,
      "ç»ı": 567,
      "å¹³": 568,
      "æº": 569,
      "æ³¨": 570,
      "åĿĲæłĩç³»ç»Ł": 571,
      "ç²¾": 572,
      "¥æĦŁ": 573,
      "ä½ĵ": 574,
      "éģ¥æĦŁ": 575,
      "æģ¯": 576,
      "ä¿¡æģ¯": 577,
      "æºĲ": 578,
      "an": 579,
      "è´": 580,
      "ç½ĳ": 581,
      "æıĲ": 582,
      "or": 583,
      "ç¬": 584,
      "å½±åĥı": 585,
      "ä¸įåĲĮ": 586,
      "æ¡": 587,
      "ä¸»": 588,
      "å®ŀ": 589,
      "åįķ": 590,
      "»åĬł": 591,
      "è°": 592,
      "èĢ": 593,
      "éĶ": 594,
      "éĽ": 595,
      "å¸¸çĶ¨": 596,
      "ro": 597,
      "æķ°æį®åºĵ": 598,
      "åĬ¨": 599,
      "åŁŁ": 600,
      "ä¾ĭ": 601,
      "æ¯Ķ": 602,
      "en": 603,
      "¢éĩı": 604,
      "ä¸ĭ": 605,
      "åıĳ": 606,
      "æ³¢": 607,
      "è®¡ç®Ĺ": 608,
      "çŁ¢éĩı": 609,
      "æŁ¥": 610,
      "åī": 611,
      "Ľå»º": 612,
      "åĪĽå»º": 613,
      "åĲİ": 614,
      "åĲĳ": 615,
      "çº§": 616,
      "å¹¶": 617,
      "ä¸īç»´": 618,
      "è®¾ç½®": 619,
      "æ·»åĬł": 620,
      "We": 621,
      "åıĸ": 622,
      "åħ¨": 623,
      "åĽ´": 624,
      "ä»£": 625,
      "è¾ĵ": 626,
      "åĿĲæłĩç³»": 627,
      "ç±³": 628,
      "åĨħ": 629,
      "GC": 630,
      "PS": 631,
      "è¾ĳ": 632,
      "æĮī": 633,
      "ä¿Ŀ": 634,
      "æŃ£": 635,
      "Web": 636,
      "çł": 637,
      "ĵį": 638,
      "åı·": 639,
      "åħī": 640,
      "ç®¡": 641,
      "åŁºäºİ": 642,
      "æ¨¡åŀĭ": 643,
      "èĩª": 644,
      "ç¬¦": 645,
      "å¢": 646,
      "çķ": 647,
      "èĮ": 648,
      "ï¼īâĢĶâĢĶ": 649,
      "çĽ¸": 650,
      "é¢ĺ": 651,
      "èĮĥ": 652,
      "Po": 653,
      "th": 654,
      "ĠP": 655,
      "æł·": 656,
      "åĮĹ": 657,
      "åį¡": 658,
      "éĽĨ": 659,
      "et": 660,
      "re": 661,
      "æ°": 662,
      "ä¸ļ": 663,
      "åĪĻ": 664,
      "çĶŁ": 665,
      "äºĨ": 666,
      "éĹ®": 667,
      "å°ı": 668,
      "è§Ħ": 669,
      "ç§¯": 670,
      "ä¸Ģä¸ª": 671,
      "çİĩ": 672,
      "åŃĹæ®µ": 673,
      "ç¼ĸè¾ĳ": 674,
      "WG": 675,
      "åħ¶": 676,
      "è¿ŀ": 677,
      "å±ķ": 678,
      "ç§į": 679,
      "ä¹ĭ": 680,
      "åºĶçĶ¨": 681,
      "åıĤæķ°": 682,
      "æ¯Ķä¾ĭ": 683,
      "èĮĥåĽ´": 684,
      "el": 685,
      "èµ": 686,
      "ĵæī": 687,
      "åħ³": 688,
      "åħĥ": 689,
      "äº¤": 690,
      "æĸ°": 691,
      "å°º": 692,
      "è§Ĩ": 693,
      "è¡¨ç¤º": 694,
      "çī¹": 695,
      "ç±»åŀĭ": 696,
      "çİ°": 697,
      "ç®¡çĲĨ": 698,
      "ĠC": 699,
      "ä¸ŃçļĦ": 700,
      "åĬŁ": 701,
      "æĭĵæī": 702,
      "æĬĢ": 703,
      "æĮĩ": 704,
      "ä¼ĺ": 705,
      "000": 706,
      "ç²¾åº¦": 707,
      "çłģ": 708,
      "æĭĵæīĳ": 709,
      "84": 710,
      "Map": 711,
      "¯ä»¶": 712,
      "åĤ": 713,
      "æĽ": 714,
      "èī": 715,
      "ä½ķ": 716,
      "ç»Ħ": 717,
      "æłĩåĩĨ": 718,
      "ä¸ŃåĽ½": 719,
      "å®Į": 720,
      "è½¯ä»¶": 721,
      "ç§»": 722,
      "çī©": 723,
      "åŃĺåĤ": 724,
      "ä½įç½®": 725,
      "ä¸»è¦ģ": 726,
      "éĶ®": 727,
      "ĠPro": 728,
      "èī²": 729,
      "åŃĺåĤ¨": 730,
      "æ£": 731,
      "æĵį": 732,
      "çª": 733,
      "ç«": 734,
      "è£": 735,
      "éķ": 736,
      "åĪ«": 737,
      "å¤ĸ": 738,
      "ä»İ": 739,
      "éĢĤ": 740,
      "æłĩæ³¨": 741,
      "æĺŁ": 742,
      "éĩĩ": 743,
      "åĪĨç±»": 744,
      "åľ¨QGIS": 745,
      "å±Ģ": 746,
      "çº¬": 747,
      "åĩł": 748,
      "ä¼ł": 749,
      "æıĴ": 750,
      "éĹ®é¢ĺ": 751,
      "WGS": 752,
      "åĬŁèĥ½": 753,
      "æĵįä½ľ": 754,
      "AD": 755,
      "UT": 756,
      "ic": 757,
      "ile": 758,
      "«æĺŁ": 759,
      "æĻ": 760,
      "æľ¯": 761,
      "å·®": 762,
      "åĩ»": 763,
      "è¾¾": 764,
      "æŀľ": 765,
      "è§£": 766,
      "çĽ´": 767,
      "éĢļå¸¸": 768,
      "åĨ²": 769,
      "ä¾Ľ": 770,
      "æĿ¥": 771,
      "åĮºåŁŁ": 772,
      "æıĲä¾Ľ": 773,
      "èĢĥ": 774,
      "ç¬¦åı·": 775,
      "ct": 776,
      "ion": 777,
      "æ¸": 778,
      "åı°": 779,
      "åıł": 780,
      "ä½Ĩ": 781,
      "æķ°æį®çļĦ": 782,
      "å°Ħ": 783,
      "åŃ¦": 784,
      "å¯Ĩ": 785,
      "è§Ĵ": 786,
      "éĿ¢ç§¯": 787,
      "å·¥ä½ľ": 788,
      "é¡¹çĽ®": 789,
      "å¹³åı°": 790,
      "è´¨": 791,
      "Post": 792,
      "æĬĢæľ¯": 793,
      "éķ¿": 794,
      "DE": 795,
      "åĳ": 796,
      "ç¦": 797,
      "éª": 798,
      "æĺ¾": 799,
      "å·²": 800,
      "åį«æĺŁ": 801,
      "ç¼ĵ": 802,
      "æĸ¹æ³ķ": 803,
      "æŃ¥": 804,
      "å¿ĥ": 805,
      "è·¯": 806,
      "è·Ŀ": 807,
      "and": 808,
      "è°±": 809,
      "æ³¢æ®µ": 810,
      "çķĮ": 811,
      "æ¯Ķä¾ĭå°º": 812,
      "ï¼īï¼Ľ": 813,
      "2000": 814,
      "EPS": 815,
      "TI": 816,
      "ri": 817,
      "¨çİĩ": 818,
      "ï¼īãĢĤ": 819,
      "æķ´": 820,
      "åĪĨè¾": 821,
      "å¸¦": 822,
      "æµģ": 823,
      "åīį": 824,
      "åħīè°±": 825,
      "ç¦»": 826,
      "ç¼ĵåĨ²": 827,
      "åĪĨè¾¨çİĩ": 828,
      "QL": 829,
      "SQL": 830,
      "file": 831,
      "og": 832,
      "ver": 833,
      "æ¤": 834,
      "æ±": 835,
      "çľ": 836,
      "è¶": 837,
      "åı³": 838,
      "å®ī": 839,
      "è¾¹": 840,
      "åıĺåĮĸ": 841,
      "å¯¼åĩº": 842,
      "åľ¨QGISä¸Ń": 843,
      "çĽ´æİ¥": 844,
      "EPSG": 845,
      "Sh": 846,
      "ar": 847,
      "efile": 848,
      "åģ": 849,
      "çĥ": 850,
      "éĥ": 851,
      "éĺ": 852,
      "å¤į": 853,
      "äºĳ": 854,
      "æľŁ": 855,
      "æĪ·": 856,
      "åį³": 857,
      "æīĢ": 858,
      "ç¼©": 859,
      "éĢīé¡¹": 860,
      "å¤ĦçĲĨå·¥åħ·": 861,
      "å¤ļä¸ª": 862,
      "apefile": 863,
      "éĻĲ": 864,
      "æ£Ģ": 865,
      "çªĹ": 866,
      "æĻ¯": 867,
      "æĺ¾ç¤º": 868,
      "Shapefile": 869,
      "AR": 870,
      "CAD": 871,
      "ag": 872,
      "¢«": 873,
      "è¢«": 874,
      "ĠE": 875,
      "åĪ©": 876,
      "ç»ľ": 877,
      "æľº": 878,
      "æĸ¯": 879,
      "åĬ¡": 880,
      "çº¢": 881,
      "è¾ĥ": 882,
      "ç®±": 883,
      "ç´¢": 884,
      "çĤ¹åĩ»": 885,
      "æĹł": 886,
      "åŁºåĩĨ": 887,
      "å¯¹äºİ": 888,
      "ç½ĳç»ľ": 889,
      "å¸¸çĶ¨çļĦ": 890,
      "GCS": 891,
      "éĢĤåĲĪ": 892,
      "çº¬åº¦": 893,
      "åĩłä½ķ": 894,
      "UTM": 895,
      "DEM": 896,
      "è·Ŀç¦»": 897,
      "ç¼ĵåĨ²åĮº": 898,
      "åı³éĶ®": 899,
      "éĥ¨": 900,
      "ON": 901,
      "ect": 902,
      "¨åį¡": 903,
      "ĠT": 904,
      "åľº": 905,
      "åĪĹ": 906,
      "åħ¬": 907,
      "çĶ¨æĪ·": 908,
      "ç»ĵ": 909,
      "åľ°å½¢": 910,
      "å¼Ĥ": 911,
      "å®¹": 912,
      "åĬĽ": 913,
      "å¸Ĥ": 914,
      "æŀĦ": 915,
      "è§ģ": 916,
      "æīĵ": 917,
      "æīĺ": 918,
      "ä¼°": 919,
      "é«ĺç¨ĭ": 920,
      "ä¹ī": 921,
      "ArcGISä¸Ń": 922,
      "éĩįè¦ģ": 923,
      "å¾Ħ": 924,
      "åıĤèĢĥ": 925,
      "å¢¨åį¡": 926,
      "è¿ŀæİ¥": 927,
      "ä¹ĭéĹ´": 928,
      "çĥŃ": 929,
      "å¢¨åį¡æīĺ": 930,
      "ac": 931,
      "èĪ": 932,
      "éħ": 933,
      "įåĬ¡": 934,
      "åı£": 935,
      "ç»ĺ": 936,
      "æķ°æį®æł¼å¼ı": 937,
      "æľįåĬ¡": 938,
      "åŁİ": 939,
      "å¹´": 940,
      "è½½": 941,
      "è¯¦": 942,
      "æĸ¹åĲĳ": 943,
      "åıĺå½¢": 944,
      "æµĭéĩı": 945,
      "å¼ĢæºĲ": 946,
      "å¸ĥå±Ģ": 947,
      "è¾ĵåħ¥": 948,
      "æ°´": 949,
      "éħį": 950,
      "AS": 951,
      "CGCS": 952,
      "JS": 953,
      "æ¬": 954,
      "æ´": 955,
      "éļ": 956,
      "ĭç¼©": 957,
      "çļĦæķ°æį®": 958,
      "åıį": 959,
      "æł¸": 960,
      "æł¹": 961,
      "çĶ±": 962,
      "åħĭ": 963,
      "åĽł": 964,
      "äºĴ": 965,
      "åľ°çĲĥ": 966,
      "è¿Ĳ": 967,
      "åĬ¿": 968,
      "æī¹": 969,
      "çĽĳ": 970,
      "ç»Łè®¡": 971,
      "å¸¸è§ģ": 972,
      "éĻħ": 973,
      "ç¼ĸçłģ": 974,
      "åİŁ": 975,
      "åİĭç¼©": 976,
      "å¯¼åħ¥": 977,
      "è°ĥ": 978,
      "æŃ£ç¡®": 979,
      "è§ĦåĪĻ": 980,
      "è£ħ": 981,
      "PostGIS": 982,
      "éª¤": 983,
      "æŃ¥éª¤": 984,
      "æīĢæľī": 985,
      "age": 986,
      "åĪ©çĶ¨": 987,
      "åŁİå¸Ĥ": 988,
      "Py": 989,
      "ol": 990,
      "çģ": 991,
      "çĻ": 992,
      "ĠA": 993,
      "æķĪ": 994,
      "åħį": 995,
      "GISè½¯ä»¶": 996,
      "äºº": 997,
      "å½ĵ": 998,
      "è®¤": 999,
      "å¹¿": 1000,
      "æĢģ": 1001,
      "ä¼ļ": 1002,
      "æĶ¶": 1003,
      "ata": 1004,
      "ate": 1005,
      "ä¹Ł": 1006,
      "ine": 1007,
      "ing": 1008,
      "ç®Ĺæ³ķ": 1009,
      "æĦŁåĻ¨": 1010,
      "èĩ³": 1011,
      "æ¯ı": 1012,
      "å¿ħ": 1013,
      "ent": 1014,
      "è¾ĵåĩº": 1015,
      "ä¿ĿåŃĺ": 1016,
      "æĽ´": 1017,
      "ä¼łæĦŁåĻ¨": 1018,
      "è´¨éĩı": 1019,
      "çº¢å¤ĸ": 1020,
      "åľºæĻ¯": 1021,
      "æī¹éĩı": 1022,
      "In": 1023,
      "od": 1024,
      "se": 1025,
      "ul": 1026,
      "ut": 1027,
      "§è¡Į": 1028,
      "èİ": 1029,
      "éĥ½": 1030,
      "Ġ1": 1031,
      "ĠO": 1032,
      "ĠS": 1033,
      "çļĦåŁº": 1034,
      "åĪĴ": 1035,
      "åħ±": 1036,
      "ç»Ĩ": 1037,
      "ç»Ń": 1038,
      "åĲį": 1039,
      "å¼ķ": 1040,
      "åĪĨå¸ĥ": 1041,
      "åı¯è§Ĩ": 1042,
      "æ³Ľ": 1043,
      "æī§è¡Į": 1044,
      "ç®Ģ": 1045,
      "ç©ºéĹ´æķ°æį®": 1046,
      "å¤§åľ°": 1047,
      "æĦı": 1048,
      "ç¡Ģ": 1049,
      "éģ¥æĦŁå½±åĥı": 1050,
      "æ¡Ĩ": 1051,
      "åħ¨çĲĥ": 1052,
      "èĩªåĬ¨": 1053,
      "æł·å¼ı": 1054,
      "æ°Ķ": 1055,
      "åħ³ç³»": 1056,
      "å®Įæķ´": 1057,
      "è·¯å¾Ħ": 1058,
      "éĢīé¡¹åį¡": 1059,
      "å¤ĦçĲĨå·¥åħ·ç®±": 1060,
      "JSON": 1061,
      "æł¸å¿ĥ": 1062,
      "æł¹æį®": 1063,
      "çĽĳæµĭ": 1064,
      "çĻ¾": 1065,
      "å¹¿æ³Ľ": 1066,
      "èİ·": 1067,
      "GPS": 1068,
      "Pac": 1069,
      "kage": 1070,
      "åķ": 1071,
      "çĬ": 1072,
      "ĠD": 1073,
      "ĠN": 1074,
      "ıè§": 1075,
      "ķæł¼": 1076,
      "ä¸¤": 1077,
      "åĲķæł¼": 1078,
      "å®ĥ": 1079,
      "åŃĲ": 1080,
      "ç³»åĪĹ": 1081,
      "é«ĺæĸ¯": 1082,
      "æµıè§": 1083,
      "ç©ºéĹ´åĪĨæŀĲ": 1084,
      "å¤§å°ı": 1085,
      "ation": 1086,
      "æİ¨": 1087,
      "çīĪ": 1088,
      "æĸ¹å¼ı": 1089,
      "çİ¯": 1090,
      "èĥ½åĬĽ": 1091,
      "æĹ¶éĹ´": 1092,
      "å®ļä¹ī": 1093,
      "æłħæł¼æķ°æį®": 1094,
      "GeoPac": 1095,
      "çŁ¢éĩıæķ°æį®": 1096,
      "å±ķç¤º": 1097,
      "ç«¯": 1098,
      "æıĴä»¶": 1099,
      "å·®å¼Ĥ": 1100,
      "å®īè£ħ": 1101,
      "æīĵå¼Ģ": 1102,
      "åħĭåĲķæł¼": 1103,
      "åı¯è§ĨåĮĸ": 1104,
      "åķĨ": 1105,
      "æµıè§Ī": 1106,
      "GeoPackage": 1107,
      "80": 1108,
      "Land": 1109,
      "ND": 1110,
      "SAR": 1111,
      "Sent": 1112,
      "ad": 1113,
      "em": 1114,
      "op": 1115,
      "yst": 1116,
      "æ²": 1117,
      "æ»": 1118,
      "èģ": 1119,
      "èĬ": 1120,
      "ĠM": 1121,
      "Ġåľ¨": 1122,
      "åľŁ": 1123,
      "GISæķ°æį®": 1124,
      "äºĮ": 1125,
      "åºı": 1126,
      "éĢŁ": 1127,
      "å¼º": 1128,
      "è¿ĳ": 1129,
      "æµ·": 1130,
      "æĹ¥": 1131,
      "è¯¢": 1132,
      "è¯Ħ": 1133,
      "æĶ¾": 1134,
      "å»ºæ¨¡": 1135,
      "è¡¨éĿ¢": 1136,
      "ArcMap": 1137,
      "æıı": 1138,
      "é¡»": 1139,
      "æĿ¡": 1140,
      "æĿ¿": 1141,
      "åĲĪå¹¶": 1142,
      "inel": 1143,
      "éĩįæĬķå½±": 1144,
      "éĩįåıł": 1145,
      "GeoJSON": 1146,
      "æıĲåıĸ": 1147,
      "å®ŀéĻħ": 1148,
      "æŁ¥è¯¢": 1149,
      "èµĦ": 1150,
      "æĸ°å»º": 1151,
      "åıłåĬł": 1152,
      "æ±Ĥ": 1153,
      "è¾¹çķĮ": 1154,
      "åģı": 1155,
      "ç´¢å¼ķ": 1156,
      "åŁºåĩĨéĿ¢": 1157,
      "å¢¨åį¡æīĺæĬķå½±": 1158,
      "è¯¦è§£": 1159,
      "éħįç½®": 1160,
      "æ¬¡": 1161,
      "èİ·åıĸ": 1162,
      "çĬ¶": 1163,
      "çīĪæľ¬": 1164,
      "Sentinel": 1165,
      "DF": 1166,
      "FF": 1167,
      "Go": 1168,
      "KM": 1169,
      "Net": 1170,
      "arc": 1171,
      "py": 1172,
      "ss": 1173,
      "sat": 1174,
      "±¡": 1175,
      "èĻ": 1176,
      "è±¡": 1177,
      "ĠG": 1178,
      "ŃçĲĥ": 1179,
      "ä¸ĵ": 1180,
      "åľĨ": 1181,
      "åħĪ": 1182,
      "æķ°åŃĹ": 1183,
      "åľ°éĿ¢": 1184,
      "åľ°è¡¨": 1185,
      "åĲ«": 1186,
      "åĽ¾å½¢": 1187,
      "åľ¨GIS": 1188,
      "åľ¨ArcGISä¸Ń": 1189,
      "è®®": 1190,
      "è®°": 1191,
      "æĺ¯GIS": 1192,
      "éĿŀ": 1193,
      "è§Ĥ": 1194,
      "æī©": 1195,
      "çĽĸ": 1196,
      "è¯Ĩ": 1197,
      "å»ºè®®": 1198,
      "è¡¨è¾¾": 1199,
      "å¦Ĥæŀľ": 1200,
      "ati": 1201,
      "ers": 1202,
      "éģĵ": 1203,
      "æ¨¡å¼ı": 1204,
      "å¾Ĺ": 1205,
      "çŁ¥": 1206,
      "èĩ´": 1207,
      "åİĨ": 1208,
      "åĪ¶åĽ¾": 1209,
      "ä¸ĬçļĦ": 1210,
      "ç»ıçº¿": 1211,
      "æ³¨æĦı": 1212,
      "ç½ĳæł¼": 1213,
      "æ¡Ī": 1214,
      "ä¸ĭè½½": 1215,
      "è®¡ç®ĹåĻ¨": 1216,
      "thon": 1217,
      "è¿ŀç»Ń": 1218,
      "æĮĩå®ļ": 1219,
      "ä¼ĺåĬ¿": 1220,
      "æıĴåĢ¼": 1221,
      "æ¸©": 1222,
      "å·¥ä½ľä¸Ń": 1223,
      "TIFF": 1224,
      "ogle": 1225,
      "æ¤ŃçĲĥ": 1226,
      "æ¯ıä¸ª": 1227,
      "å¿ħé¡»": 1228,
      "åķĨä¸ļ": 1229,
      "Landsat": 1230,
      "èĬĤ": 1231,
      "è¯Ħä¼°": 1232,
      "èµĦæºĲ": 1233,
      "Google": 1234,
      "AL": 1235,
      "Es": 1236,
      "SS": 1237,
      "VI": 1238,
      "ay": 1239,
      "ff": 1240,
      "pen": 1241,
      "£ģ": 1242,
      "æĲ": 1243,
      "çĦ": 1244,
      "ç£ģ": 1245,
      "é»": 1246,
      "éĴ": 1247,
      "ĨçĽĸ": 1248,
      "įè¢«": 1249,
      "ä¸ľ": 1250,
      "çļĦæł¸å¿ĥ": 1251,
      "çĶ»": 1252,
      "å¤©": 1253,
      "ä»ĸ": 1254,
      "äº§": 1255,
      "äºĽ": 1256,
      "åľ°çī©": 1257,
      "è¿°": 1258,
      "è¿Ļ": 1259,
      "æĺİ": 1260,
      "åľ¨äºİ": 1261,
      "è¦ĨçĽĸ": 1262,
      "æĭĸ": 1263,
      "åįĬ": 1264,
      "çŃĳ": 1265,
      "è¯»": 1266,
      "æĶ¹": 1267,
      "å»ºçŃĳ": 1268,
      "åĽ¾å±ĤçļĦ": 1269,
      "QGISçļĦ": 1270,
      "åĮħåĲ«": 1271,
      "çīĩ": 1272,
      "æĸĩåŃĹ": 1273,
      "æŃ¤": 1274,
      "è¦ģç´łç±»": 1275,
      "åĥıç´ł": 1276,
      "åľ°çĲĨåĿĲæłĩ": 1277,
      "åľ°çĲĨæķ°æį®åºĵ": 1278,
      "é¢Ħ": 1279,
      "å¾ģ": 1280,
      "ç»ıçº¬åº¦": 1281,
      "ç²¾ç¡®": 1282,
      "å®ŀçİ°": 1283,
      "åįķä½į": 1284,
      "åıĳå¸ĥ": 1285,
      "å¢ĥ": 1286,
      "åħ¶ä»ĸ": 1287,
      "èµ·": 1288,
      "äº¤éĢļ": 1289,
      "çī¹å¾ģ": 1290,
      "åĳ¨": 1291,
      "æ¤įè¢«": 1292,
      "çľĭ": 1293,
      "åį³åı¯": 1294,
      "éĻĲåĪ¶": 1295,
      "çªĹæł¼": 1296,
      "çĥŃçº¢å¤ĸ": 1297,
      "è¿Ĳè¡Į": 1298,
      "Python": 1299,
      "èģĶ": 1300,
      "æĿ¡ä»¶": 1301,
      "arcpy": 1302,
      "æī©å±ķ": 1303,
      "Esri": 1304,
      "30": 1305,
      "57": 1306,
      "99": 1307,
      "GB": 1308,
      "Li": 1309,
      "RS": 1310,
      "line": 1311,
      "ot": 1312,
      "sh": 1313,
      "tr": 1314,
      "ust": 1315,
      "§ĭ": 1316,
      "å§ĭ": 1317,
      "èŀ": 1318,
      "ĠF": 1319,
      "ĠR": 1320,
      "įåĲĪ": 1321,
      "ĺè®¤": 1322,
      "åıĬ": 1323,
      "æįŁ": 1324,
      "æķ°åĢ¼": 1325,
      "ç»ĩ": 1326,
      "äº«": 1327,
      "åĪĨä¸º": 1328,
      "åĿĹ": 1329,
      "è®¸": 1330,
      "å¹ħ": 1331,
      "æĬķå½±åĿĲæłĩ": 1332,
      "åľ°åĽ¾æĬķå½±": 1333,
      "ä¸įèĥ½": 1334,
      "ä¿®": 1335,
      "erver": 1336,
      "åĬłå¯Ĩ": 1337,
      "å¤ļåħīè°±": 1338,
      "åĥıåħĥ": 1339,
      "æĿĤ": 1340,
      "æĿĥ": 1341,
      "é¢Ĩ": 1342,
      "æİ¥æĶ¶": 1343,
      "æŁĵ": 1344,
      "è½¬æį¢ä¸º": 1345,
      "å¿«": 1346,
      "å±ŀæĢ§è¡¨": 1347,
      "è´¹": 1348,
      "æŁ¥çľĭ": 1349,
      "åĨħå®¹": 1350,
      "çĶŁæĢģ": 1351,
      "ä¹ĭä¸Ģ": 1352,
      "ç»Ħç»ĩ": 1353,
      "ç«ĭ": 1354,
      "éĩĩæł·": 1355,
      "éĩĩéĽĨ": 1356,
      "æıĲä¾ĽäºĨ": 1357,
      "å¯Ĩåº¦": 1358,
      "å¤įæĿĤ": 1359,
      "èĪª": 1360,
      "ç»ĺåĪ¶": 1361,
      "éļı": 1362,
      "åħ±äº«": 1363,
      "çİ¯å¢ĥ": 1364,
      "NDVI": 1365,
      "åģıç§»": 1366,
      "è§Ĥæµĭ": 1367,
      "è¯ĨåĪ«": 1368,
      "çĦ¶": 1369,
      "é»ĺè®¤": 1370,
      "èŀįåĲĪ": 1371,
      "10": 1372,
      "54": 1373,
      "Bu": 1374,
      "DAL": 1375,
      "Lay": 1376,
      "OGC": 1377,
      "Open": 1378,
      "Sp": 1379,
      "ce": 1380,
      "ed": 1381,
      "gre": 1382,
      "is": 1383,
      "la": 1384,
      "nal": 1385,
      "¥¿": 1386,
      "®ç»ıçº¿": 1387,
      "°å¯": 1388,
      "¿åħį": 1389,
      "åĵį": 1390,
      "ç¾": 1391,
      "èĦ": 1392,
      "è¥¿": 1393,
      "Ġ3": 1394,
      "ĠGIS": 1395,
      "ĮéĿ¢": 1396,
      "ä¸°å¯": 1397,
      "çļĦåĿĲæłĩç³»ç»Ł": 1398,
      "çļĦä¸īç»´": 1399,
      "åıĮ": 1400,
      "çĶµ": 1401,
      "å¤±": 1402,
      "å¤®ç»ıçº¿": 1403,
      "åºķ": 1404,
      "åĲ¦": 1405,
      "åĲ¯": 1406,
      "è¿ĺ": 1407,
      "ä¸Ńå¤®ç»ıçº¿": 1408,
      "åľ¨çº¿": 1409,
      "åľ¨ä¸įåĲĮ": 1410,
      "å±±": 1411,
      "å®¶": 1412,
      "åĿ¡": 1413,
      "åı¯èĥ½": 1414,
      "æŀĹ": 1415,
      "æĺ¯æľĢ": 1416,
      "æĺ¯åĲ¦": 1417,
      "åįĹ": 1418,
      "éĿ¢æĿ¿": 1419,
      "è½´": 1420,
      "ä¼¼": 1421,
      "çŃīéĿ¢ç§¯": 1422,
      "é«ĺåº¦": 1423,
      "é«ĺçº§": 1424,
      "ç§°": 1425,
      "åľ°åĽ¾ä¸Ĭ": 1426,
      "ç©ºéĹ´æķ°æį®åºĵ": 1427,
      "ç©ºéĹ´ç´¢å¼ķ": 1428,
      "è¯¯": 1429,
      "è¯Ń": 1430,
      "å¤§æ¯Ķä¾ĭå°º": 1431,
      "åĪĨæŀĲå·¥åħ·": 1432,
      "åĨ³": 1433,
      "atu": 1434,
      "åŁºæľ¬": 1435,
      "æĸ¹æ¡Ī": 1436,
      "å¯¹åºĶ": 1437,
      "éģ¿åħį": 1438,
      "å½¢çĬ¶": 1439,
      "åľ°çĲĨè¦ģç´ł": 1440,
      "åľ°çĲĨåĿĲæłĩç³»ç»Ł": 1441,
      "åŃĹç¬¦": 1442,
      "å¼Ģåıĳ": 1443,
      "ç¨ĭåº¦": 1444,
      "ç»ıåº¦": 1445,
      "æ¡ĮéĿ¢": 1446,
      "å®ŀæĹ¶": 1447,
      "èĢĮ": 1448,
      "ä»£çłģ": 1449,
      "åĨħç½®": 1450,
      "çĶŁæĪĲ": 1451,
      "è§ĦåĪĴ": 1452,
      "åħĥæķ°æį®": 1453,
      "åħĥç´ł": 1454,
      "äº¤äºĴ": 1455,
      "è§ĨåĽ¾": 1456,
      "ĠCo": 1457,
      "æĽ¿": 1458,
      "ç»ĦæĪĲ": 1459,
      "å®ĮæĪĲ": 1460,
      "ç¬¦åı·åĮĸ": 1461,
      "Postgre": 1462,
      "éķ¿åº¦": 1463,
      "åĳ½": 1464,
      "TIN": 1465,
      "æµģç¨ĭ": 1466,
      "çľŁ": 1467,
      "æ£ĢæŁ¥": 1468,
      "çªĹåı£": 1469,
      "åı³éĶ®åĽ¾å±Ĥ": 1470,
      "ä¹ĭéĹ´çļĦ": 1471,
      "å¼ĢæºĲGIS": 1472,
      "å¸¸è§ģçļĦ": 1473,
      "ĠAnal": 1474,
      "odel": 1475,
      "çļĦåŁºç¡Ģ": 1476,
      "åħĭåĲķæł¼æĬķå½±": 1477,
      "åľŁåľ°": 1478,
      "å»ºæ¨¡åĻ¨": 1479,
      "æııè¿°": 1480,
      "KML": 1481,
      "è¡¨è¾¾å¼ı": 1482,
      "æ¸©åº¦": 1483,
      "ä¿®æĶ¹": 1484,
      "é¢ĨåŁŁ": 1485,
      "ä¸°å¯Į": 1486,
      "PostgreSQL": 1487,
      "02": 1488,
      "32": 1489,
      "38": 1490,
      "CDF": 1491,
      "CRS": 1492,
      "GF": 1493,
      "GN": 1494,
      "Must": 1495,
      "OS": 1496,
      "SV": 1497,
      "Sc": 1498,
      "Server": 1499,
      "TE": 1500,
      "dal": 1501,
      "it": 1502,
      "ng": 1503,
      "nline": 1504,
      "ou": 1505,
      "rap": 1506,
      "¥æĬķå½±": 1507,
      "§åĪ¶": 1508,
      "¼åĲĪ": 1509,
      "½æķ°": 1510,
      "å¡": 1511,
      "èį": 1512,
      "èı": 1513,
      "éĤ": 1514,
      "Ġ+": 1515,
      "ĠB": 1516,
      "ĠH": 1517,
      "Ġæ·»åĬł": 1518,
      "ģç§»": 1519,
      "ľåįķ": 1520,
      "ľèī²": 1521,
      "ï¼Ī.": 1522,
      "æķ°åŃ¦": 1523,
      "æķ°çĻ¾": 1524,
      "ä½İ": 1525,
      "ç»¼åĲĪ": 1526,
      "å½ķ": 1527,
      "è¿ģç§»": 1528,
      "åĩ½æķ°": 1529,
      "åı¯éĢļè¿ĩ": 1530,
      "æŀģ": 1531,
      "é«ĺç²¾åº¦": 1532,
      "ä¸Ģèĩ´": 1533,
      "åħ·æľī": 1534,
      "ä»¥ä¸ĭ": 1535,
      "ç©ºéĹ´æķ°æį®çļĦ": 1536,
      "å¤§æ°Ķ": 1537,
      "0000": 1538,
      "ator": 1539,
      "æİ§åĪ¶": 1540,
      "ä¾¿": 1541,
      "å¤ļç§į": 1542,
      "æł¼å¼ıè½¬æį¢": 1543,
      "é¢ľèī²": 1544,
      "å®ļä½į": 1545,
      "åĩĨç¡®": 1546,
      "çŁŃ": 1547,
      "æµĭç»ĺ": 1548,
      "éĻ¤": 1549,
      "æłħæł¼è®¡ç®ĹåĻ¨": 1550,
      "åŃĺåľ¨": 1551,
      "çĽ®æłĩ": 1552,
      "çĽ®åīį": 1553,
      "å¹³éĿ¢": 1554,
      "ç¬¬": 1555,
      "ä¸įåĲĮçļĦ": 1556,
      "èĢħ": 1557,
      "åıĳå°Ħ": 1558,
      "åī²": 1559,
      "ç±³çº§": 1560,
      "GCJ": 1561,
      "ä¿ĿæĮģ": 1562,
      "Webåľ°åĽ¾": 1563,
      "éĩĩçĶ¨": 1564,
      "å±ĢéĻĲ": 1565,
      "èĢĥèĻ": 1566,
      "éªĮ": 1567,
      "å·²æľī": 1568,
      "çķĮéĿ¢": 1569,
      "è¶ħ": 1570,
      "è¶Ĭ": 1571,
      "å¯¼åĩºä¸º": 1572,
      "arth": 1573,
      "æ£Ģæµĭ": 1574,
      "ĠEarth": 1575,
      "éĥ¨åĪĨ": 1576,
      "ç»ĵæŀľ": 1577,
      "æľįåĬ¡åĻ¨": 1578,
      "åıįå°Ħ": 1579,
      "åħįè´¹": 1580,
      "äººåı£": 1581,
      "ĠData": 1582,
      "æİ¨èį": 1583,
      "æµıè§ĪåĻ¨": 1584,
      "NetCDF": 1585,
      "åľ¨GISä¸Ń": 1586,
      "æ¤ŃçĲĥä½ĵ": 1587,
      "ffer": 1588,
      "çĶ»å¸ĥ": 1589,
      "é¢Ħå¤ĦçĲĨ": 1590,
      "çªĹæł¼ä¸Ń": 1591,
      "Spati": 1592,
      "ç¾İ": 1593,
      "åºķåĽ¾": 1594,
      "æĽ¿ä»£": 1595,
      "ĠAnalyst": 1596,
      "3857": 1597,
      "GNSS": 1598,
      "raph": 1599,
      "èıľåįķ": 1600,
      "éĤ»": 1601,
      "èĢĥèĻĳ": 1602,
      "æİ¨èįĲ": 1603,
      "19": 1604,
      "90": 1605,
      "Di": 1606,
      "DAR": 1607,
      "GDAL": 1608,
      "ID": 1609,
      "IM": 1610,
      "KT": 1611,
      "NI": 1612,
      "WKT": 1613,
      "av": 1614,
      "es": 1615,
      "gdal": 1616,
      "if": 1617,
      "ip": 1618,
      "js": 1619,
      "ject": 1620,
      "ly": 1621,
      "ow": 1622,
      "ool": 1623,
      "pr": 1624,
      "ra": 1625,
      "¡æŃ£": 1626,
      "®æŀĹ": 1627,
      "¶çĤ¹": 1628,
      "·è¾¾": 1629,
      "¸çļĦ": 1630,
      "¼å®¹": 1631,
      "æĥ": 1632,
      "çĿ": 1633,
      "é£": 1634,
      "ĠV": 1635,
      "Ġæķ°æį®": 1636,
      "Ĳå°Ħ": 1637,
      "ä¸ĩ": 1638,
      "çļĦGIS": 1639,
      "çļĦæĬķå½±": 1640,
      "çļĦç©ºéĹ´": 1641,
      "åı¦": 1642,
      "åı²": 1643,
      "åıĹ": 1644,
      "æł¡æŃ£": 1645,
      "åĪĩ": 1646,
      "æķ£": 1647,
      "åħ¼å®¹": 1648,
      "å¤ĩ": 1649,
      "ä»ª": 1650,
      "äº¬": 1651,
      "æķ°æį®å¤ĦçĲĨ": 1652,
      "æķ°æį®æºĲ": 1653,
      "åĲĦ": 1654,
      "å½©": 1655,
      "åĽ¾çīĩ": 1656,
      "éĢı": 1657,
      "éĢĲ": 1658,
      "éĩĮ": 1659,
      "åĪĨåĪ«": 1660,
      "åľ¨å®ŀéĻħ": 1661,
      "æĸ½": 1662,
      "å®½": 1663,
      "åĿĩ": 1664,
      "è¦ģæ±Ĥ": 1665,
      "åĩı": 1666,
      "è®¿": 1667,
      "åı¯è¾¾": 1668,
      "è¾Ĳå°Ħ": 1669,
      "å°ĳ": 1670,
      "æĺ¯ä¸Ģ": 1671,
      "åĿĲæłĩè½¬æį¢": 1672,
      "åįģ": 1673,
      "ä½¿çĶ¨çļĦ": 1674,
      "è½¨": 1675,
      "é«ĺåĪĨ": 1676,
      "æĢ§åĴĮ": 1677,
      "ç©ºéĹ´åĪĨè¾¨çİĩ": 1678,
      "ç©ºéĹ´åıĤèĢĥ": 1679,
      "åĨµ": 1680,
      "åĨľ": 1681,
      "å¦Ĥä½ķ": 1682,
      "ä¹Ī": 1683,
      "åŁºç¡Ģ": 1684,
      "è¿ĩç¨ĭ": 1685,
      "åĢĻ": 1686,
      "å¯¹è±¡": 1687,
      "éľĢæ±Ĥ": 1688,
      "é¡¶çĤ¹": 1689,
      "ä½ľä¸º": 1690,
      "åĮºåĪ«": 1691,
      "åĲĮä¸Ģ": 1692,
      "åı¯ä»¥çĽ´æİ¥": 1693,
      "æŁĲ": 1694,
      "åºĶçĶ¨äºİ": 1695,
      "ä¸īç§į": 1696,
      "ä¸īè§Ĵ": 1697,
      "æľ¬åľ°": 1698,
      "å±ŀæĢ§åŃĹæ®µ": 1699,
      "è®¾æĸ½": 1700,
      "GeoTIFF": 1701,
      "åĽ½å®¶": 1702,
      "æľĢå¤§": 1703,
      "å¯¼èĪª": 1704,
      "æ¡£": 1705,
      "éĶ¥æĬķå½±": 1706,
      "éĽ·è¾¾": 1707,
      "çĽ¸åĲĮ": 1708,
      "åĮĹäº¬": 1709,
      "ree": 1710,
      "çİ°ä»£": 1711,
      "ç§»åĬ¨": 1712,
      "åŃĺåĤ¨åĴĮ": 1713,
      "æ£®æŀĹ": 1714,
      "UTF": 1715,
      "è§Ĵåº¦": 1716,
      "SQLæŁ¥è¯¢": 1717,
      "ogr": 1718,
      "äºĳGIS": 1719,
      "ç½ĳç»ľåĪĨæŀĲ": 1720,
      "åĩłä½ķç±»åŀĭ": 1721,
      "ç»ĵæŀĦ": 1722,
      "æŀĦå»º": 1723,
      "åĽłæŃ¤": 1724,
      "åľ°çĲĥè¡¨éĿ¢": 1725,
      "è°ĥæŁ¥": 1726,
      "è°ĥæķ´": 1727,
      "çģ¾": 1728,
      "æķĪæŀľ": 1729,
      "å½ĵåīį": 1730,
      "æī¹éĩıå¤ĦçĲĨ": 1731,
      "ĠOnline": 1732,
      "çļĦåŁºæľ¬": 1733,
      "ç®ĢåĮĸ": 1734,
      "çĻ¾åº¦": 1735,
      "å¹¿æ³ĽåºĶçĶ¨äºİ": 1736,
      "ĠNot": 1737,
      "åľĨéĶ¥æĬķå½±": 1738,
      "åĽ¾å½¢å»ºæ¨¡åĻ¨": 1739,
      "åİĨåı²": 1740,
      "è¿ĻäºĽ": 1741,
      "æĭĸåħ¥": 1742,
      "LiDAR": 1743,
      "å¿«éĢŁ": 1744,
      "éĩĩæł·çĤ¹": 1745,
      "Layers": 1746,
      "åıĮåĩ»": 1747,
      "äº¤äºĴå¼ı": 1748,
      "ä¸°å¯ĮçļĦ": 1749,
      "326": 1750,
      "Spatial": 1751,
      "ç¾İåĽ½": 1752,
      "prj": 1753,
      "æĺ¯ä¸Ģç§į": 1754,
      "11": 1755,
      "180": 1756,
      "20": 1757,
      "23": 1758,
      "500": 1759,
      "63": 1760,
      "ED": 1761,
      "EN": 1762,
      "Ex": 1763,
      "JP": 1764,
      "LA": 1765,
      "Le": 1766,
      "LAS": 1767,
      "ST": 1768,
      "TR": 1769,
      "af": 1770,
      "ast": 1771,
      "ei": 1772,
      "ew": 1773,
      "eatu": 1774,
      "gh": 1775,
      "il": 1776,
      "iew": 1777,
      "lip": 1778,
      "met": 1779,
      "ox": 1780,
      "put": 1781,
      "wor": 1782,
      "¥½": 1783,
      "ªè½´": 1784,
      "²æŁĵ": 1785,
      "´å½±": 1786,
      "µĮ": 1787,
      "¿Ģ": 1788,
      "å²": 1789,
      "å¥½": 1790,
      "åµĮ": 1791,
      "æ¶": 1792,
      "æ¦Ĥ": 1793,
      "æ¿Ģ": 1794,
      "éĵ": 1795,
      "éĢĶ": 1796,
      "Ġ(": 1797,
      "Ġ*": 1798,
      "Ġ-": 1799,
      "Ġ>": 1800,
      "ĠL": 1801,
      "Ġä½¿çĶ¨": 1802,
      "Ġè®¾ç½®": 1803,
      "Ġå¯¹äºİ": 1804,
      "ĠIn": 1805,
      "Ģä¹Ī": 1806,
      "ģåī": 1807,
      "İå¤ĸ": 1808,
      "ĳåŃ¦": 1809,
      "ķæį": 1810,
      "Ļè¯¯": 1811,
      "ļæľ¬": 1812,
      "ä¸ĸ": 1813,
      "çļĦå·¥åħ·": 1814,
      "çļĦåľ°çĲĨ": 1815,
      "çļĦä½įç½®": 1816,
      "çļĦæĬĢæľ¯": 1817,
      "çļĦæŃ¥éª¤": 1818,
      "æįķæį": 1819,
      "æķ°åįģ": 1820,
      "çĶ¨éĢĶ": 1821,
      "å¤ª": 1822,
      "ä»Ģä¹Ī": 1823,
      "GISçļĦ": 1824,
      "æķ°æį®éĩı": 1825,
      "æķ°æį®éĽĨ": 1826,
      "åĲ¸": 1827,
      "åĽ¾ä¾ĭ": 1828,
      "éĩĳ": 1829,
      "éĩİå¤ĸ": 1830,
      "åĪĨçº§": 1831,
      "åĪĨåī²": 1832,
      "åĿĢ": 1833,
      "çĲĨè§£": 1834,
      "éĹ¨": 1835,
      "å½±åĵį": 1836,
      "åı¯åľ¨": 1837,
      "æŀ¶": 1838,
      "æĬ¤": 1839,
      "ä½¿çĶ¨å¤ĦçĲĨå·¥åħ·ç®±": 1840,
      "æīĭ": 1841,
      "å¹²": 1842,
      "ï¼īãĢģ.": 1843,
      "çŃīè§Ĵ": 1844,
      "é«ĺå¾": 1845,
      "é«ĺåĪĨè¾¨çİĩ": 1846,
      "é«ĺæķĪ": 1847,
      "ç§ĳåŃ¦": 1848,
      "ä¸ĢèĪ": 1849,
      "åľ°åĽ¾æ¡Ĩ": 1850,
      "ç¼º": 1851,
      "ç©ºéĹ´åħ³ç³»": 1852,
      "è¯ģ": 1853,
      "è¯ķ": 1854,
      "åĨį": 1855,
      "åĨĻ": 1856,
      "å·¥åħ·ç®±": 1857,
      "æĶ¿": 1858,
      "è¡¨æł¼": 1859,
      "ArcPy": 1860,
      "QGISä¸Ń": 1861,
      "æ¨ªè½´": 1862,
      "æĸ¹éĿ¢": 1863,
      "æł¼å¼ıè¯¦è§£": 1864,
      "åľ°çĲĨç©ºéĹ´": 1865,
      "åľ°çĲĨä¿¡æģ¯": 1866,
      "åĮºåĪĨ": 1867,
      "int": 1868,
      "åı¯ä»¥ä½¿çĶ¨": 1869,
      "åı¯ä»¥éĢļè¿ĩ": 1870,
      "å¾®": 1871,
      "å°Ĩæķ°æį®": 1872,
      "let": 1873,
      "å¼ĢæĶ¾": 1874,
      "æĸĩä»¶ä½ĵ": 1875,
      "æĶ¯æĮģå¤ļ": 1876,
      "å±ŀæĢ§ä¿¡æģ¯": 1877,
      "æ·±": 1878,
      "æ··": 1879,
      "æľĢå¸¸çĶ¨çļĦ": 1880,
      "æľĢçŁŃ": 1881,
      "ç¡®ä¿Ŀ": 1882,
      "ç¡®è®¤": 1883,
      "åĪ¶ä½ľ": 1884,
      "çĽ®çļĦ": 1885,
      "å¹³æ»": 1886,
      "æ³¨è®°": 1887,
      "ans": 1888,
      "éĶĻè¯¯": 1889,
      "åıĳå±ķ": 1890,
      "æ·»åĬłåĽ¾å±Ĥ": 1891,
      "åħ¨å¤©": 1892,
      "æĮīéĴ": 1893,
      "å¢ŀ": 1894,
      "çĽ¸æľº": 1895,
      "èĮĥåĽ´åĨħ": 1896,
      "äº¤æį¢": 1897,
      "çī¹æĢ§": 1898,
      "çī¹å®ļ": 1899,
      "ç®¡çĲĨåĻ¨": 1900,
      "ĠCAD": 1901,
      "ä¼ĺäºİ": 1902,
      "æĭĵæīĳè§ĦåĪĻ": 1903,
      "æĭĵæīĳåħ³ç³»": 1904,
      "ä¸ŃåĽ½çļĦ": 1905,
      "çªģ": 1906,
      "è£ģåī": 1907,
      "æ¸²æŁĵ": 1908,
      "éķ¿æľŁ": 1909,
      "å·²çŁ¥": 1910,
      "æĸ¹æ³ķåĮħæĭ¬": 1911,
      "æ±¡": 1912,
      "éĺ´å½±": 1913,
      "CADæķ°æį®": 1914,
      "ĠTool": 1915,
      "éĩįè¦ģçļĦ": 1916,
      "è¯¦ç»Ĩ": 1917,
      "éļĻ": 1918,
      "åĽłåŃĲ": 1919,
      "è¿Ĳç®Ĺ": 1920,
      "ç¼ĸçłģéĹ®é¢ĺ": 1921,
      "ä¿ĿåŃĺä¸º": 1922,
      "ult": 1923,
      "ç»ĨèĬĤ": 1924,
      "ç®Ģåįķ": 1925,
      "ä¸¤èĢħ": 1926,
      "ystem": 1927,
      "æ²¡": 1928,
      "å¼ºå¤§": 1929,
      "æµ·éĩı": 1930,
      "æĹ¥æľŁ": 1931,
      "ä¸ĵä¸ļ": 1932,
      "éĿŀå¸¸": 1933,
      "å»ºè®®ä½¿çĶ¨": 1934,
      "éģĵè·¯": 1935,
      "èĬĤçĤ¹": 1936,
      "ç£ģæ³¢": 1937,
      "éĴĪ": 1938,
      "äº§çĶŁ": 1939,
      "è¯»åıĸ": 1940,
      "shp": 1941,
      "æįŁåİĭç¼©": 1942,
      "Buffer": 1943,
      "OpenLayers": 1944,
      "lass": 1945,
      "èĦļæľ¬": 1946,
      "è¥¿å®ī": 1947,
      "çĶµç£ģæ³¢": 1948,
      "åľŁåľ°åĪ©çĶ¨": 1949,
      "raphic": 1950,
      "NIR": 1951,
      "é£ŀ": 1952,
      "å½©èī²": 1953,
      "åĨľä¸ļ": 1954,
      "Leaf": 1955,
      "eature": 1956,
      "metr": 1957,
      "work": 1958,
      "æįķæįī": 1959,
      "é«ĺå¾·": 1960,
      "ä¸ĢèĪ¬": 1961,
      "æĸĩä»¶ä½ĵç§¯": 1962,
      "å¹³æ»ĳ": 1963,
      "æĮīéĴ®": 1964,
      "è£ģåīª": 1965,
      "Leaflet": 1966,
      "',": 1967,
      "12": 1968,
      "13": 1969,
      "4326": 1970,
      "50": 1971,
      "60": 1972,
      "96": 1973,
      "Bçº§": 1974,
      "DX": 1975,
      "EG": 1976,
      "Feature": 1977,
      "GR": 1978,
      "HEN": 1979,
      "Jav": 1980,
      "Mult": 1981,
      "Nod": 1982,
      "OD": 1983,
      "PR": 1984,
      "Rast": 1985,
      "St": 1986,
      "TF": 1987,
      "Un": 1988,
      "are": 1989,
      "ase": 1990,
      "by": 1991,
      "band": 1992,
      "box": 1993,
      "din": 1994,
      "dem": 1995,
      "ex": 1996,
      "gis": 1997,
      "id": 1998,
      "im": 1999,
      "lo": 2000,
      "om": 2001,
      "out": 2002,
      "pg": 2003,
      "ps": 2004,
      "pt": 2005,
      "pect": 2006,
      "rs": 2007,
      "ral": 2008,
      "sb": 2009,
      "ter": 2010,
      "us": 2011,
      "use": 2012,
      "ve": 2013,
      "¢éĺ": 2014,
      "¦çīĩ": 2015,
      "¨Ģ": 2016,
      "¯æĸ¯": 2017,
      "»è¾ĳ": 2018,
      "¼æİ¥": 2019,
      "¿å°": 2020,
      "åĵ": 2021,
      "åĶ": 2022,
      "çĭ": 2023,
      "çĵ": 2024,
      "è¨Ģ": 2025,
      "Ġ'": 2026,
      "Ġ0": 2027,
      "ĠW": 2028,
      "Ġp": 2029,
      "Ġåįķ": 2030,
      "ĠMap": 2031,
      "Ġby": 2032,
      "Ġdem": 2033,
      "ģä¸ļ": 2034,
      "ħåĨµ": 2035,
      "ĩåĪ°": 2036,
      "Īçº¿": 2037,
      "ĭè½¬": 2038,
      "ĭåĬ¿": 2039,
      "Ĳåıĺ": 2040,
      "Ĵåºı": 2041,
      "Ķç©": 2042,
      "Ķä¼": 2043,
      "ľç´¢": 2044,
      "Ŀæ¡Ĩ": 2045,
      "ŁâĢĶâĢĶ": 2046,
      "ï¼ŁâĢĶâĢĶ": 2047,
      "ä¸²": 2048,
      "çļĦçĤ¹": 2049,
      "çļĦåĽ¾å±Ĥ": 2050,
      "çļĦåĢ¼": 2051,
      "çļĦæłĩåĩĨ": 2052,
      "çļĦéĩįè¦ģ": 2053,
      "çļĦå®Įæķ´": 2054,
      "åĪĿ": 2055,
      "åĽĽ": 2056,
      "åĽŀ": 2057,
      "åĽ¢éĺ": 2058,
      "ä»¤": 2059,
      "ä»½": 2060,
      "ä»į": 2061,
      "GISæķ°æį®æł¼å¼ı": 2062,
      "GISå·¥ä½ľä¸Ń": 2063,
      "åľ°çĤ¹": 2064,
      "åľ°è§Ĥæµĭ": 2065,
      "æķ°æį®è´¨éĩı": 2066,
      "åĽ¾æłĩ": 2067,
      "åĽ¾åĥı": 2068,
      "éĢ»è¾ĳ": 2069,
      "å¼¹": 2070,
      "æłĩé¢ĺ": 2071,
      "åĴĮåĪĨæŀĲ": 2072,
      "ä¸Ńæĸĩ": 2073,
      "ä¸ŃçĤ¹åĩ»": 2074,
      "åľ¨ä¸į": 2075,
      "åĬ©": 2076,
      "æĭ½": 2077,
      "æĭŁ": 2078,
      "æĭ¼æİ¥": 2079,
      "åı¯éĢī": 2080,
      "åı¯å°Ĩ": 2081,
      "åº¦å¸¦": 2082,
      "æĺ¯å°Ĩ": 2083,
      "æĺ¯éģ¥æĦŁ": 2084,
      "æĺ¯Esri": 2085,
      "æĺ¯çĽ®åīį": 2086,
      "åĿĲæłĩåıĤèĢĥ": 2087,
      "åį°": 2088,
      "åįĪçº¿": 2089,
      "ä½¿çĶ¨WGS": 2090,
      "ä½¿çĶ¨UTF": 2091,
      "éĿ¢è¦ģç´ł": 2092,
      "çŃĸ": 2093,
      "å·¥ç¨ĭ": 2094,
      "æĬķå½±æĹ¶": 2095,
      "ä¼ģä¸ļ": 2096,
      "ç©ºéļĻ": 2097,
      "çŃīé¢ĨåŁŁ": 2098,
      "çĤ¹äºĳ": 2099,
      "é«ĺåħīè°±": 2100,
      "ä¸Ģå®ļ": 2101,
      "ç»Łä¸Ģ": 2102,
      "æĹĭè½¬": 2103,
      "åľ°åĽ¾å±ķç¤º": 2104,
      "éĢļçĶ¨": 2105,
      "æĢ§èĥ½": 2106,
      "è¯Ŀæ¡Ĩ": 2107,
      "å¤§éĩı": 2108,
      "å¤§å¹ħ": 2109,
      "åĪĨæŀĲåĴĮ": 2110,
      "ä¸įä¸Ģèĩ´": 2111,
      "éĢīä¸Ń": 2112,
      "å»ºç«ĭ": 2113,
      "å¦ĤæĮī": 2114,
      "è¡Įä¸ļ": 2115,
      "è¡ĮæĶ¿": 2116,
      "ä¹±": 2117,
      "ä¹İ": 2118,
      "ä¹ĺ": 2119,
      "ä¹ł": 2120,
      "æİĴåºı": 2121,
      "çº¿éĿ¢": 2122,
      "QGISæĶ¯æĮģ": 2123,
      "ä¾§": 2124,
      "ä¾Ŀ": 2125,
      "æĸĩæľ¬": 2126,
      "æĸĩæ¡£": 2127,
      "å¤ļæķ°": 2128,
      "å¯¹è¯Ŀæ¡Ĩ": 2129,
      "éģĩåĪ°": 2130,
      "è¦ģç´łçļĦ": 2131,
      "æ¨¡æĿ¿": 2132,
      "æ¨¡åĿĹ": 2133,
      "åĲĪéĢĤ": 2134,
      "ç¡¬": 2135,
      "é¢Ĺ": 2136,
      "åıĺæį¢": 2137,
      "éĩįå¤į": 2138,
      "å¾ª": 2139,
      "éĻį": 2140,
      "å¿µ": 2141,
      "æłħæł¼åĽ¾å±Ĥ": 2142,
      "éľĢè¦ģè¿Ľè¡Į": 2143,
      "éľĢè¦ģæ³¨æĦı": 2144,
      "å¼Ģå§ĭ": 2145,
      "æĪĲåĪĨ": 2146,
      "ç¼ĸåı·": 2147,
      "è®¾è®¡": 2148,
      "Geod": 2149,
      "Geog": 2150,
      "GeoServer": 2151,
      "è·¨": 2152,
      "åĽ½éĻħ": 2153,
      "åİĺ": 2154,
      "æľĢä¼ĺ": 2155,
      "å¯¼èĩ´": 2156,
      "çĽ®å½ķ": 2157,
      "å¹³ç§»": 2158,
      "ä½ĵç³»": 2159,
      "ä½ĵéĺ´å½±": 2160,
      "ang": 2161,
      "è´Ł": 2162,
      "orm": 2163,
      "orth": 2164,
      "ordin": 2165,
      "ä¸»æµģ": 2166,
      "åĬ¨æĢģ": 2167,
      "æ¯Ķè¾ĥ": 2168,
      "ä¸ĭçļĦ": 2169,
      "çŁ¢éĩıåĽ¾å±Ĥ": 2170,
      "çŁ¢éĩıæķ°æį®çļĦ": 2171,
      "åĲİçļĦ": 2172,
      "åħ¨èī²": 2173,
      "ä»£è¡¨": 2174,
      "ç±³çļĦ": 2175,
      "ä¿Ŀçķ": 2176,
      "Webå¢¨åį¡æīĺ": 2177,
      "çłĶç©": 2178,
      "èĩªå®ļä¹ī": 2179,
      "èĩªçĦ¶": 2180,
      "çķ¥": 2181,
      "çĽ¸å¯¹": 2182,
      "çĽ¸éĤ»": 2183,
      "Poly": 2184,
      "Point": 2185,
      "æł·æľ¬": 2186,
      "åĮĹæĸ¹åĲĳ": 2187,
      "éĽĨæĪĲ": 2188,
      "etic": 2189,
      "åŃĹæ®µè®¡ç®ĹåĻ¨": 2190,
      "åħ¶ä¸Ń": 2191,
      "åºĶçĶ¨åľºæĻ¯": 2192,
      "åħ³éĶ®": 2193,
      "è¡¨ç¤ºè¿ŀç»Ń": 2194,
      "æĮĩæķ°": 2195,
      "æĽ²": 2196,
      "å®Įåħ¨": 2197,
      "çī©ä½ĵ": 2198,
      "ä¸»è¦ģæľī": 2199,
      "ĠProçļĦ": 2200,
      "çº¬çº¿": 2201,
      "åĩłä¹İ": 2202,
      "ä¼łç»Ł": 2203,
      "ä¼łè¾ĵ": 2204,
      "åĬŁèĥ½åĮħæĭ¬": 2205,
      "æĵįä½ľåĮħæĭ¬": 2206,
      "æĿ¥æºĲ": 2207,
      "æ¸Ĳåıĺ": 2208,
      "åŃ¦ä¹ł": 2209,
      "å·¥ä½ľæµģç¨ĭ": 2210,
      "åħīè°±çī¹å¾ģ": 2211,
      "è¶ĭåĬ¿": 2212,
      "åıĺåĮĸæ£Ģæµĭ": 2213,
      "EPSGä»£çłģ": 2214,
      "éĺ¿å°": 2215,
      "äºĳè®¡ç®Ĺ": 2216,
      "ĠEng": 2217,
      "ç¼ĵåĨ²åĮºåĪĨæŀĲ": 2218,
      "åħ¬åı": 2219,
      "åħ¬åħ±": 2220,
      "åħ¬éĩĮ": 2221,
      "ç»ĵåĲĪ": 2222,
      "åĬĽåĽ¾": 2223,
      "æīĵåį°": 2224,
      "ä¼°ç®Ĺ": 2225,
      "é«ĺç¨ĭåŁºåĩĨ": 2226,
      "çĥŃåĬĽåĽ¾": 2227,
      "å¹´ä»£": 2228,
      "æ°´ä½ĵ": 2229,
      "éħįåĩĨ": 2230,
      "æ´²": 2231,
      "æ´»": 2232,
      "å¸¸è§ģéĹ®é¢ĺ": 2233,
      "åİŁå§ĭ": 2234,
      "æŃ£ç¡®çļĦ": 2235,
      "GISè½¯ä»¶ä¸Ń": 2236,
      "ä¼ļèĩªåĬ¨": 2237,
      "ĠSystem": 2238,
      "èĩªåĬ¨åĮĸ": 2239,
      "å®Įæķ´çļĦ": 2240,
      "è·¯å¾ĦåĪĨæŀĲ": 2241,
      "ĠNorth": 2242,
      "åŃĲåįĪçº¿": 2243,
      "ĠModel": 2244,
      "äºĮç»´": 2245,
      "éĢŁåº¦": 2246,
      "æĹ¥å¸¸": 2247,
      "æķ°åŃĹåĮĸ": 2248,
      "å¾ĹåĪ°": 2249,
      "æĲľç´¢": 2250,
      "çļĦæł¸å¿ĥåĬŁèĥ½": 2251,
      "æĭĸæĭ½": 2252,
      "åįĬçĲĥ": 2253,
      "å»ºçŃĳçī©": 2254,
      "åĳ¨åĽ´": 2255,
      "åĳ¨æľŁ": 2256,
      "9996": 2257,
      "ĠRED": 2258,
      "åľ¨çº¿åľ°åĽ¾": 2259,
      "å±±ä½ĵéĺ´å½±": 2260,
      "åĿ¡åº¦": 2261,
      "åĿ¡åĲĳ": 2262,
      "éĿ¢æĿ¿ä¸Ń": 2263,
      "çŃīéĿ¢ç§¯æĬķå½±": 2264,
      "é«ĺçº§åĪĨæŀĲ": 2265,
      "è¯Ńè¨Ģ": 2266,
      "å¼ĢåıĳçļĦ": 2267,
      "åĨħç½®å·¥åħ·": 2268,
      "ĠCoordin": 2269,
      "åĳ½ä»¤": 2270,
      "æķ°çĻ¾ä¸ª": 2271,
      "å±ĢéĻĲåľ¨äºİ": 2272,
      "éªĮè¯ģ": 2273,
      "åıįå°Ħçİĩ": 2274,
      "æĥħåĨµ": 2275,
      "çĿĢ": 2276,
      "åĪĩæį¢": 2277,
      "éĢĲæŃ¥": 2278,
      "è®¿éĹ®": 2279,
      "é«ĺåĪĨç³»åĪĹ": 2280,
      "ç©ºéĹ´åıĤèĢĥä¿¡æģ¯": 2281,
      "çĻ¾åº¦åľ°åĽ¾": 2282,
      "JPEG": 2283,
      "eigh": 2284,
      "æ¿Ģåħī": 2285,
      "ä¸ĸçķĮ": 2286,
      "æīĭåĬ¨": 2287,
      "æ¨ªè½´å¢¨åį¡æīĺæĬķå½±": 2288,
      "æ··åĲĪ": 2289,
      "åħ¨å¤©åĢĻ": 2290,
      "æ±¡æŁĵ": 2291,
      "æ²¡æľī": 2292,
      "metry": 2293,
      "DXF": 2294,
      "Java": 2295,
      "Nodata": 2296,
      "Raster": 2297,
      "çĭ¬": 2298,
      "çĵ¦çīĩ": 2299,
      "Ķä¼¯æĸ¯": 2300,
      "åĽ¢éĺŁ": 2301,
      "åº¦å¸¦é«ĺæĸ¯": 2302,
      "åĿĲæłĩåıĤèĢĥç³»ç»Ł": 2303,
      "ä¿ĿçķĻ": 2304,
      "çłĶç©¶": 2305,
      "éĺ¿å°Ķä¼¯æĸ¯": 2306,
      "ĠEngine": 2307,
      "ĠCoordinate": 2308,
      "/.": 2309,
      "10000": 2310,
      "200": 2311,
      "Cu": 2312,
      "Clip": 2313,
      "DWG": 2314,
      "Dou": 2315,
      "FLA": 2316,
      "GE": 2317,
      "LZ": 2318,
      "ML": 2319,
      "Mer": 2320,
      "Model": 2321,
      "Or": 2322,
      "PDF": 2323,
      "Qu": 2324,
      "Re": 2325,
      "Th": 2326,
      "Tr": 2327,
      "TBçº§": 2328,
      "WM": 2329,
      "Win": 2330,
      "act": 2331,
      "bf": 2332,
      "ck": 2333,
      "cul": 2334,
      "da": 2335,
      "date": 2336,
      "erc": 2337,
      "ele": 2338,
      "gl": 2339,
      "geo": 2340,
      "gon": 2341,
      "iz": 2342,
      "ld": 2343,
      "lap": 2344,
      "land": 2345,
      "late": 2346,
      "lop": 2347,
      "pro": 2348,
      "sis": 2349,
      "tu": 2350,
      "ters": 2351,
      "ub": 2352,
      "um": 2353,
      "ysis": 2354,
      "||": 2355,
      "¢å¤į": 2356,
      "¢å¤±": 2357,
      "ªçŁ¥": 2358,
      "«æıı": 2359,
      "¯ä¸Ģ": 2360,
      "µéĿ¢": 2361,
      "µæ´»": 2362,
      "º«": 2363,
      "ºå¸¦": 2364,
      "¼å¤": 2365,
      "å£": 2366,
      "åĭ": 2367,
      "æĳ": 2368,
      "èĥ": 2369,
      "èĭ": 2370,
      "èº«": 2371,
      "Ġ=": 2372,
      "Ġå½±åĥı": 2373,
      "ĠåĪĽå»º": 2374,
      "Ġä»İ": 2375,
      "ĠçĤ¹åĩ»": 2376,
      "ĠåĪĨçº§": 2377,
      "ĠGeod": 2378,
      "Ġ||": 2379,
      "ģçİĩ": 2380,
      "ģè®¸": 2381,
      "ĪéĻ¤": 2382,
      "ĮæĻ¯": 2383,
      "Ńè½½": 2384,
      "ä¸Ķ": 2385,
      "ä¸¢å¤±": 2386,
      "çļĦåľ°": 2387,
      "çļĦä¸Ń": 2388,
      "çļĦæĺ¯": 2389,
      "çļĦè¦ģç´ł": 2390,
      "çļĦéĢīæĭ©": 2391,
      "çļĦä¸įåĲĮ": 2392,
      "çļĦä¸»è¦ģ": 2393,
      "çļĦç¬¦åı·": 2394,
      "çļĦåıĤèĢĥ": 2395,
      "çļĦæĸ¹åĲĳ": 2396,
      "çļĦåıĺå½¢": 2397,
      "çļĦè¾ĵåħ¥": 2398,
      "çļĦåľºæĻ¯": 2399,
      "çļĦä¼ĺåĬ¿": 2400,
      "çļĦè¿ĩç¨ĭ": 2401,
      "çļĦæĥħåĨµ": 2402,
      "ãĢģ.": 2403,
      "åħħ": 2404,
      "åħģè®¸": 2405,
      "æį·": 2406,
      "æķ°éĩı": 2407,
      "å¤¹": 2408,
      "å¤Ł": 2409,
      "ä»»": 2410,
      "ä»ħ": 2411,
      "ä»ĭ": 2412,
      "GISä¸İ": 2413,
      "GISä¸ŃçļĦ": 2414,
      "GISæķ°æį®çļĦ": 2415,
      "äºĭ": 2416,
      "äºļ": 2417,
      "åľ°åĮº": 2418,
      "åľ°è´¨": 2419,
      "æķ°æį®æĪĸ": 2420,
      "æķ°æį®ç®¡çĲĨ": 2421,
      "æķ°æį®å¯¼åħ¥": 2422,
      "æķ°æį®éĩĩéĽĨ": 2423,
      "æķ°æį®äº¤æį¢": 2424,
      "åĽ¾è¡¨": 2425,
      "æľªçŁ¥": 2426,
      "éĢł": 2427,
      "åĴĮæķ°æį®": 2428,
      "åĴĮç²¾": 2429,
      "åĴĮç¼ĸè¾ĳ": 2430,
      "åĴĮArcGISä¸Ń": 2431,
      "åĴĮéķ¿æľŁ": 2432,
      "æĺł": 2433,
      "æĺ¼å¤": 2434,
      "ä¸ŃæľĢ": 2435,
      "ä¸ŃåĪĽå»º": 2436,
      "åľ¨åĽ¾å±Ĥ": 2437,
      "åľ¨ArcGIS": 2438,
      "åľ¨è®¾ç½®": 2439,
      "åľ¨GISè½¯ä»¶ä¸Ń": 2440,
      "æĸľ": 2441,
      "å®³": 2442,
      "å®ĺ": 2443,
      "å·§": 2444,
      "æĭī": 2445,
      "çº¸": 2446,
      "è®Ń": 2447,
      "åı¯åĲĮ": 2448,
      "åı¯çĽ´æİ¥": 2449,
      "æĪĳ": 2450,
      "åº¦åĪ°": 2451,
      "å°±": 2452,
      "å°½": 2453,
      "æĺ¯ä¸Ģä¸ª": 2454,
      "æĺ¯æĮĩ": 2455,
      "æĺ¯ä¸ŃåĽ½": 2456,
      "æĺ¯çĶ±": 2457,
      "åĿĲæłĩåĢ¼": 2458,
      "åĿĲæłĩåĮĹ": 2459,
      "åĿĲæłĩåĬłå¯Ĩ": 2460,
      "åįĩ": 2461,
      "éĿł": 2462,
      "ä½¿çĶ¨æľĢ": 2463,
      "æī«æıı": 2464,
      "æīģçİĩ": 2465,
      "ç½²": 2466,
      "æĢ¥": 2467,
      "æĬķå½±åĿĲæłĩç³»": 2468,
      "ä¼Ĺ": 2469,
      "ç©ºåĢ¼": 2470,
      "çŃīåĪĨæŀĲ": 2471,
      "çŃīä¿¡æģ¯": 2472,
      "çŃīè·Ŀ": 2473,
      "çĤ¹åĽ¾å±Ĥ": 2474,
      "çĤ¹çº¿éĿ¢": 2475,
      "é«ĺç©ºéĹ´åĪĨè¾¨çİĩ": 2476,
      "ç§Ĵ": 2477,
      "ä¸Ģä»£": 2478,
      "ä¸Ģæł·": 2479,
      "ä¸ĢéĶ®": 2480,
      "åľ°åĽ¾çļĦ": 2481,
      "åľ°åĽ¾è§ĨåĽ¾": 2482,
      "åľ°åĽ¾çĶ»å¸ĥ": 2483,
      "å¸¸éģĩåĪ°": 2484,
      "ä¸ºGIS": 2485,
      "ä¸ºçŃī": 2486,
      "ä»¥ä¸Ĭ": 2487,
      "ä»¥ä¾¿": 2488,
      "ç©ºéĹ´ç»Łè®¡": 2489,
      "ç©ºéĹ´æıĴåĢ¼": 2490,
      "è¯¥": 2491,
      "è¯´": 2492,
      "å¤§èĮĥåĽ´": 2493,
      "å¤§åĮºåŁŁ": 2494,
      "å¤§å¤ļæķ°": 2495,
      "åĪĨæŀĲæ³ķ": 2496,
      "åĪĨæŀĲéĢīé¡¹åį¡": 2497,
      "ä¸įåı¯": 2498,
      "ä¸įåıĺ": 2499,
      "ä¸įæĶ¯æĮģ": 2500,
      "ä¸įåıĹ": 2501,
      "éĢīåĿĢ": 2502,
      "æĪĸå¤ļä¸ª": 2503,
      "å¦Ĥéĺ¿å°Ķä¼¯æĸ¯": 2504,
      "ä¸ªæ³¢æ®µ": 2505,
      "åĽ¾å±ĤCRS": 2506,
      "ern": 2507,
      "çº¿æĢ§": 2508,
      "çº¿æ®µ": 2509,
      "çº¿ç¨ĭ": 2510,
      "QGISæıĲä¾ĽäºĨ": 2511,
      "åĬłæĿĥ": 2512,
      "ç±»ä¼¼": 2513,
      "å¯¹åľ°è§Ĥæµĭ": 2514,
      "éľĢèĢĥèĻĳ": 2515,
      "èĥ½éĩı": 2516,
      "æŃ¢": 2517,
      "é¡µéĿ¢": 2518,
      "ä¸İçľŁ": 2519,
      "stic": 2520,
      "åľ°çĲĨå¤ĦçĲĨ": 2521,
      "åľ°çĲĨå¤ĦçĲĨå·¥åħ·": 2522,
      "æ³ķå®ļ": 2523,
      "ArcGISçļĦ": 2524,
      "åŃĹå¡": 2525,
      "ç¤ºä¾ĭ": 2526,
      "åı¯ä»¥åľ¨": 2527,
      "åı¯ä»¥ä¿ĿåŃĺä¸º": 2528,
      "éĩįåĪĨç±»": 2529,
      "å¾Ģ": 2530,
      "éĢīæĭ©å¼ĢæºĲGIS": 2531,
      "éĢīæĭ©åĲĪéĢĤ": 2532,
      "å°Ĩå½±åĥı": 2533,
      "æİ¥è¿ĳ": 2534,
      "leng": 2535,
      "æŁ±": 2536,
      "è½¬æį¢åıĤæķ°": 2537,
      "éĻĦ": 2538,
      "éĻĨ": 2539,
      "å¿Ĺ": 2540,
      "åºĶæĢ¥": 2541,
      "éľĢè¦ģæł¹æį®": 2542,
      "éľĢè¦ģåħĪ": 2543,
      "å¼ĢåĲ¯": 2544,
      "æĪĲåĥı": 2545,
      "æĪĲæľ¬": 2546,
      "è®¾å®ļ": 2547,
      "alcul": 2548,
      "ç»´æĬ¤": 2549,
      "æľĢæĸ°": 2550,
      "åĩºçİ°": 2551,
      "ç¡®å®ļ": 2552,
      "è¿Ľè¡ĮåĪĨç±»": 2553,
      "æģ¢å¤į": 2554,
      "ä¿¡åı·": 2555,
      "çĶ¨äºİWeb": 2556,
      "çĶ¨äºİåŃĺåĤ¨åĴĮ": 2557,
      "ç»ıè¿ĩ": 2558,
      "éģ¥æĦŁæĬĢæľ¯": 2559,
      "orçĶ¨äºİ": 2560,
      "orld": 2561,
      "å½±åĥıèŀįåĲĪ": 2562,
      "ä¸»åĬ¨": 2563,
      "å®ŀåľ°": 2564,
      "åįķåħĥ": 2565,
      "å¸¸çĶ¨æĸ¹æ³ķåĮħæĭ¬": 2566,
      "road": 2567,
      "æķ°æį®åºĵç®¡çĲĨåĻ¨": 2568,
      "åĬ¨çĶ»": 2569,
      "ene": 2570,
      "ens": 2571,
      "å¹¶è®¾ç½®": 2572,
      "åıĸåĨ³": 2573,
      "åħ¨éĿ¢": 2574,
      "ç±³åĪĨè¾¨çİĩ": 2575,
      "æĮīåĩłä½ķç±»åŀĭ": 2576,
      "Webå¢¨åį¡æīĺæĬķå½±": 2577,
      "Webåıĳå¸ĥ": 2578,
      "åŁºäºİSQL": 2579,
      "æ¨¡åŀĭæŀĦå»º": 2580,
      "èĩªèº«": 2581,
      "çĽ¸åħ³": 2582,
      "çĽ¸äº¤": 2583,
      "çĽ¸äºĴ": 2584,
      "three": 2585,
      "åĮĹéĴĪ": 2586,
      "etMap": 2587,
      "reetMap": 2588,
      "åĪĻéľĢè¦ģ": 2589,
      "çĶŁæĶ¯æĮģ": 2590,
      "çĶŁçī©": 2591,
      "åŃĹæ®µåĢ¼": 2592,
      "åŃĹæ®µåĲį": 2593,
      "åºĶçĶ¨ä¸Ń": 2594,
      "åºĶçĶ¨åĮħæĭ¬": 2595,
      "åıĤæķ°åĮħæĭ¬": 2596,
      "èµĭ": 2597,
      "åħ³éĩįè¦ģ": 2598,
      "åħ³èģĶ": 2599,
      "å°ºåº¦": 2600,
      "çī¹åĪ«": 2601,
      "ç±»åŀĭåĴĮ": 2602,
      "çİ°è±¡": 2603,
      "ĠClass": 2604,
      "ĠCalcul": 2605,
      "æĬĢå·§": 2606,
      "æĮĩåĮĹéĴĪ": 2607,
      "Mapbox": 2608,
      "æłĩåĩĨæĬķå½±": 2609,
      "ä¸ŃåĽ½å¸¸çĶ¨çļĦ": 2610,
      "ĠProä½¿çĶ¨": 2611,
      "ĠProject": 2612,
      "ç«Ļ": 2613,
      "è£¸": 2614,
      "åĪĨç±»æĸ¹æ³ķ": 2615,
      "åľ¨QGISåĴĮArcGISä¸Ń": 2616,
      "å·®åĢ¼": 2617,
      "ä½Ĩåľ¨": 2618,
      "åĳĺ": 2619,
      "åį«æĺŁæĪĸ": 2620,
      "è·¯çº¿": 2621,
      "ript": 2622,
      "vered": 2623,
      "verlap": 2624,
      "å®īåħ¨": 2625,
      "åľ¨QGISä¸Ńä½¿çĶ¨": 2626,
      "art": 2627,
      "åģĩ": 2628,
      "ç¼©æĶ¾": 2629,
      "è¢«è¦ĨçĽĸ": 2630,
      "è¾ĥé«ĺ": 2631,
      "è¾ĥå¤§": 2632,
      "æĹłæįŁåİĭç¼©": 2633,
      "UTMæĬķå½±": 2634,
      "UTMä¸º": 2635,
      "éĥ¨ç½²": 2636,
      "ector": 2637,
      "åħ¬å¼ı": 2638,
      "åľ°å½¢åĽ¾": 2639,
      "å¼Ĥå¸¸": 2640,
      "é«ĺç¨ĭç³»ç»Ł": 2641,
      "èĪį": 2642,
      "ASE": 2643,
      "æ¬§": 2644,
      "æ´ĭ": 2645,
      "åİŁçĲĨ": 2646,
      "åİŁåĪĻ": 2647,
      "åİŁçĶŁæĶ¯æĮģ": 2648,
      "è°ĥçĶ¨": 2649,
      "åŁİå¸Ĥè§ĦåĪĴ": 2650,
      "çģ«": 2651,
      "çģµæ´»": 2652,
      "äººå·¥": 2653,
      "èĩ³åħ³éĩįè¦ģ": 2654,
      "æĽ´æĸ°": 2655,
      "Inters": 2656,
      "ulation": 2657,
      "Ġ19": 2658,
      "Ġ1000": 2659,
      "ĠOverlap": 2660,
      "åĲįç§°": 2661,
      "ç©ºéĹ´æķ°æį®è´¨éĩı": 2662,
      "å¤§åľ°é«ĺ": 2663,
      "å¤§åľ°åĿĲæłĩç³»": 2664,
      "å¤§åľ°åŁºåĩĨéĿ¢": 2665,
      "æ¡Ĩæŀ¶": 2666,
      "å®Įæķ´æĢ§": 2667,
      "å¹¿æ³ĽçļĦ": 2668,
      "å¹¿æ³ĽåºĶçĶ¨": 2669,
      "ä¸¤ç§į": 2670,
      "ä¸¤æľŁ": 2671,
      "åŃĲéĽĨ": 2672,
      "çŁ¢éĩıæķ°æį®æ¨¡åŀĭ": 2673,
      "opulation": 2674,
      "æ²¿": 2675,
      "æ»¤": 2676,
      "è¿ĳçº¢å¤ĸ": 2677,
      "æµ·æ´ĭ": 2678,
      "æĶ¾ç½®": 2679,
      "ArcMapæĺ¯": 2680,
      "ArcMapä½¿çĶ¨": 2681,
      "éĩįæĬķå½±åĽ¾å±Ĥ": 2682,
      "KMZ": 2683,
      "Network": 2684,
      "èĻļ": 2685,
      "ä¸ĵéĹ¨": 2686,
      "åľ°éĿ¢é«ĺç¨ĭ": 2687,
      "åľ°è¡¨æ¸©åº¦": 2688,
      "åľ°è¡¨çī©ä½ĵ": 2689,
      "åľ¨ArcGISä¸Ńä½¿çĶ¨": 2690,
      "è®°å½ķ": 2691,
      "atistic": 2692,
      "å¿ħé¡»ä½¿çĶ¨": 2693,
      "å¿ħé¡»è¢«è¦ĨçĽĸ": 2694,
      "åķĨä¸ļGIS": 2695,
      "èµĦæºĲè°ĥæŁ¥": 2696,
      "æĲºå¸¦": 2697,
      "æĲŃè½½": 2698,
      "ç£ģåĮĹ": 2699,
      "ä¸ľåģıç§»": 2700,
      "æĺİç¡®": 2701,
      "åįĬå¾Ħ": 2702,
      "è¯»åĨĻ": 2703,
      "QGISçļĦåĽ¾å½¢å»ºæ¨¡åĻ¨": 2704,
      "çĥŃçº¢å¤ĸæ³¢æ®µ": 2705,
      "çĥŃçº¢å¤ĸä¼łæĦŁåĻ¨": 2706,
      "PythonèĦļæľ¬": 2707,
      "èģĶåĲĪ": 2708,
      "trans": 2709,
      "æįŁå¤±": 2710,
      "è®¸åı¯": 2711,
      "è®¸å¤ļ": 2712,
      "æĬķå½±åĿĲæłĩçļĦ": 2713,
      "ä¸įèĥ½éĩįåıł": 2714,
      "åĥıåħĥå¤§å°ı": 2715,
      "æİ¥æĶ¶æľº": 2716,
      "çĶŁæĢģç³»ç»Ł": 2717,
      "ç«ĭä½ĵ": 2718,
      "å¤įæĿĤçļĦ": 2719,
      "OGCæłĩåĩĨ": 2720,
      "OpenSt": 2721,
      "cess": 2722,
      "las": 2723,
      "åĵįåºĶ": 2724,
      "åĲ¯åĬ¨": 2725,
      "æĺ¯æľĢå¸¸çĶ¨çļĦ": 2726,
      "è¯¯å·®": 2727,
      "åĪĨæŀĲå·¥åħ·åĮħæĭ¬": 2728,
      "åŃĹç¬¦ä¸²": 2729,
      "ç»ıåº¦å¸¦": 2730,
      "æ¡ĮéĿ¢GIS": 2731,
      "æ¡ĮéĿ¢GISè½¯ä»¶": 2732,
      "ĠCovered": 2733,
      "ç»ĦæĪĲéĥ¨åĪĨ": 2734,
      "å®ĮæĪĲåĲİ": 2735,
      "éķ¿åº¦åıĺå½¢": 2736,
      "åĳ½åĲį": 2737,
      "ä¹ĭéĹ´çļĦè½¬æį¢": 2738,
      "OSM": 2739,
      "Script": 2740,
      "TER": 2741,
      "ite": 2742,
      "ity": 2743,
      "å¡«": 2744,
      "ĠBe": 2745,
      "ĠBy": 2746,
      "ĠHeigh": 2747,
      "è¶ħè¿ĩ": 2748,
      "æľįåĬ¡åĻ¨ç«¯": 2749,
      "åħįè´¹å¼ĢæĶ¾": 2750,
      "äººåı£å¯Ĩåº¦": 2751,
      "æµıè§ĪåĻ¨éĿ¢æĿ¿ä¸Ń": 2752,
      "æĽ¿ä»£æĸ¹æ¡Ī": 2753,
      "éĤ»åŁŁ": 2754,
      "IDW": 2755,
      "WKTæł¼å¼ı": 2756,
      "ĠView": 2757,
      "çļĦæĬķå½±åĿĲæłĩç³»": 2758,
      "åħ¼å®¹æĢ§": 2759,
      "åľ¨å®ŀéĻħå·¥ä½ľä¸Ń": 2760,
      "åĩıå°ĳ": 2761,
      "è½¨éģĵ": 2762,
      "ä¸īè§Ĵå½¢": 2763,
      "åĽ½å®¶å¤§åľ°åĿĲæłĩç³»": 2764,
      "çģ¾å®³": 2765,
      "prjæĸĩä»¶": 2766,
      "2312": 2767,
      "500000": 2768,
      "å²Ľ": 2769,
      "æ¶ĪéĻ¤": 2770,
      "æ¦Ĥå¿µ": 2771,
      "éĵº": 2772,
      "åĲ¸æĶ¶": 2773,
      "éĩĳåŃĹå¡": 2774,
      "ä½¿çĶ¨å¤ĦçĲĨå·¥åħ·ç®±çļĦ": 2775,
      "åľ°çĲĨç©ºéĹ´æķ°æį®æł¼å¼ı": 2776,
      "åľ°çĲĨä¿¡æģ¯ç³»ç»Ł": 2777,
      "å¾®æ³¢": 2778,
      "æ·±åº¦": 2779,
      "æľĢçŁŃè·¯å¾Ħ": 2780,
      "ĠCADä¸ŃçļĦ": 2781,
      "æµ·éĩıæķ°æį®": 2782,
      "é£ŀæľº": 2783,
      "Multi": 2784,
      "area": 2785,
      "rsorçĶ¨äºİ": 2786,
      "åĶ¯ä¸Ģ": 2787,
      "Ġpopulation": 2788,
      "ĠMaps": 2789,
      "åĽŀæ³¢": 2790,
      "çŃĸçķ¥": 2791,
      "ä¼ģä¸ļçº§": 2792,
      "è¡ĮæĶ¿è¾¹çķĮ": 2793,
      "ä¹±çłģ": 2794,
      "ç¡¬ä»¶": 2795,
      "éĻįæ°´": 2796,
      "Geographic": 2797,
      "Polygon": 2798,
      "åĩłä¹İæīĢæľī": 2799,
      "æ¸Ĳåıĺèī²": 2800,
      "æīĵåį°å¸ĥå±Ģ": 2801,
      "åĨħç½®å·¥åħ·ä¸Ģæł·": 2802,
      "æīĭåĬ¨æĮĩå®ļ": 2803,
      "JavaScript": 2804,
      "çĭ¬çī¹": 2805,
      "CursorçĶ¨äºİ": 2806,
      "LZW": 2807,
      "ercator": 2808,
      "glTF": 2809,
      "landuse": 2810,
      "lope": 2811,
      "èĥĮæĻ¯": 2812,
      "çļĦæĥħåĨµä¸ĭ": 2813,
      "æĺ¼å¤ľ": 2814,
      "åı¯åĲĮæĹ¶": 2815,
      "çŃīè·ĿæĬķå½±": 2816,
      "length": 2817,
      "åıĸåĨ³äºİ": 2818,
      "åŁºäºİSQLite": 2819,
      "æ¨¡åŀĭæŀĦå»ºåĻ¨": 2820,
      "threejs": 2821,
      "ĠCalculator": 2822,
      "ĠProjection": 2823,
      "åľ¨QGISåĴĮArcGISä¸Ńéĥ½": 2824,
      "Intersect": 2825,
      "translate": 2826,
      "OpenStreetMap": 2827,
      "ĠHeight": 2828,
      "éĩĳåŃĹå¡Ķ": 2829,
      "')": 2830,
      "($": 2831,
      "('": 2832,
      "()": 2833,
      "09": 2834,
      "15": 2835,
      "100": 2836,
      "29": 2837,
      "257": 2838,
      "223": 2839,
      "45": 2840,
      "563": 2841,
      "75": 2842,
      "78": 2843,
      "<=": 2844,
      "AT": 2845,
      "Ap": 2846,
      "As": 2847,
      "AåĴĮ": 2848,
      "Aut": 2849,
      "BIM": 2850,
      "CS": 2851,
      "Ch": 2852,
      "CçŃī": 2853,
      "Cæ³¢æ®µ": 2854,
      "Col": 2855,
      "Cop": 2856,
      "Ctr": 2857,
      "CSV": 2858,
      "CASE": 2859,
      "DS": 2860,
      "Datu": 2861,
      "DCçŃī": 2862,
      "EC": 2863,
      "ER": 2864,
      "ES": 2865,
      "ESS": 2866,
      "FS": 2867,
      "Fal": 2868,
      "GS": 2869,
      "Gi": 2870,
      "He": 2871,
      "Hil": 2872,
      "ITR": 2873,
      "Line": 2874,
      "LTR": 2875,
      "LOD": 2876,
      "NG": 2877,
      "NS": 2878,
      "Norm": 2879,
      "OJ": 2880,
      "OGR": 2881,
      "PI": 2882,
      "Pe": 2883,
      "Pro": 2884,
      "PDAL": 2885,
      "PNG": 2886,
      "RT": 2887,
      "Ro": 2888,
      "SDE": 2889,
      "Str": 2890,
      "Slope": 2891,
      "SGS": 2892,
      "Top": 2893,
      "Tree": 2894,
      "USGS": 2895,
      "World": 2896,
      "WFS": 2897,
      "Zon": 2898,
      "ab": 2899,
      "au": 2900,
      "ale": 2901,
      "base": 2902,
      "ch": 2903,
      "cel": 2904,
      "class": 2905,
      "cpg": 2906,
      "cene": 2907,
      "dm": 2908,
      "der": 2909,
      "dar": 2910,
      "dow": 2911,
      "dex": 2912,
      "dbf": 2913,
      "ge": 2914,
      "gp": 2915,
      "gin": 2916,
      "glas": 2917,
      "ho": 2918,
      "ik": 2919,
      "ian": 2920,
      "iff": 2921,
      "jk": 2922,
      "kg": 2923,
      "kt": 2924,
      "lic": 2925,
      "lsh": 2926,
      "lou": 2927,
      "map": 2928,
      "now": 2929,
      "ndar": 2930,
      "of": 2931,
      "oi": 2932,
      "qgis": 2933,
      "ru": 2934,
      "rx": 2935,
      "ser": 2936,
      "son": 2937,
      "te": 2938,
      "tt": 2939,
      "tent": 2940,
      "tif": 2941,
      "up": 2942,
      "ux": 2943,
      "uck": 2944,
      "war": 2945,
      "¡è¶": 2946,
      "¡æ£Ģ": 2947,
      "¢ģ": 2948,
      "¢æĪ·": 2949,
      "£åĪĨç±»": 2950,
      "¤éģĵ": 2951,
      "¥æ": 2952,
      "¥åħħ": 2953,
      "¦ĸ": 2954,
      "ªæ°´": 2955,
      "ªå½©èī²": 2956,
      "²éĥ¨": 2957,
      "³æµģ": 2958,
      "µå¾ª": 2959,
      "¶ä¼": 2960,
      "¶åµĮ": 2961,
      "¸åŀĭ": 2962,
      "¸åıĺ": 2963,
      "¹ĸ": 2964,
      "¹çĲĨ": 2965,
      "ºèĥ½": 2966,
      "ºå®ļ": 2967,
      "¼åĽ¾": 2968,
      "¾è®": 2969,
      "¾åĮº": 2970,
      "¾æĸľ": 2971,
      "¿å¤§": 2972,
      "¿äº§": 2973,
      "¿éĢı": 2974,
      "æħ": 2975,
      "æĴ": 2976,
      "æĵ": 2977,
      "æļ": 2978,
      "æ¹ĸ": 2979,
      "çĸ": 2980,
      "èħ": 2981,
      "èĲ": 2982,
      "é¥": 2983,
      "é¦ĸ": 2984,
      "Ġ/": 2985,
      "Ġ8": 2986,
      "ĠI": 2987,
      "Ġå¤ļ": 2988,
      "Ġin": 2989,
      "ĠéĢīæĭ©": 2990,
      "Ġè®¡ç®Ĺ": 2991,
      "ĠæŃ£": 2992,
      "Ġæ¯Ķä¾ĭ": 2993,
      "ĠåĪĨç±»": 2994,
      "ĠDEM": 2995,
      "ĠJS": 2996,
      "ĠæĹ¶éĹ´": 2997,
      "ĠGeoJSON": 2998,
      "ĠåĪ¶åĽ¾": 2999,
      "Ġarcpy": 3000,
      "ĠLay": 3001,
      "Ġè°ĥæķ´": 3002,
      "Ġout": 3003,
      "ĠèĩªçĦ¶": 3004,
      "ĠQu": 3005,
      "Ġ<=": 3006,
      "ĢçļĦ": 3007,
      "Ĥçº¿": 3008,
      "ĤçĽ´": 3009,
      "ĥåıĤæķ°": 3010,
      "ĥæł·æľ¬": 3011,
      "Ħå½±": 3012,
      "ħéķ¿": 3013,
      "ĩæĢ": 3014,
      "īåĨ²": 3015,
      "įèĥ½": 3016,
      "įåİĨ": 3017,
      "ıä½ľ": 3018,
      "ĵåº¦": 3019,
      "Ĺåľ°": 3020,
      "Ĺéĵº": 3021,
      "ĺæ±": 3022,
      "ļç±»": 3023,
      "Ľè§Ĵ": 3024,
      "Ŀè¯ķ": 3025,
      "łå±Ĥ": 3026,
      "łéĻ¤": 3027,
      "ä¸¥": 3028,
      "ä¸ĥåıĤæķ°": 3029,
      "çļĦG": 3030,
      "çļĦå¤ļ": 3031,
      "çļĦæłħæł¼": 3032,
      "çļĦåıĤ": 3033,
      "çļĦå½±åĥı": 3034,
      "çļĦåıĤæķ°": 3035,
      "çļĦéĹ®é¢ĺ": 3036,
      "çļĦæ³¢æ®µ": 3037,
      "çļĦåħīè°±": 3038,
      "çļĦUTM": 3039,
      "çļĦDEM": 3040,
      "çļĦåİĭç¼©": 3041,
      "çļĦæıĴä»¶": 3042,
      "çļĦå·®å¼Ĥ": 3043,
      "çļĦæķ°åŃĹ": 3044,
      "çļĦNDVI": 3045,
      "çļĦé«ĺåº¦": 3046,
      "çļĦç»¼åĲĪ": 3047,
      "çļĦåĩĨç¡®": 3048,
      "çļĦåºķåĽ¾": 3049,
      "çļĦäºĳGIS": 3050,
      "çļĦå½±åĵį": 3051,
      "çļĦå±ĢéĻĲåľ¨äºİ": 3052,
      "çļĦæ³ķå®ļ": 3053,
      "çļĦçİ°è±¡": 3054,
      "çļĦå·®åĢ¼": 3055,
      "çļĦè¯»åĨĻ": 3056,
      "çļĦéķ¿åº¦åıĺå½¢": 3057,
      "çļĦæĽ¿ä»£æĸ¹æ¡Ī": 3058,
      "çļĦä¸īè§Ĵå½¢": 3059,
      "åı¥": 3060,
      "æłĪ": 3061,
      "åĪłéĻ¤": 3062,
      "æķĽè§Ĵ": 3063,
      "åħ°": 3064,
      "åħ¸çļĦ": 3065,
      "åħ¸åŀĭ": 3066,
      "åĽºå®ļ": 3067,
      "çĶ¨çĤ¹": 3068,
      "çĶ¨æ¸Ĳåıĺèī²": 3069,
      "ç»§": 3070,
      "ç»ķ": 3071,
      "ç»Ļ": 3072,
      "ç»ĥæł·æľ¬": 3073,
      "ä»·": 3074,
      "GISåĴĮ": 3075,
      "GISæĵįä½ľ": 3076,
      "äº®": 3077,
      "äºĶ": 3078,
      "åľ°ç»Łè®¡": 3079,
      "åľ°åĿĢ": 3080,
      "åºĹéĵº": 3081,
      "æķ°æį®åĴĮ": 3082,
      "æķ°æį®æĹ¶": 3083,
      "æķ°æį®è½¬æį¢": 3084,
      "æķ°æį®åŃĺåĤ¨": 3085,
      "æķ°æį®åıłåĬł": 3086,
      "æķ°æį®åħ±äº«": 3087,
      "åĲĹ": 3088,
      "å½Ĵ": 3089,
      "åĮĢçļĦ": 3090,
      "å¼¯": 3091,
      "å¼±": 3092,
      "å¼ł": 3093,
      "æłĩçŃ": 3094,
      "æłĩè®°": 3095,
      "åĴĮä¸īç»´": 3096,
      "åĴĮåºĶçĶ¨": 3097,
      "åĴĮç®¡çĲĨ": 3098,
      "åĴĮæĭĵæīĳ": 3099,
      "åĴĮåĪĨç±»": 3100,
      "åĴĮWGS": 3101,
      "åĴĮç¬¦åı·": 3102,
      "åĴĮDEM": 3103,
      "åĴĮæĸ¹åĲĳ": 3104,
      "åĴĮPostGIS": 3105,
      "åĴĮä¼łæĦŁåĻ¨": 3106,
      "åĴĮæ°Ķ": 3107,
      "åĴĮæłħæł¼æķ°æį®": 3108,
      "åĴĮæĮĩå®ļ": 3109,
      "åĴĮä¿®æĶ¹": 3110,
      "åĴĮå¹²": 3111,
      "è¿¹": 3112,
      "è¿½": 3113,
      "åĪĨå¼Ģ": 3114,
      "åĪĨåıĳ": 3115,
      "åĪĨç»Ħ": 3116,
      "ä¸ŃçŃī": 3117,
      "ä¸Ńæ·»åĬł": 3118,
      "ä¸Ńæīĵå¼Ģ": 3119,
      "ä¸Ńä½İ": 3120,
      "åľ¨çĤ¹": 3121,
      "åľ¨åĪĨæŀĲ": 3122,
      "åľ¨è¦ģç´ł": 3123,
      "åľ¨å°Ĩ": 3124,
      "åľ¨åĽ½": 3125,
      "åľ¨ä¸Ģä¸ª": 3126,
      "åľ¨ä¸ŃåĽ½": 3127,
      "åľ¨GCJ": 3128,
      "åľ¨çĶ»å¸ĥ": 3129,
      "æĸŃ": 3130,
      "å®¢æĪ·": 3131,
      "å®Ĺåľ°": 3132,
      "åĿ¦": 3133,
      "è¡¡": 3134,
      "è¡¥åħħ": 3135,
      "å·¡æ£Ģ": 3136,
      "æĭ¿å¤§": 3137,
      "çº¦": 3138,
      "çº³": 3139,
      "çº¹çĲĨ": 3140,
      "è®©": 3141,
      "åı¯è®¾ç½®": 3142,
      "åı¯æıĲä¾Ľ": 3143,
      "åı¯è§ģ": 3144,
      "åı¯è¯»": 3145,
      "åı¯éĩįå¤į": 3146,
      "åı¯éĿł": 3147,
      "æł¼ç½ĳ": 3148,
      "æ³Ĭ": 3149,
      "å°¼": 3150,
      "å°Ŀè¯ķ": 3151,
      "æĺ¯åŁºäºİ": 3152,
      "æĺ¯åħ¶": 3153,
      "æĺ¯WGS": 3154,
      "æĺ¯æł¹æį®": 3155,
      "æĺ¯Google": 3156,
      "æĺ¯ç¬¬": 3157,
      "æĺ¯GCJ": 3158,
      "æĺ¯åķĨä¸ļGIS": 3159,
      "åĿĲæłĩä»¥": 3160,
      "åĿĲæłĩä¸ĭçļĦ": 3161,
      "å¯¸": 3162,
      "åįıä½ľ": 3163,
      "ä½¿å¾Ĺ": 3164,
      "ä½¿çĶ¨B": 3165,
      "ä½¿çĶ¨åĽ¾å±Ĥ": 3166,
      "ä½¿çĶ¨ç³»ç»Ł": 3167,
      "ä½¿çĶ¨QGIS": 3168,
      "ä½¿çĶ¨ArcGIS": 3169,
      "ä½¿çĶ¨ä¸įåĲĮ": 3170,
      "ä½¿çĶ¨ä¸īç»´": 3171,
      "ä½¿çĶ¨æĸ¹æ³ķ": 3172,
      "ä½¿çĶ¨çĽ¸åĲĮ": 3173,
      "æī¾": 3174,
      "æīįèĥ½": 3175,
      "éĿ¢åĿĲæłĩ": 3176,
      "éĿ¢çŃī": 3177,
      "éĿ¢ä¸º": 3178,
      "éĿ¢åĲĳ": 3179,
      "çĽĺ": 3180,
      "è½®": 3181,
      "ç©¿éĢı": 3182,
      "æĬķå½±å·¥åħ·": 3183,
      "æĬķå½±è½¬æį¢": 3184,
      "æĬķå½±åıĤæķ°": 3185,
      "æĬķå½±å¸¦": 3186,
      "ä¼ªå½©èī²": 3187,
      "çŃīé«ĺ": 3188,
      "çŃīçº§": 3189,
      "çŃīå¤ļç§į": 3190,
      "çŃīæĸ¹éĿ¢": 3191,
      "çĤ¹æķ°æį®": 3192,
      "çĤ¹çŃī": 3193,
      "çĤ¹åĪ°": 3194,
      "é«ĺè´¨éĩı": 3195,
      "æµĵåº¦": 3196,
      "ç§»åĬł": 3197,
      "ä¸ĢåĽ¾å±Ĥ": 3198,
      "ä¸Ģç¬¦åı·": 3199,
      "ä¸ĢæŃ¥": 3200,
      "ä¸Ģç³»åĪĹ": 3201,
      "ä¸Ģèµ·": 3202,
      "æĹ±": 3203,
      "åľ°åĽ¾å¹³åı°": 3204,
      "åľ°åĽ¾æ¯Ķä¾ĭå°º": 3205,
      "åľ°åĽ¾æĺ¾ç¤º": 3206,
      "åľ°åĽ¾æľįåĬ¡": 3207,
      "åľ°åĽ¾åı¯è§ĨåĮĸ": 3208,
      "åľ°åĽ¾æŁ¥çľĭ": 3209,
      "åľ°åĽ¾çªĹåı£": 3210,
      "åľ°åĽ¾ç»¼åĲĪ": 3211,
      "åľ°åĽ¾æľįåĬ¡åĻ¨": 3212,
      "ç¼Ŀ": 3213,
      "æĢ§è´¨": 3214,
      "æĢ§åıĺåĮĸ": 3215,
      "æĢ§çļĦåŁºç¡Ģ": 3216,
      "å¸¸é«ĺ": 3217,
      "ä¸ºåº¦": 3218,
      "ä¸ºçĲĥ": 3219,
      "ä¸ºä¸Ģä¸ª": 3220,
      "ä¸ºä»Ģä¹Ī": 3221,
      "ä»¥æĿ¥": 3222,
      "å¤§æķ°æį®": 3223,
      "å¤§åŀĭ": 3224,
      "å¤§æĸĩä»¶": 3225,
      "å¤§æķ°æį®éĩı": 3226,
      "åĪĨæŀĲç»ĵæŀľ": 3227,
      "åĪĨæŀĲçĽ®çļĦ": 3228,
      "ä¸įæĺ¯": 3229,
      "ä¸įè§ĦåĪĻ": 3230,
      "ä¸įåĩĨç¡®": 3231,
      "ä¸įåĿĩ": 3232,
      "åĨĮ": 3233,
      "åĨĽ": 3234,
      "åĨłå±Ĥ": 3235,
      "éĢīä¸ŃçļĦ": 3236,
      "å»¶ä¼": 3237,
      "å·¥åħ·åĮħæĭ¬": 3238,
      "è¡¨çİ°": 3239,
      "æĪĸå¤ļ": 3240,
      "æĪĸé«ĺæĸ¯": 3241,
      "æĪĸéħįåĩĨ": 3242,
      "æĪĸæĭĸæĭ½": 3243,
      "å¦ĤUTM": 3244,
      "å¦ĤåŁİå¸Ĥ": 3245,
      "å¦Ĥåħ¨çĲĥ": 3246,
      "å¦ĤLandsat": 3247,
      "å¦Ĥå±±": 3248,
      "å¦Ĥéģĵè·¯": 3249,
      "ArcSDE": 3250,
      "atmap": 3251,
      "ä¸ªäºº": 3252,
      "åĽ¾å±Ĥä¸º": 3253,
      "åĽ¾å±Ĥåı¯ä»¥": 3254,
      "erm": 3255,
      "erç®Ĺæ³ķ": 3256,
      "çº¿åŀĭ": 3257,
      "çº¿å°Ĩ": 3258,
      "ç³»ç»ŁéĢļå¸¸": 3259,
      "QGISå¸¸çĶ¨": 3260,
      "QGISé¡¹çĽ®": 3261,
      "è¿ĩæ»¤": 3262,
      "æľīçĶ¨": 3263,
      "æľīæķĪ": 3264,
      "æľīåºı": 3265,
      "æľīä¸įåĲĮçļĦ": 3266,
      "æľīæįŁåİĭç¼©": 3267,
      "æľīåĬ©": 3268,
      "æľīç©ºéļĻ": 3269,
      "æľīå¹¿æ³ĽåºĶçĶ¨": 3270,
      "åĬłè½½": 3271,
      "åĬłæĭ¿å¤§": 3272,
      "å¤ĦçĲĨçļĦ": 3273,
      "åĢį": 3274,
      "åĢ¾æĸľ": 3275,
      "åŀĤçĽ´": 3276,
      "å¤ļé¢Ĺ": 3277,
      "å¯¹æ¯Ķ": 3278,
      "å¯¹å¤ļä¸ª": 3279,
      "å¯¹çī¹å®ļ": 3280,
      "éľĢæł¹æį®": 3281,
      "èĥ½å¤Ł": 3282,
      "éģµå¾ª": 3283,
      "éģįåİĨ": 3284,
      "è¦ģç´łç±»åŀĭ": 3285,
      "è¦ģç´łè¾¹çķĮ": 3286,
      "è¦ģç´łåı¦": 3287,
      "è¦ģç´łä½¿çĶ¨çĽ¸åĲĮ": 3288,
      "ä¸İGIS": 3289,
      "ä¸İWGS": 3290,
      "ä¸İåħ¶ä»ĸ": 3291,
      "ä¸İåĽ¢éĺŁ": 3292,
      "æ¨¡æĭŁ": 3293,
      "åĥıåĨħç½®å·¥åħ·ä¸Ģæł·": 3294,
      "stan": 3295,
      "stra": 3296,
      "statistic": 3297,
      "æĿŁ": 3298,
      "åĲĪçĲĨ": 3299,
      "å½¢å¼ı": 3300,
      "å½¢åıĺ": 3301,
      "è½¬ä¸º": 3302,
      "ç¤¾åĮº": 3303,
      "ä½ľçĶ¨": 3304,
      "ä½ľçī©": 3305,
      "åĮºåĪĴ": 3306,
      "åĮħæĭ¬ArcGIS": 3307,
      "åĮħæĭ¬Landsat": 3308,
      "åĮħæĭ¬ä»¥ä¸ĭ": 3309,
      "inson": 3310,
      "inux": 3311,
      "æ³ķå¾": 3312,
      "æĹ¶çĽ¸": 3313,
      "æĹ¶æľŁ": 3314,
      "æĹ¶åºı": 3315,
      "aps": 3316,
      "aprx": 3317,
      "åŃĹä½ĵ": 3318,
      "åĢ¼ä½¿çĶ¨ä¸įåĲĮ": 3319,
      "åı¯ä»¥æĺ¯": 3320,
      "åı¯ä»¥è¿Ľè¡Į": 3321,
      "åı¯ä»¥åĪĽå»º": 3322,
      "åı¯ä»¥è§Ĩ": 3323,
      "åı¯ä»¥å¤§å¹ħ": 3324,
      "è®¡åĪĴ": 3325,
      "æĮģç»Ń": 3326,
      "åıĺéĩı": 3327,
      "åıĺä½ĵ": 3328,
      "éĩįåĽ¾å½¢": 3329,
      "éĩįéĩĩæł·": 3330,
      "éĩįè®¿": 3331,
      "éĢļè¿ĩåĽ¾å±Ĥ": 3332,
      "éĢļè¿ĩåıĳå°Ħ": 3333,
      "å¾Ī": 3334,
      "çŁ¿äº§": 3335,
      "éĢīæĭ©è¦ģ": 3336,
      "éĢīæĭ©å¯¹åºĶ": 3337,
      "éĢīæĭ©æĬķå½±æĹ¶": 3338,
      "éĢīæĭ©æŃ£ç¡®çļĦ": 3339,
      "å°Ĩä¸Ģä¸ª": 3340,
      "å°Ĩå¤ļä¸ª": 3341,
      "lect": 3342,
      "æ¯«": 3343,
      "éĻ©": 3344,
      "æłħæł¼çļĦ": 3345,
      "æłħæł¼åĴĮ": 3346,
      "åºĶåħĪ": 3347,
      "éľĢè¦ģçĶ¨æĪ·": 3348,
      "éľĢè¦ģèĢĥèĻĳ": 3349,
      "éľĢè¦ģæīĭåĬ¨æĮĩå®ļ": 3350,
      "æľ¬åĪĿ": 3351,
      "åŃĺä¸º": 3352,
      "onver": 3353,
      "æĪĲä¸º": 3354,
      "æĪĲåĬŁ": 3355,
      "æĸĩä»¶çļĦ": 3356,
      "æĸĩä»¶å¹¶": 3357,
      "æĸĩä»¶å¤§å°ı": 3358,
      "æĸĩä»¶åľ°çĲĨæķ°æį®åºĵ": 3359,
      "æĸĩä»¶å¤¹": 3360,
      "æĶ¯æĮģçīĪæľ¬": 3361,
      "æĶ¯æĮģå®Įæķ´çļĦ": 3362,
      "æĶ¯æĮģå¤įæĿĤçļĦ": 3363,
      "åĪ°åľ°åĽ¾": 3364,
      "åĪ°æķ°çĻ¾": 3365,
      "åĪ°äºĮç»´": 3366,
      "å±ŀæĢ§åĢ¼": 3367,
      "ç¨ĭåºı": 3368,
      "Geometry": 3369,
      "Geostatistic": 3370,
      "è¿ĽåĪ¶": 3371,
      "æ·ĺæ±": 3372,
      "åħ¥éĢīé¡¹åį¡": 3373,
      "åĽ½éĺ": 3374,
      "aliz": 3375,
      "alysis": 3376,
      "ç»´åº¦": 3377,
      "æľĢä¾¿": 3378,
      "åĪ¶å®ļ": 3379,
      "è¿Ľè¡Įè½¬æį¢": 3380,
      "è¿Ľè¡ĮéĩįæĬķå½±": 3381,
      "è¿Ľè¡Įå®ŀæĹ¶": 3382,
      "ç²Ĺ": 3383,
      "ä¸Ĭæľī": 3384,
      "ä¸ĬæĹł": 3385,
      "ä¸Ĭç»ĺåĪ¶": 3386,
      "çĶ¨äºİåľ¨": 3387,
      "çĶ¨äºİæııè¿°": 3388,
      "ç»ıçº¬": 3389,
      "ç»ıå¸¸éģĩåĪ°": 3390,
      "ç»ıåħ¸çļĦ": 3391,
      "å¹³åĿ¦": 3392,
      "æ³¨åĨĮ": 3393,
      "åĿĲæłĩç³»ç»ŁéĢīæĭ©": 3394,
      "éģ¥æĦŁåĪĨæŀĲ": 3395,
      "éģ¥æĦŁå¹³åı°": 3396,
      "éģ¥æĦŁæķ°æį®æºĲ": 3397,
      "ä¿¡æģ¯çļĦæĬĢæľ¯": 3398,
      "æºĲæķ°æį®": 3399,
      "analysis": 3400,
      "è´£": 3401,
      "ç½ĳæĪĸ": 3402,
      "ç½ĳåľ°åĽ¾æľįåĬ¡": 3403,
      "æıĲé«ĺ": 3404,
      "æıĲåįĩ": 3405,
      "å½±åĥıè¿Ľè¡ĮåĪĨç±»": 3406,
      "ä¸įåĲĮå¤§å°ı": 3407,
      "ä¸įåĲĮæĹ¶æľŁ": 3408,
      "æ¡¥æ": 3409,
      "ä¸»æĪĲåĪĨ": 3410,
      "å®ŀä½ĵ": 3411,
      "åįķä¸ª": 3412,
      "åįķæĸĩä»¶": 3413,
      "åįķæ³¢æ®µ": 3414,
      "å¸¸çĶ¨æłħæł¼": 3415,
      "å¸¸çĶ¨ç®Ĺæ³ķ": 3416,
      "æķ°æį®åºĵè¿ŀæİ¥": 3417,
      "end": 3418,
      "env": 3419,
      "ence": 3420,
      "æ³¢éķ¿": 3421,
      "è®¡ç®Ĺæľº": 3422,
      "è®¡ç®Ĺèĥ½åĬĽ": 3423,
      "çŁ¢éĩıè½¬æį¢": 3424,
      "çŁ¢éĩıçĵ¦çīĩ": 3425,
      "çŁ¢éĩıåĪĨæŀĲå·¥åħ·åĮħæĭ¬": 3426,
      "çŁ¢éĩıåĴĮæłħæł¼æķ°æį®": 3427,
      "æŁ¥æī¾": 3428,
      "åīĸ": 3429,
      "åĪĽå»ºè¦ģç´ł": 3430,
      "åĪĽå»ºäº¤äºĴå¼ı": 3431,
      "åĪĽå»ºçĥŃåĬĽåĽ¾": 3432,
      "åĲİä½¿çĶ¨": 3433,
      "åĲİæ¯Ķè¾ĥ": 3434,
      "åĲİåı¯çĽ´æİ¥": 3435,
      "åĲĳéĩı": 3436,
      "å¹¶æİ¥æĶ¶": 3437,
      "ä¸īç»´æ¨¡åŀĭ": 3438,
      "ä¸īç»´æķ°æį®çļĦ": 3439,
      "ä¸īç»´åľºæĻ¯": 3440,
      "ä¸īç»´GISæķ°æį®æł¼å¼ı": 3441,
      "ä¸īç»´åľ°åĽ¾åı¯è§ĨåĮĸ": 3442,
      "è®¾ç½®æłĩæ³¨": 3443,
      "è®¾ç½®åĽ¾å±ĤCRS": 3444,
      "æ·»åĬłçĤ¹": 3445,
      "æ·»åĬłåĽ¾ä¾ĭ": 3446,
      "åıĸèĪį": 3447,
      "åĽ´ç»ķ": 3448,
      "åĨħåŃĺ": 3449,
      "åĨħéĥ¨": 3450,
      "ä¿ĿæĬ¤": 3451,
      "WebæľįåĬ¡": 3452,
      "åħīåŃ¦": 3453,
      "ç®¡çº¿": 3454,
      "åŁºäºİDEM": 3455,
      "åŁºäºİè§ĦåĪĻ": 3456,
      "åŁºäºİè¡¨è¾¾å¼ı": 3457,
      "çķ¸åıĺ": 3458,
      "ĠPl": 3459,
      "åĮĹåģıç§»": 3460,
      "åĮĹåįĬçĲĥ": 3461,
      "etect": 3462,
      "red": 3463,
      "åĪĻä½¿çĶ¨": 3464,
      "äºĨè§£": 3465,
      "å°ıäºİ": 3466,
      "å°ıæ¯Ķä¾ĭå°º": 3467,
      "è§Ħæ¨¡": 3468,
      "è§Ħå®ļ": 3469,
      "è§ĦèĮĥ": 3470,
      "ä¸Ģä¸ªåĽ¾å±ĤçļĦ": 3471,
      "ä¸Ģä¸ªæĪĸå¤ļä¸ª": 3472,
      "ä¸Ģä¸ªåħ¸åŀĭ": 3473,
      "ç¼ĸè¾ĳéĢīé¡¹åį¡": 3474,
      "ç¼ĸè¾ĳæ¨¡å¼ı": 3475,
      "ç¼ĸè¾ĳåĬŁèĥ½åĮħæĭ¬": 3476,
      "èĮĥåĽ´åĴĮ": 3477,
      "èĮĥåĽ´ä»İ": 3478,
      "èĮĥåĽ´æıĲåıĸ": 3479,
      "èµĸ": 3480,
      "èµ¤éģĵ": 3481,
      "åħ³äºİ": 3482,
      "æĸ°ä¸Ģä»£": 3483,
      "å°ºå¯¸": 3484,
      "è§Ĩè§Ĵ": 3485,
      "è¡¨ç¤ºåľ°å½¢": 3486,
      "è¡¨ç¤ºè¾¹çķĮ": 3487,
      "ç±»åŀĭåĮħæĭ¬": 3488,
      "ç±»åŀĭçĿĢ": 3489,
      "ĠConver": 3490,
      "æĮĩåĲĳ": 3491,
      "ä¼ĺåĮĸ": 3492,
      "ä¼ĺåħĪ": 3493,
      "ç²¾åº¦åºĶçĶ¨": 3494,
      "ç²¾åº¦è¦ģæ±Ĥ": 3495,
      "MapServer": 3496,
      "ç»Ħä»¶": 3497,
      "æłĩåĩĨçº¬çº¿": 3498,
      "ä¸ŃåĽ½æ³ķå¾": 3499,
      "è½¯ä»¶åĴĮ": 3500,
      "çī©æµģ": 3501,
      "ä½įç½®çļĦåıĤèĢĥ": 3502,
      "ä¸»è¦ģåºĶçĶ¨åĮħæĭ¬": 3503,
      "åŃĺåĤ¨éĩı": 3504,
      "åŃĺåĤ¨æµ·éĩıæķ°æį®": 3505,
      "åŃĺåĤ¨çŁ¢éĩıåĴĮæłħæł¼æķ°æį®": 3506,
      "éķ¶åµĮ": 3507,
      "ä»İæĸĩä»¶": 3508,
      "éĢĤå½ĵ": 3509,
      "æłĩæ³¨åŃĹæ®µ": 3510,
      "åĩłç§į": 3511,
      "æıĴåħ¥éĢīé¡¹åį¡": 3512,
      "éĹ®é¢ĺä¸Ģ": 3513,
      "éĹ®é¢ĺä¸ī": 3514,
      "éĹ®é¢ĺäºĮ": 3515,
      "éĹ®é¢ĺåĽĽ": 3516,
      "éĹ®é¢ĺäºĶ": 3517,
      "æĵįä½ľç³»ç»Ł": 3518,
      "æĵįä½ľéĥ½": 3519,
      "ick": 3520,
      "icus": 3521,
      "iles": 3522,
      "æĻºèĥ½": 3523,
      "è§£åĨ³": 3524,
      "éĢļå¸¸åľ¨": 3525,
      "éĢļå¸¸ä½¿çĶ¨": 3526,
      "éĢļå¸¸ä»¥": 3527,
      "éĢļå¸¸è¾ĥå¤§": 3528,
      "éĢļå¸¸å°ıäºİ": 3529,
      "æĿ¥èİ·åıĸ": 3530,
      "æ¸ħ": 3531,
      "ä½Ĩä¸įèĥ½": 3532,
      "ä½Ĩç»ĨèĬĤ": 3533,
      "åŃ¦å®¶": 3534,
      "å¯ĨéĽĨ": 3535,
      "éĿ¢ç§¯æ¯Ķä¾ĭ": 3536,
      "éĿ¢ç§¯åıĺå½¢": 3537,
      "éĿ¢ç§¯ç»Łè®¡": 3538,
      "å·¥ä½ľç©ºéĹ´": 3539,
      "å·¥ä½ľæµģ": 3540,
      "é¡¹çĽ®æĸĩä»¶": 3541,
      "é¡¹çĽ®å±ŀæĢ§": 3542,
      "é¡¹çĽ®åĿĲæłĩç³»": 3543,
      "å¹³åı°åľ°åĽ¾æľįåĬ¡åĻ¨": 3544,
      "æĬĢæľ¯æłĪ": 3545,
      "éķ¿åįĬ": 3546,
      "DEFLA": 3547,
      "åĳĪ": 3548,
      "åį«æĺŁç³»ç»Ł": 3549,
      "åį«æĺŁç³»åĪĹ": 3550,
      "å¿ĥåĿĲæłĩç³»": 3551,
      "æ³¢æ®µåıįå°Ħçİĩ": 3552,
      "TIRS": 3553,
      "rid": 3554,
      "åīįç¡®ä¿Ŀ": 3555,
      "ç¼ĵåĨ²è·Ŀç¦»": 3556,
      "åĪĨè¾¨çİĩåĴĮ": 3557,
      "æ±ĩæĢ": 3558,
      "çľģ": 3559,
      "è¾¹çļĦ": 3560,
      "è¾¹å½¢": 3561,
      "å¯¼åĩºåľ°åĽ¾": 3562,
      "åľ¨QGISä¸ŃéĢļè¿ĩ": 3563,
      "åģļ": 3564,
      "åģľ": 3565,
      "çĥĪ": 3566,
      "éĺ³": 3567,
      "äºĳå¹³åı°": 3568,
      "å¤ļä¸ªè¦ģç´ł": 3569,
      "å¤ļä¸ªåĽ¾å±ĤçļĦ": 3570,
      "æ£Ģç´¢": 3571,
      "æĺ¾ç¤ºä¸º": 3572,
      "æĺ¾ç¤ºä¸įåĲĮå¤§å°ı": 3573,
      "CADåĽ¾å±Ĥ": 3574,
      "CADä¸ŃçļĦ": 3575,
      "CADèĩ³": 3576,
      "çº¢åħī": 3577,
      "çº¢èī²": 3578,
      "è¾ĥä½İ": 3579,
      "è¾ĥå°ĳ": 3580,
      "è¾ĥå¼±": 3581,
      "çĤ¹åĩ»ç¼ĸè¾ĳéĢīé¡¹åį¡": 3582,
      "æĹłéľĢ": 3583,
      "æĹłæ³ķ": 3584,
      "åŁºåĩĨçļĦé«ĺåº¦": 3585,
      "å¯¹äºİéľĢè¦ģ": 3586,
      "éĢĤåĲĪéľĢè¦ģ": 3587,
      "è·Ŀç¦»çļĦ": 3588,
      "è·Ŀç¦»è®¡ç®Ĺ": 3589,
      "è·Ŀç¦»æµĭéĩı": 3590,
      "ç¼ĵåĨ²åĮºå·¥åħ·": 3591,
      "åı³éĶ®éĢīæĭ©": 3592,
      "åı³éĶ®PostgreSQL": 3593,
      "éĥ¨éĹ¨": 3594,
      "ĠTHEN": 3595,
      "ĠTiles": 3596,
      "çĶ¨æĪ·åı¯ä»¥": 3597,
      "åľ°å½¢åĪĨæŀĲ": 3598,
      "å®¹å·®": 3599,
      "æŀĦæĪĲ": 3600,
      "æŀĦéĢł": 3601,
      "ä¼°è®¡": 3602,
      "é«ĺç¨ĭæ¨¡åŀĭ": 3603,
      "è¿ŀæİ¥åĪ°": 3604,
      "è¿ŀæİ¥èĩ³": 3605,
      "è¿ŀæİ¥çº¿å°Ĩ": 3606,
      "å¹´åĲİ": 3607,
      "å¹´èµ·": 3608,
      "æµĭéĩıåĴĮ": 3609,
      "æ°´åĩĨ": 3610,
      "æ°´èµĦæºĲ": 3611,
      "ASS": 3612,
      "ASTER": 3613,
      "æ´ªæ°´": 3614,
      "çļĦæķ°æį®æ¨¡åŀĭ": 3615,
      "åıįå¤į": 3616,
      "åıįæĺł": 3617,
      "æł¸å¯Ĩåº¦": 3618,
      "æł¹æľ¬": 3619,
      "çĶ±äºİ": 3620,
      "åħĭéĩĮ": 3621,
      "åĽłç´ł": 3622,
      "äºĴèģĶ": 3623,
      "çĽĳçĿ": 3624,
      "ç»Łè®¡åĽ¾è¡¨": 3625,
      "å¸¸è§ģçļĦæķ°æį®": 3626,
      "åİŁçĤ¹": 3627,
      "åİĭç¼©æĬĢæľ¯": 3628,
      "å¯¼åħ¥PostGIS": 3629,
      "PostGISçļĦ": 3630,
      "æīĢæľīè¦ģç´łç±»": 3631,
      "æīĢæľīè¦ģç´łä½¿çĶ¨çĽ¸åĲĮ": 3632,
      "æīĢæľīæĵįä½ľéĥ½": 3633,
      "åŁİå¸ĤçĥŃ": 3634,
      "olve": 3635,
      "çģ«æĺŁ": 3636,
      "ĠAp": 3637,
      "ĠAPI": 3638,
      "GISè½¯ä»¶ä½ĵç³»": 3639,
      "äººåĳĺ": 3640,
      "å½ĵåľ°": 3641,
      "æĶ¶æķĽè§Ĵ": 3642,
      "ated": 3643,
      "ä¹Łç§°": 3644,
      "èĩ³EPSG": 3645,
      "æ¯ıå¸¦": 3646,
      "è¾ĵåĩºçļĦ": 3647,
      "è¾ĵåĩºæłħæł¼": 3648,
      "æĽ´å¤ļ": 3649,
      "ä¼łæĦŁåĻ¨èİ·åıĸ": 3650,
      "æī¹éĩıçŁ¢éĩıè½¬æį¢": 3651,
      "InSAR": 3652,
      "ode": 3653,
      "éĥ½æıĲä¾ĽäºĨ": 3654,
      "Ġ10000": 3655,
      "ĠSt": 3656,
      "ĠServer": 3657,
      "ĠSens": 3658,
      "ĠScene": 3659,
      "åĪĴåĪĨä¸º": 3660,
      "åĲįåĴĮ": 3661,
      "åĪĨå¸ĥå¼ı": 3662,
      "æī§è¡Įç¼ĵåĨ²åĮº": 3663,
      "æī§è¡ĮçĽ¸åĲĮ": 3664,
      "æī§è¡ĮSQLæŁ¥è¯¢": 3665,
      "ç®Ģä»ĭ": 3666,
      "ç©ºéĹ´æķ°æį®ç±»åŀĭåĴĮ": 3667,
      "å¤§åľ°æ°´åĩĨ": 3668,
      "æĦıä¹ī": 3669,
      "åħ¨çĲĥå¯¼èĪª": 3670,
      "æ°Ķè±¡": 3671,
      "å¤ĦçĲĨå·¥åħ·ç®±ä¸Ń": 3672,
      "å¤ĦçĲĨå·¥åħ·ç®±ä¸ŃçļĦ": 3673,
      "èİ·å¾Ĺ": 3674,
      "ĠDetect": 3675,
      "å®ĥéĢļè¿ĩ": 3676,
      "ç©ºéĹ´åĪĨæŀĲçļĦ": 3677,
      "æİ¨åĩº": 3678,
      "æĹ¶éĹ´æľĢ": 3679,
      "æłħæł¼æķ°æį®æ¨¡åŀĭ": 3680,
      "çŁ¢éĩıæķ°æį®ç¼ĸè¾ĳ": 3681,
      "æµıè§Īæĸĩä»¶": 3682,
      "GeoPackageåį³åı¯": 3683,
      "SARå½±åĥı": 3684,
      "SARåį«æĺŁ": 3685,
      "ade": 3686,
      "emot": 3687,
      "æ²³æµģ": 3688,
      "æ»ļ": 3689,
      "æ»¡è¶": 3690,
      "èģļç±»": 3691,
      "ĠMercator": 3692,
      "Ġåľ¨ArcGIS": 3693,
      "Ġåľ¨å¸ĥå±Ģ": 3694,
      "Ġåľ¨åľ°åĽ¾ä¸Ĭ": 3695,
      "Ġåľ¨çĽ®å½ķ": 3696,
      "GISæķ°æį®æĹ¶": 3697,
      "äºĮæ¬¡": 3698,
      "å¼ºåº¦": 3699,
      "è¿ĳä¼¼": 3700,
      "æĹ¥å¿Ĺ": 3701,
      "åĲĪå¹¶è¦ģç´ł": 3702,
      "éĩįæĬķå½±åĪ°": 3703,
      "GeoJSONæĪĸ": 3704,
      "å®ŀéĻħå·¥ä½ľä¸Ń": 3705,
      "æŁ¥è¯¢æĢ§èĥ½": 3706,
      "æĸ°å»ºè¿ŀæİ¥": 3707,
      "æ¬¡è¦ģ": 3708,
      "æ¬¡ç¼ĸåı·": 3709,
      "çĬ¶åĨµ": 3710,
      "Sentinelç³»åĪĹ": 3711,
      "ssolve": 3712,
      "ĠGL": 3713,
      "ĠGaps": 3714,
      "ä¸ĵé¢ĺ": 3715,
      "åľĨå½¢": 3716,
      "åľĨæŁ±": 3717,
      "æķ°åŃĹé«ĺç¨ĭæ¨¡åŀĭ": 3718,
      "åľ¨ArcGISä¸ŃéĢļè¿ĩ": 3719,
      "æĺ¯GISä¸ŃæľĢ": 3720,
      "å¦ĤæŀľéľĢè¦ģ": 3721,
      "å¦ĤæŀľéľĢè¦ģè¿Ľè¡Į": 3722,
      "ä¸ĬçļĦçĤ¹": 3723,
      "ä¸ĬçļĦä½įç½®": 3724,
      "ä¸ĬçļĦäºĮæ¬¡": 3725,
      "æ¡ĪåĴĮ": 3726,
      "ä¸ĭè½½æķ°æį®": 3727,
      "è¿ŀç»ŃåĪĨå¸ĥ": 3728,
      "ä¼ĺåĬ¿åĮħæĭ¬": 3729,
      "æıĴåĢ¼æĸ¹æ³ķ": 3730,
      "æ¯ıä¸ªçĤ¹": 3731,
      "æ¯ıä¸ªè¦ģç´łç±»": 3732,
      "ALOS": 3733,
      "ä¸ľç»ı": 3734,
      "ä¸ľè¥¿": 3735,
      "çļĦæł¸å¿ĥç»ĦæĪĲéĥ¨åĪĨ": 3736,
      "åľ°çī©ç±»åŀĭ": 3737,
      "æĺİåº¦": 3738,
      "æĺİæĺ¾": 3739,
      "æĶ¹åıĺ": 3740,
      "è¦ģç´łç±»åĴĮç¼ĸè¾ĳ": 3741,
      "åľ°çĲĨåĿĲæłĩä¸İ": 3742,
      "åľ°çĲĨæķ°æį®åºĵå·¥åħ·": 3743,
      "é¢Ħç®Ĺ": 3744,
      "ç»ıçº¬åº¦åĿĲæłĩä¸ĭçļĦ": 3745,
      "ç²¾ç¡®çļĦ": 3746,
      "åįķä½įä¸ºåº¦": 3747,
      "äº¤éĢļè§ĦåĪĴ": 3748,
      "æ¤įè¢«æĮĩæķ°": 3749,
      "çĥŃçº¢å¤ĸéģ¥æĦŁ": 3750,
      "è¿Ĳè¡ĮåĲİ": 3751,
      "æĿ¡ä»¶èµĭ": 3752,
      "æī©å±ķæ¨¡åĿĹ": 3753,
      "GBK": 3754,
      "GBéĻĲåĪ¶": 3755,
      "tract": 3756,
      "ĠRele": 3757,
      "åıĬçĽ¸åħ³": 3758,
      "æķ°åĢ¼åŀĭ": 3759,
      "åľ°åĽ¾æĬķå½±éĥ½": 3760,
      "ä¸įèĥ½æľīç©ºéļĻ": 3761,
      "åĬłå¯ĨåĿĲæłĩç³»": 3762,
      "åĥıåħĥè¿Ľè¡Į": 3763,
      "æĿĥéĩį": 3764,
      "æŁ¥çľĭè¯¦ç»Ĩ": 3765,
      "éĩĩéĽĨæĸ¹æ³ķ": 3766,
      "èĪªç©º": 3767,
      "éļıæľº": 3768,
      "éļıçĿĢ": 3769,
      "çİ¯å¢ĥçĽĳæµĭ": 3770,
      "çİ¯å¢ĥè¯Ħä¼°": 3771,
      "åģıç§»éĩı": 3772,
      "Buil": 3773,
      "èĦīåĨ²": 3774,
      "ĠGISåºĶçĶ¨": 3775,
      "çļĦä¸īç»´æ¨¡åŀĭ": 3776,
      "åĲ¯çĶ¨": 3777,
      "è¿ĺåĮħæĭ¬": 3778,
      "è¿ĺæĺ¯åķĨä¸ļGIS": 3779,
      "åľ¨çº¿åºķåĽ¾": 3780,
      "æĺ¯æľĢä¼ĺ": 3781,
      "æĺ¯æľĢéĩįè¦ģçļĦ": 3782,
      "åįĹåĮĹ": 3783,
      "åįĹåįĬçĲĥ": 3784,
      "çŃīéĿ¢ç§¯åľĨéĶ¥æĬķå½±": 3785,
      "é«ĺçº§çī¹æĢ§": 3786,
      "ç§°ä¸º": 3787,
      "ç©ºéĹ´ç´¢å¼ķåĴĮ": 3788,
      "è¯Ńä¹ī": 3789,
      "è¯Ńåı¥": 3790,
      "å¤§æ¯Ķä¾ĭå°ºåľ°å½¢åĽ¾": 3791,
      "åĨ³å®ļ": 3792,
      "å¯¹åºĶåĥıåħĥè¿Ľè¡Į": 3793,
      "åŃĹç¬¦ç¼ĸçłģ": 3794,
      "æ¡ĮéĿ¢ç«¯": 3795,
      "ç¬¦åı·åĮĸä¸İ": 3796,
      "çľŁå®ŀ": 3797,
      "ä¹ĭéĹ´çļĦå·®å¼Ĥ": 3798,
      "å¼ĢæºĲGISçĶŁæĢģç³»ç»Ł": 3799,
      "çļĦåŁºç¡Ģæķ°æį®": 3800,
      "åľŁåľ°ç±»åŀĭçĿĢ": 3801,
      "SVG": 3802,
      "Scale": 3803,
      "oundar": 3804,
      "ĠHav": 3805,
      "Ġæ·»åĬłåľ°åĽ¾": 3806,
      "æķ°åŃ¦åĩ½æķ°": 3807,
      "æķ°åŃ¦è¿Ĳç®Ĺ": 3808,
      "è¿ģç§»åĪ°": 3809,
      "é«ĺç²¾åº¦æµĭç»ĺ": 3810,
      "åħ·æľīçĭ¬çī¹": 3811,
      "ä»¥ä¸ĭåĩłç§į": 3812,
      "æİ§åĪ¶çĤ¹": 3813,
      "æł¼å¼ıè½¬æį¢å·¥åħ·": 3814,
      "åıĳå°ĦçļĦ": 3815,
      "åī²åľĨéĶ¥æĬķå½±": 3816,
      "Webåľ°åĽ¾åºĵ": 3817,
      "å·²æľīè¦ģç´łçļĦ": 3818,
      "è¶ħåĽ¾": 3819,
      "åľ¨GISä¸Ńå¤ĦçĲĨ": 3820,
      "åľ¨GISä¸ŃçĶ¨äºİæııè¿°": 3821,
      "æ¤ŃçĲĥä½ĵåıĤæķ°": 3822,
      "æ¤ŃçĲĥä½ĵçļĦåıĤ": 3823,
      "é¢Ħå¤ĦçĲĨæµģç¨ĭ": 3824,
      "çªĹæł¼ä¸Ńåı³éĶ®": 3825,
      "æİ¨èįĲçļĦ": 3826,
      "197": 3827,
      "Dijk": 3828,
      "Dissolve": 3829,
      "GDALçļĦ": 3830,
      "eskt": 3831,
      "gdalwar": 3832,
      "ify": 3833,
      "json": 3834,
      "ram": 3835,
      "¸çļĦåĮºåŁŁ": 3836,
      "æĥ¯": 3837,
      "ĠVector": 3838,
      "ä¸ĩçº§": 3839,
      "çļĦGISé¡¹çĽ®": 3840,
      "çļĦç©ºéĹ´æī©å±ķ": 3841,
      "åı¦ä¸Ģä¸ª": 3842,
      "æķ£å°Ħ": 3843,
      "å¤ĩä»½": 3844,
      "åĲĦç§į": 3845,
      "åĽ¾çīĩçŃī": 3846,
      "éĢıæĺİåº¦": 3847,
      "éĢĲä¸ª": 3848,
      "åĪĨåĪ«å¯¼åħ¥": 3849,
      "åľ¨å®ŀéĻħGISå·¥ä½ľä¸Ń": 3850,
      "å®½åº¦": 3851,
      "åĩıå°ı": 3852,
      "åı¯è¾¾åİĺ": 3853,
      "è½¨è¿¹": 3854,
      "å¦Ĥä½ķå¤ĦçĲĨ": 3855,
      "åŁºç¡Ģä¸ĬçļĦäºĮæ¬¡": 3856,
      "è¿ĩç¨ĭä¸Ń": 3857,
      "æŁĲä¸ª": 3858,
      "æŁĲäºĽ": 3859,
      "ä¸īç§įåĮĹæĸ¹åĲĳ": 3860,
      "ä¸īè§Ĵç½ĳ": 3861,
      "å±ŀæĢ§åŃĹæ®µçļĦä¸įåĲĮ": 3862,
      "è®¾æĸ½éĢīåĿĢ": 3863,
      "åĽ½å®¶åĿĲæłĩç³»": 3864,
      "æľĢå¤§ä¼ĺåĬ¿": 3865,
      "çİ°ä»£æł¼å¼ı": 3866,
      "åĽłæŃ¤è¢«": 3867,
      "çļĦåŁºæľ¬æŃ¥éª¤": 3868,
      "çļĦåŁºæľ¬åİŁçĲĨ": 3869,
      "è¿ĻäºĽåıĤæķ°": 3870,
      "åıĮåĩ»æĪĸæĭĸæĭ½": 3871,
      "äº¤äºĴå¼ıWebåľ°åĽ¾": 3872,
      "ç¾İåĽ½çļĦ": 3873,
      "ç¾İåĽ½åĽ½éĺ": 3874,
      "æĺ¯ä¸Ģç§įçĶ¨": 3875,
      "117": 3876,
      "2010": 3877,
      "6378": 3878,
      "Excel": 3879,
      "Extract": 3880,
      "LAZ": 3881,
      "STç´¢å¼ķ": 3882,
      "å²©": 3883,
      "åµĮåħ¥": 3884,
      "æ¦Ĥè¿°": 3885,
      "ĠInf": 3886,
      "çļĦåľ°çĲĨå¤ĦçĲĨå·¥åħ·": 3887,
      "æķ°åįģä¸ĩ": 3888,
      "å¤ªéĺ³": 3889,
      "åĲ¸éĻĦ": 3890,
      "éĩİå¤ĸè°ĥæŁ¥": 3891,
      "åĪĨåī²ä¸º": 3892,
      "æŀ¶æŀĦ": 3893,
      "çŃīè§ĴæĬķå½±": 3894,
      "ç§ĳåŃ¦æķ°æį®æł¼å¼ı": 3895,
      "ç¼ºçĤ¹": 3896,
      "åĪ¶ä½ľä¸ĵä¸ļ": 3897,
      "å¢ŀåĬł": 3898,
      "çªģåĩº": 3899,
      "å·²çŁ¥éĩĩæł·çĤ¹": 3900,
      "åĽłåŃĲä¸º": 3901,
      "éĿŀå¸¸éĩįè¦ģ": 3902,
      "äº§çĶŁåıĺå½¢": 3903,
      "èĦļæľ¬å·¥åħ·": 3904,
      "åľŁåľ°åĪ©çĶ¨åıĺåĮĸ": 3905,
      "é£ŀè¡Į": 3906,
      "é«ĺå¾·åľ°åĽ¾": 3907,
      "æĸĩä»¶ä½ĵç§¯éĢļå¸¸è¾ĥå¤§": 3908,
      "137": 3909,
      "PROJ": 3910,
      "Union": 3911,
      "idian": 3912,
      "pectral": 3913,
      "sbn": 3914,
      "sbx": 3915,
      "terp": 3916,
      "vey": 3917,
      "åĵª": 3918,
      "ĠWHEN": 3919,
      "Ġåįķæ³¢æ®µ": 3920,
      "Ġåįķä¸Ģç¬¦åı·": 3921,
      "çļĦéĩįè¦ģè¡¥åħħ": 3922,
      "æķ°æį®è´¨éĩıæ£ĢæŁ¥": 3923,
      "å¼¹æĢ§": 3924,
      "å¼¹åĩº": 3925,
      "æłĩé¢ĺæĸĩåŃĹ": 3926,
      "ä¸ŃçĤ¹åĩ»æ·»åĬł": 3927,
      "æĺ¯EsriæıĲä¾Ľ": 3928,
      "æĺ¯Esriåħ¬åı": 3929,
      "é«ĺåħīè°±éģ¥æĦŁ": 3930,
      "åĪĨæŀĲåĴĮå±ķç¤º": 3931,
      "å¦ĤæĮīåľŁåľ°ç±»åŀĭçĿĢ": 3932,
      "ä¾Ŀèµĸ": 3933,
      "ä¾Ŀæ¬¡ç¼ĸåı·": 3934,
      "å¯¹è¯Ŀæ¡Ĩä¸Ń": 3935,
      "å¾ªçİ¯": 3936,
      "è·¨å¹³åı°": 3937,
      "è·¨è¶Ĭ": 3938,
      "åİĺç±³": 3939,
      "å¯¼èĩ´çļĦ": 3940,
      "è´Łè´£": 3941,
      "åĬ¨æĢģæĬķå½±": 3942,
      "ä»£è¡¨çļĦ": 3943,
      "çĽ¸éĤ»è¦ģç´ł": 3944,
      "åºĶçĶ¨åľºæĻ¯åĮħæĭ¬": 3945,
      "è¡¨ç¤ºè¿ŀç»Ńè¡¨éĿ¢": 3946,
      "æĽ²çº¿": 3947,
      "ä¸»è¦ģæľīä¸īç§į": 3948,
      "ä¸»è¦ģæľīä»¥ä¸ĭåĩłç§į": 3949,
      "äºĳè®¡ç®Ĺå¹³åı°": 3950,
      "åħ¬åħ±äº¤éĢļè§ĦåĪĴ": 3951,
      "åİŁå§ĭæķ°æį®": 3952,
      "åŃĲåįĪçº¿æĶ¶æķĽè§Ĵ": 3953,
      "æĹ¥å¸¸å·¥ä½ľä¸Ń": 3954,
      "æĲľç´¢å¹¶": 3955,
      "åĳ¨åĽ´åĪĽå»º": 3956,
      "åĳ½ä»¤è¡Į": 3957,
      "éĢĲæŃ¥åĲĳ": 3958,
      "éĢĲæŃ¥æ·ĺæ±": 3959,
      "é«ĺåĪĨç³»åĪĹåį«æĺŁ": 3960,
      "æ±¡æŁĵæµĵåº¦": 3961,
      "ĠCoordinates": 3962,
      "2008": 3963,
      "Douglas": 3964,
      "GEE": 3965,
      "Merge": 3966,
      "ModelBuil": 3967,
      "Reclass": 3968,
      "WMS": 3969,
      "Window": 3970,
      "geometry": 3971,
      "æĳĦå½±": 3972,
      "èĭ±": 3973,
      "ĠåĪĨçº§ç¬¦åı·": 3974,
      "ĠGeodetic": 3975,
      "çļĦä¸ŃéĹ´": 3976,
      "çļĦæĺ¯åľ°çī©": 3977,
      "çļĦä¼ĺåĬ¿åľ¨äºİ": 3978,
      "ä»»ä½ķ": 3979,
      "ä»ħåľ¨": 3980,
      "äºļç±³çº§": 3981,
      "åĴĮç²¾ç»Ĩ": 3982,
      "åľ¨åĽ¾å±Ĥå±ŀæĢ§": 3983,
      "å®ĺæĸ¹": 3984,
      "è®Ńç»ĥæł·æľ¬": 3985,
      "æĪĳçļĦæķ°æį®": 3986,
      "å°½éĩı": 3987,
      "ä½¿çĶ¨æľĢå¹¿æ³ĽçļĦ": 3988,
      "æī«æııä»ª": 3989,
      "é«ĺç©ºéĹ´åĪĨè¾¨çİĩçļĦ": 3990,
      "ä¸ºçŃīåĲĮ": 3991,
      "è¯´æĺİ": 3992,
      "å¦Ĥéĺ¿å°Ķä¼¯æĸ¯çŃīéĿ¢ç§¯åľĨéĶ¥æĬķå½±": 3993,
      "ernicus": 3994,
      "é¡µéĿ¢ä¸Ĭ": 3995,
      "ä¸İçľŁåĮĹ": 3996,
      "éĢīæĭ©å¼ĢæºĲGISè¿ĺæĺ¯åķĨä¸ļGIS": 3997,
      "éĻĨåľ°": 3998,
      "åºĶæĢ¥åĵįåºĶ": 3999,
      "æĪĲåĥıä»ª": 4000,
      "çĶ¨äºİåŃĺåĤ¨åĴĮåı¯è§ĨåĮĸ": 4001,
      "ä¸»åĬ¨ä¼łæĦŁåĻ¨": 4002,
      "roads": 4003,
      "çĶŁçī©éĩı": 4004,
      "åħ³èģĶåĪ°": 4005,
      "è£¸åľ°éĿ¢é«ĺç¨ĭ": 4006,
      "åį«æĺŁæĪĸé£ŀæľº": 4007,
      "ç¼©æĶ¾åĴĮ": 4008,
      "æ¬§æ´²": 4009,
      "ArcMapæĺ¯åįķ": 4010,
      "èĻļåģĩ": 4011,
      "å¿ħé¡»ä½¿çĶ¨çŃīéĿ¢ç§¯æĬķå½±": 4012,
      "è®¸å¤ļç»Ħç»ĩ": 4013,
      "cessing": 4014,
      "å¡«åħ¥": 4015,
      "ĠViewer": 4016,
      "ä¼ģä¸ļçº§åľ°çĲĨæķ°æį®åºĵ": 4017,
      "threejsæıĴä»¶": 4018,
      "åľ¨QGISåĴĮArcGISä¸Ńéĥ½åı¯ä»¥çĽ´æİ¥": 4019,
      "298": 4020,
      "257223": 4021,
      "Aspect": 4022,
      "Collect": 4023,
      "Copernicus": 4024,
      "Ctrl": 4025,
      "DSM": 4026,
      "Datum": 4027,
      "False": 4028,
      "GiSTç´¢å¼ķ": 4029,
      "Heatmap": 4030,
      "Hillsh": 4031,
      "ITRF": 4032,
      "LineStr": 4033,
      "NSI": 4034,
      "Peuck": 4035,
      "gpkg": 4036,
      "loud": 4037,
      "¾è®¯": 4038,
      "æħ¢": 4039,
      "æĵħéķ¿": 4040,
      "æļĹ": 4041,
      "æ¹ĸæ³Ĭ": 4042,
      "èħ¾è®¯": 4043,
      "Ġinput": 4044,
      "Ġoutput": 4045,
      "ĠQuick": 4046,
      "çļĦäºĳGISå¹³åı°": 4047,
      "åºĹéĵºä½įç½®": 4048,
      "æłĩçŃ¾": 4049,
      "åĴĮæ°ĶåĢĻ": 4050,
      "ä¸Ńä½İç²¾åº¦åºĶçĶ¨": 4051,
      "åľ¨çĶ»å¸ĥä¸Ĭç»ĺåĪ¶": 4052,
      "å®¢æĪ·ç«¯": 4053,
      "åı¯è§ģåħī": 4054,
      "éĿ¢ä¸ºåŁºåĩĨçļĦé«ĺåº¦": 4055,
      "çŃīé«ĺçº¿": 4056,
      "ä¸įè§ĦåĪĻä¸īè§Ĵç½ĳ": 4057,
      "ä¸įåĿĩåĮĢçļĦ": 4058,
      "å»¶ä¼¸çļĦåĮºåŁŁ": 4059,
      "ç³»ç»ŁéĢļå¸¸çĶ±": 4060,
      "æľīåĬ©äºİ": 4061,
      "åĢ¾æĸľæĳĦå½±": 4062,
      "è¦ģç´łåı¦åŃĺä¸º": 4063,
      "åı¯ä»¥è§Ĩä¸ºçŃīåĲĮ": 4064,
      "éĩįè®¿åĳ¨æľŁ": 4065,
      "æľ¬åĪĿåŃĲåįĪçº¿": 4066,
      "æĶ¯æĮģå®Įæķ´çļĦSQLæŁ¥è¯¢": 4067,
      "åĪ°äºĮç»´å¹³éĿ¢": 4068,
      "Geostatistical": 4069,
      "æľĢä¾¿æį·": 4070,
      "ç»ıçº¬ç½ĳæĪĸ": 4071,
      "éģ¥æĦŁæķ°æį®æºĲä¹ĭä¸Ģ": 4072,
      "æ¡¥æ¢ģ": 4073,
      "å¸¸çĶ¨ç®Ĺæ³ķåĮħæĭ¬": 4074,
      "ä¸ŃåĽ½æ³ķå¾ĭ": 4075,
      "ä½įç½®çļĦåıĤèĢĥæ¡Ĩæŀ¶": 4076,
      "è§£åĨ³æĸ¹æ¡Ī": 4077,
      "éķ¿åįĬè½´": 4078,
      "DEFLATE": 4079,
      "æ±ĩæĢ»": 4080,
      "å¤ļä¸ªåĽ¾å±ĤçļĦåĩłä½ķ": 4081,
      "CADèĩ³åľ°çĲĨæķ°æį®åºĵå·¥åħ·": 4082,
      "è¿ŀæİ¥çº¿å°Ĩè¾ĵåħ¥": 4083,
      "åħĭéĩĮéĩĳ": 4084,
      "äºĴèģĶç½ĳåľ°åĽ¾æľįåĬ¡": 4085,
      "çĽĳçĿ£åĪĨç±»": 4086,
      "æīĢæľīè¦ģç´łä½¿çĶ¨çĽ¸åĲĮç¬¦åı·": 4087,
      "Ġ1000000": 4088,
      "ĠSensing": 4089,
      "åħ¨çĲĥå¯¼èĪªåį«æĺŁç³»ç»Ł": 4090,
      "ĠDetection": 4091,
      "emote": 4092,
      "æ»¡è¶³": 4093,
      "Ġåľ¨çĽ®å½ķçªĹæł¼ä¸Ńåı³éĶ®": 4094,
      "åľĨæŁ±æĬķå½±": 4095,
      "æĿ¡ä»¶èµĭåĢ¼": 4096,
      "ĠRelease": 4097,
      "oundary": 4098,
      "ĠHave": 4099,
      "æ¤ŃçĲĥä½ĵçļĦåıĤå¿ĥåĿĲæłĩç³»": 4100,
      "Dijkstra": 4101,
      "esktop": 4102,
      "gdalwarp": 4103,
      "å¤ĩä»½æģ¢å¤į": 4104,
      "åı¯è¾¾åİĺç±³çº§": 4105,
      "å±ŀæĢ§åŃĹæ®µçļĦä¸įåĲĮåĢ¼ä½¿çĶ¨ä¸įåĲĮ": 4106,
      "ç¾İåĽ½åĽ½éĺ²éĥ¨": 4107,
      "6378137": 4108,
      "å¦ĤæĮīåľŁåľ°ç±»åŀĭçĿĢèī²": 4109,
      "éĢĲæŃ¥æ·ĺæ±°": 4110,
      "ModelBuilder": 4111,
      "Reclassify": 4112,
      "Windows": 4113,
      "257223563": 4114,
      "Collection": 4115,
      "Hillshade": 4116,
      "LineString": 4117,
      "Peuckerç®Ĺæ³ķ": 4118,
      ")ãĢĤ": 4119,
      "'ï¼Ī": 4120,
      ")ï¼Į": 4121,
      ")âĢĶâĢĶ": 4122,
      "*ãĢģ": 4123,
      "//": 4124,
      "14": 4125,
      "16": 4126,
      "17": 4127,
      "18": 4128,
      "199": 4129,
      "25": 4130,
      "31": 4131,
      "34": 4132,
      "43": 4133,
      "44": 4134,
      "46": 4135,
      "48": 4136,
      "49": 4137,
      "53": 4138,
      "69": 4139,
      "79": 4140,
      "85": 4141,
      "97": 4142,
      ":\\": 4143,
      "://": 4144,
      "AG": 4145,
      "AI": 4146,
      "AM": 4147,
      "AO": 4148,
      "AV": 4149,
      "ATE": 4150,
      "Adm": 4151,
      "ANSI": 4152,
      "BJ": 4153,
      "BX": 4154,
      "Bi": 4155,
      "Bro": 4156,
      "Bei": 4157,
      "Box": 4158,
      "Blo": 4159,
      "BASE": 4160,
      "Boundary": 4161,
      "CA": 4162,
      "CC": 4163,
      "CM": 4164,
      "CN": 4165,
      "CP": 4166,
      "CR": 4167,
      "CV": 4168,
      "CGIS": 4169,
      "Cat": 4170,
      "Con": 4171,
      "Cre": 4172,
      "CON": 4173,
      "Cate": 4174,
      "Cent": 4175,
      "Ces": 4176,
      "Com": 4177,
      "Cart": 4178,
      "Clas": 4179,
      "Cå¹³åı°åľ°åĽ¾æľįåĬ¡åĻ¨": 4180,
      "Cloud": 4181,
      "DK": 4182,
      "DN": 4183,
      "DP": 4184,
      "DT": 4185,
      "Da": 4186,
      "Dåľ°åĽ¾": 4187,
      "Dæ¨¡åŀĭ": 4188,
      "Del": 4189,
      "DAS": 4190,
      "Då»ºçŃĳ": 4191,
      "Dow": 4192,
      "Dæ¸²æŁĵ": 4193,
      "Dç¡¬": 4194,
      "Dåľ°åĽ¾è§ĨåĽ¾": 4195,
      "DAT": 4196,
      "Desktop": 4197,
      "EM": 4198,
      "El": 4199,
      "Ep": 4200,
      "Eu": 4201,
      "ETF": 4202,
      "ETER": 4203,
      "EATE": 4204,
      "FC": 4205,
      "FG": 4206,
      "Fl": 4207,
      "FAS": 4208,
      "Fly": 4209,
      "FBX": 4210,
      "GG": 4211,
      "Gr": 4212,
      "Gè½¬": 4213,
      "Graphic": 4214,
      "Glo": 4215,
      "GML": 4216,
      "Gau": 4217,
      "Grid": 4218,
      "Gram": 4219,
      "GDP": 4220,
      "Hy": 4221,
      "HçŃī": 4222,
      "HDF": 4223,
      "HSV": 4224,
      "HER": 4225,
      "IB": 4226,
      "IN": 4227,
      "IP": 4228,
      "IU": 4229,
      "Im": 4230,
      "Iter": 4231,
      "Iåħ¬åı": 4232,
      "IETF": 4233,
      "Jo": 4234,
      "Ke": 4235,
      "Kri": 4236,
      "Kern": 4237,
      "Know": 4238,
      "Kru": 4239,
      "LI": 4240,
      "LS": 4241,
      "Lon": 4242,
      "LON": 4243,
      "Late": 4244,
      "Lati": 4245,
      "Lab": 4246,
      "Linux": 4247,
      "Me": 4248,
      "My": 4249,
      "MQGIS": 4250,
      "MåĢ¼": 4251,
      "Man": 4252,
      "Met": 4253,
      "Mag": 4254,
      "Mes": 4255,
      "MOD": 4256,
      "MPR": 4257,
      "Mercator": 4258,
      "Na": 4259,
      "No": 4260,
      "NAD": 4261,
      "NAS": 4262,
      "Nul": 4263,
      "NND": 4264,
      "Natu": 4265,
      "On": 4266,
      "Over": 4267,
      "OGCS": 4268,
      "Out": 4269,
      "Off": 4270,
      "Online": 4271,
      "OID": 4272,
      "OLI": 4273,
      "OMPR": 4274,
      "PK": 4275,
      "Pr": 4276,
      "PçĶ¨äºİ": 4277,
      "Pan": 4278,
      "PAR": 4279,
      "PBçº§": 4280,
      "PCA": 4281,
      "PHER": 4282,
      "PPK": 4283,
      "Qgis": 4284,
      "QML": 4285,
      "Ri": 4286,
      "Rand": 4287,
      "Rog": 4288,
      "Rad": 4289,
      "Res": 4290,
      "RED": 4291,
      "Rout": 4292,
      "Rè¯Ńè¨Ģ": 4293,
      "Remote": 4294,
      "RFC": 4295,
      "RIåħ¬åı": 4296,
      "Se": 4297,
      "Sn": 4298,
      "Sy": 4299,
      "SåĽ¾å±Ĥ": 4300,
      "Ser": 4301,
      "Sæ¨¡åŀĭ": 4302,
      "Sä¿ĿåŃĺ": 4303,
      "System": 4304,
      "Sele": 4305,
      "SRT": 4306,
      "SCP": 4307,
      "SDK": 4308,
      "SPHER": 4309,
      "Ter": 4310,
      "Tri": 4311,
      "Tag": 4312,
      "Til": 4313,
      "Tiff": 4314,
      "TSåĽ¾å±Ĥ": 4315,
      "UM": 4316,
      "Up": 4317,
      "UNI": 4318,
      "User": 4319,
      "UAV": 4320,
      "Vi": 4321,
      "Vor": 4322,
      "View": 4323,
      "Vector": 4324,
      "Wol": 4325,
      "Wå¼Ģå§ĭ": 4326,
      "WCS": 4327,
      "XY": 4328,
      "XåĴĮ": 4329,
      "XTE": 4330,
      "XML": 4331,
      "YåĿĲæłĩ": 4332,
      "ZåĢ¼": 4333,
      "ZæĴ": 4334,
      "ZåĿĲæłĩä»¥": 4335,
      "ZIP": 4336,
      "ak": 4337,
      "aLi": 4338,
      "bb": 4339,
      "be": 4340,
      "bu": 4341,
      "bor": 4342,
      "but": 4343,
      "bject": 4344,
      "binson": 4345,
      "boundary": 4346,
      "co": 4347,
      "cs": 4348,
      "cal": 4349,
      "cation": 4350,
      "clip": 4351,
      "ccess": 4352,
      "city": 4353,
      "cæĸĩä»¶å¹¶": 4354,
      "code": 4355,
      "de": 4356,
      "di": 4357,
      "do": 4358,
      "ds": 4359,
      "data": 4360,
      "day": 4361,
      "dæĸĩæ¡£": 4362,
      "dBASE": 4363,
      "eb": 4364,
      "eg": 4365,
      "est": 4366,
      "eæĸĩä»¶": 4367,
      "ean": 4368,
      "eè½¯ä»¶": 4369,
      "eè¡¨è¾¾å¼ı": 4370,
      "ech": 4371,
      "eMan": 4372,
      "fo": 4373,
      "feo": 4374,
      "for": 4375,
      "fæ¨¡åŀĭ": 4376,
      "ger": 4377,
      "gæĸĩä»¶": 4378,
      "gor": 4379,
      "ging": 4380,
      "gul": 4381,
      "gTIFF": 4382,
      "git": 4383,
      "gence": 4384,
      "hm": 4385,
      "hCursorçĶ¨äºİ": 4386,
      "htt": 4387,
      "ith": 4388,
      "iel": 4389,
      "iver": 4390,
      "iffer": 4391,
      "ius": 4392,
      "ium": 4393,
      "kel": 4394,
      "kup": 4395,
      "ll": 4396,
      "ls": 4397,
      "ler": 4398,
      "låĢ¼": 4399,
      "lor": 4400,
      "lust": 4401,
      "lä¸ŃåĪĽå»º": 4402,
      "lik": 4403,
      "linson": 4404,
      "ml": 4405,
      "mm": 4406,
      "mv": 4407,
      "mx": 4408,
      "mac": 4409,
      "med": 4410,
      "model": 4411,
      "nth": 4412,
      "nay": 4413,
      "nlo": 4414,
      "netic": 4415,
      "nik": 4416,
      "nterp": 4417,
      "ncæĸĩä»¶å¹¶": 4418,
      "ov": 4419,
      "ost": 4420,
      "over": 4421,
      "oCAD": 4422,
      "oJSON": 4423,
      "ometr": 4424,
      "ocation": 4425,
      "por": 4426,
      "pel": 4427,
      "pac": 4428,
      "ping": 4429,
      "pers": 4430,
      "pare": 4431,
      "pbf": 4432,
      "pub": 4433,
      "plic": 4434,
      "pak": 4435,
      "pean": 4436,
      "plor": 4437,
      "qpt": 4438,
      "qlä¸ŃåĪĽå»º": 4439,
      "rre": 4440,
      "rans": 4441,
      "rtu": 4442,
      "rvey": 4443,
      "sal": 4444,
      "set": 4445,
      "sub": 4446,
      "slope": 4447,
      "soi": 4448,
      "sæĸĩä»¶å¤¹": 4449,
      "spac": 4450,
      "tæŃ£": 4451,
      "tool": 4452,
      "tCursorçĶ¨äºİ": 4453,
      "ue": 4454,
      "uage": 4455,
      "ugin": 4456,
      "uated": 4457,
      "urvey": 4458,
      "vçŃī": 4459,
      "vin": 4460,
      "vic": 4461,
      "vation": 4462,
      "view": 4463,
      "wri": 4464,
      "web": 4465,
      "xåİŁçĶŁæĶ¯æĮģ": 4466,
      "xtent": 4467,
      "xml": 4468,
      "yçŃī": 4469,
      "ython": 4470,
      "yum": 4471,
      "yho": 4472,
      "¡åĽ¾åĥı": 4473,
      "¢è¿": 4474,
      "¢æµĭ": 4475,
      "¢ä¿ĿæĮģ": 4476,
      "£å¸ĥ": 4477,
      "£åĮºåŁŁ": 4478,
      "£èĬĤ": 4479,
      "¤ä¸º": 4480,
      "¤éĶ": 4481,
      "¤ç»Ħ": 4482,
      "¥ŀ": 4483,
      "¥çļĦ": 4484,
      "¥åº": 4485,
      "¥æľī": 4486,
      "¥äºĨ": 4487,
      "¥çĻ": 4488,
      "¥å¹²": 4489,
      "¦çĤ¹": 4490,
      "¦åı·": 4491,
      "¦ä¾§": 4492,
      "¦çī©ä½ĵ": 4493,
      "§çĥĪ": 4494,
      "¨å¤©": 4495,
      "©å½¢": 4496,
      "©åĳ½": 4497,
      "©æķ£": 4498,
      "ªæİ¥": 4499,
      "ªåľ°çĤ¹": 4500,
      "ªå£": 4501,
      "«çĶŁ": 4502,
      "«å¤ĸ": 4503,
      "«æĸ¯": 4504,
      "«ç«¯": 4505,
      "«åĨĽ": 4506,
      "¬æĮ": 4507,
      "¬ç»Łä¸Ģ": 4508,
      "®åĲİ": 4509,
      "®åıĬ": 4510,
      "®åĬ©": 4511,
      "®ç«Ļ": 4512,
      "¯ç½": 4513,
      "¯åĪ°": 4514,
      "¯ç§¯": 4515,
      "°æĺ": 4516,
      "°åº¦": 4517,
      "°çľ": 4518,
      "°çĽĳæµĭ": 4519,
      "°åħĥç´ł": 4520,
      "°æ»¤": 4521,
      "°åı¯è¯»": 4522,
      "±çļĦ": 4523,
      "±éĻ©": 4524,
      "²åĴĮ": 4525,
      "³åĴĮ": 4526,
      "³å®ļ": 4527,
      "³çĥŃ": 4528,
      "³çļĦéĢīæĭ©": 4529,
      "´ĸ": 4530,
      "´åĽ¾": 4531,
      "´äºİ": 4532,
      "´è¶": 4533,
      "µçļĦ": 4534,
      "µåĿĲæłĩ": 4535,
      "µåĪĹ": 4536,
      "µçĽĸ": 4537,
      "µåħ°": 4538,
      "¶æķ£": 4539,
      "·çļĦ": 4540,
      "·ç§¯": 4541,
      "¸ª": 4542,
      "¸æłĩ": 4543,
      "¸æĪĲ": 4544,
      "¸å»ºçŃĳ": 4545,
      "¸æķ£": 4546,
      "¸å¼ĢåıĳçļĦ": 4547,
      "¹æ²¡": 4548,
      "¹è®Ń": 4549,
      "¹°çľ": 4550,
      "ºåºı": 4551,
      "»åºķ": 4552,
      "»éĻ¤": 4553,
      "»æŃ¢": 4554,
      "»çĸ": 4555,
      "¼Ķ": 4556,
      "¼ł": 4557,
      "¼åľ°çĤ¹": 4558,
      "½Ĳ": 4559,
      "½æ£Ģ": 4560,
      "½çĦ¶": 4561,
      "½çķ¥": 4562,
      "½å°¼": 4563,
      "½®ç«Ļ": 4564,
      "¾ç": 4565,
      "¾ä»¥": 4566,
      "¾éĢī": 4567,
      "¿èĢħ": 4568,
      "åł": 4569,
      "å´ĸ": 4570,
      "æĤ": 4571,
      "æ¼Ķ": 4572,
      "æ½®ç«Ļ": 4573,
      "çħ": 4574,
      "çĨ": 4575,
      "çĪ": 4576,
      "çĳ": 4577,
      "ç¥ŀ": 4578,
      "èĤ": 4579,
      "èĳ": 4580,
      "èĴ": 4581,
      "è¸ª": 4582,
      "éī": 4583,
      "é¹°çľ": 4584,
      "é¼ł": 4585,
      "é½Ĳ": 4586,
      "Ġ$": 4587,
      "Ġ2": 4588,
      "Ġ9": 4589,
      "Ġr": 4590,
      "ĠçĶ¨": 4591,
      "ĠåĪĨ": 4592,
      "ĠçĤ¹": 4593,
      "Ġå¤§": 4594,
      "Ġè¡¨": 4595,
      "ĠæĪĸ": 4596,
      "ĠQGIS": 4597,
      "Ġst": 4598,
      "ĠåĩĨ": 4599,
      "ĠéĢļè¿ĩ": 4600,
      "Ġæłħæł¼": 4601,
      "ĠæĪĲ": 4602,
      "Ġå±ŀæĢ§": 4603,
      "Ġå¹¶": 4604,
      "Ġä¸īç»´": 4605,
      "ĠæĮī": 4606,
      "Ġæ¨¡åŀĭ": 4607,
      "Ġæł·": 4608,
      "Ġå°ı": 4609,
      "ĠåŃĹæ®µ": 4610,
      "Ġçİ°": 4611,
      "Ġä½įç½®": 4612,
      "Ġåľ¨QGIS": 4613,
      "ĠWGS": 4614,
      "ĠéĿ¢ç§¯": 4615,
      "Ġåį«æĺŁ": 4616,
      "Ġand": 4617,
      "Ġ2000": 4618,
      "ĠåıĺåĮĸ": 4619,
      "Ġå¯¼åĩº": 4620,
      "Ġåį³": 4621,
      "ĠShapefile": 4622,
      "Ġç½ĳç»ľ": 4623,
      "ĠGCS": 4624,
      "Ġåĩłä½ķ": 4625,
      "ĠUTM": 4626,
      "Ġç¼ĵåĨ²åĮº": 4627,
      "Ġåı³éĶ®": 4628,
      "Ġå¸Ĥ": 4629,
      "Ġè¿ŀæİ¥": 4630,
      "Ġåıį": 4631,
      "Ġå¯¼åħ¥": 4632,
      "Ġéģ¥æĦŁå½±åĥı": 4633,
      "Ġæł¹æį®": 4634,
      "ĠGPS": 4635,
      "Ġç©ºéĹ´åĪĨæŀĲ": 4636,
      "Ġå±ķç¤º": 4637,
      "Ġæīĵå¼Ģ": 4638,
      "ĠGeoPackage": 4639,
      "ĠæıĲåıĸ": 4640,
      "ĠåıłåĬł": 4641,
      "ĠåŁºåĩĨéĿ¢": 4642,
      "Ġåľ°éĿ¢": 4643,
      "ĠéĿŀ": 4644,
      "Ġä¸ĭè½½": 4645,
      "ĠåķĨä¸ļ": 4646,
      "ĠæĸĩåŃĹ": 4647,
      "Ġåľ°çĲĨåĿĲæłĩ": 4648,
      "Ġäº¤éĢļ": 4649,
      "ĠæĬķå½±åĿĲæłĩ": 4650,
      "Ġå±ŀæĢ§è¡¨": 4651,
      "ĠåĨħå®¹": 4652,
      "Ġçİ¯å¢ĥ": 4653,
      "Ġä¸Ńå¤®ç»ıçº¿": 4654,
      "ĠåĪĨæŀĲå·¥åħ·": 4655,
      "ĠçĶŁæĪĲ": 4656,
      "ĠçľŁ": 4657,
      "Ġæŀģ": 4658,
      "Ġå¤§æ°Ķ": 4659,
      "ĠGCJ": 4660,
      "Ġå¯¼åĩºä¸º": 4661,
      "Ġç»ĵæŀľ": 4662,
      "Ġæµıè§ĪåĻ¨": 4663,
      "Ġèıľåįķ": 4664,
      "ĠIM": 4665,
      "Ġè¾Ĳå°Ħ": 4666,
      "ĠéľĢæ±Ĥ": 4667,
      "Ġå¯¼èĪª": 4668,
      "ĠåĮĹäº¬": 4669,
      "Ġç½ĳç»ľåĪĨæŀĲ": 4670,
      "Ġæī¹éĩıå¤ĦçĲĨ": 4671,
      "ĠLayers": 4672,
      "Ġ500": 4673,
      "Ġç¡®ä¿Ŀ": 4674,
      "Ġæ¸²æŁĵ": 4675,
      "ĠæĹ¥æľŁ": 4676,
      "Ġè¥¿å®ī": 4677,
      "ĠåĨľä¸ļ": 4678,
      "Ġ50": 4679,
      "ĠéĢ»è¾ĳ": 4680,
      "ĠéĢīä¸Ń": 4681,
      "ĠæİĴåºı": 4682,
      "ĠåŃĹæ®µè®¡ç®ĹåĻ¨": 4683,
      "Ġè¶ĭåĬ¿": 4684,
      "Ġç¼ĵåĨ²åĮºåĪĨæŀĲ": 4685,
      "Ġåħ¬åħ±": 4686,
      "Ġæķ°åŃĹåĮĸ": 4687,
      "Ġæĭĸæĭ½": 4688,
      "Ġå±±ä½ĵéĺ´å½±": 4689,
      "Ġè®¿éĹ®": 4690,
      "ĠçłĶç©¶": 4691,
      "ĠåĽ¾è¡¨": 4692,
      "ĠåĿĲæłĩåĮĹ": 4693,
      "Ġåįĩ": 4694,
      "Ġç©ºéĹ´ç»Łè®¡": 4695,
      "Ġç©ºéĹ´æıĴåĢ¼": 4696,
      "Ġroad": 4697,
      "Ġè°ĥçĶ¨": 4698,
      "ĠåŁİå¸Ĥè§ĦåĪĴ": 4699,
      "Ġå¤§åľ°é«ĺ": 4700,
      "Ġå®Įæķ´æĢ§": 4701,
      "ĠæĶ¾ç½®": 4702,
      "Ġç£ģåĮĹ": 4703,
      "Ġä¸ľåģıç§»": 4704,
      "Ġè®¸åı¯": 4705,
      "ĠåŃĹç¬¦ä¸²": 4706,
      "Ġå®ĮæĪĲåĲİ": 4707,
      "Ġåĳ½åĲį": 4708,
      "Ġçģ¾å®³": 4709,
      "Ġ500000": 4710,
      "Ġæ·±åº¦": 4711,
      "ĠåĶ¯ä¸Ģ": 4712,
      "Ġlanduse": 4713,
      "ĠèĥĮæĻ¯": 4714,
      "ĠZon": 4715,
      "Ġof": 4716,
      "Ġqgis": 4717,
      "Ġä¸ŃçŃī": 4718,
      "Ġåįıä½ľ": 4719,
      "ĠéĿ¢åĲĳ": 4720,
      "ĠæĬķå½±è½¬æį¢": 4721,
      "Ġåľ°åĽ¾æŁ¥çľĭ": 4722,
      "ĠåĪĨæŀĲçĽ®çļĦ": 4723,
      "Ġå¤ĦçĲĨçļĦ": 4724,
      "Ġä¸»æĪĲåĪĨ": 4725,
      "Ġæķ°æį®åºĵè¿ŀæİ¥": 4726,
      "ĠWebæľįåĬ¡": 4727,
      "ĠåŁºäºİè§ĦåĪĻ": 4728,
      "ĠåĮĹåģıç§»": 4729,
      "ĠæłĩåĩĨçº¬çº¿": 4730,
      "Ġæłĩæ³¨åŃĹæ®µ": 4731,
      "ĠTIRS": 4732,
      "Ġçľģ": 4733,
      "Ġåľ°å½¢åĪĨæŀĲ": 4734,
      "ĠåİŁçĤ¹": 4735,
      "Ġä¸ľè¥¿": 4736,
      "Ġè¿Ĳè¡ĮåĲİ": 4737,
      "ĠèĪªç©º": 4738,
      "ĠåįĹåĮĹ": 4739,
      "Ġå¤§æ¯Ķä¾ĭå°ºåľ°å½¢åĽ¾": 4740,
      "Ġæŀ¶æŀĦ": 4741,
      "ĠåħĭéĩĮéĩĳ": 4742,
      "ĠçĽĳçĿ£åĪĨç±»": 4743,
      "ĠæĿ¡ä»¶èµĭåĢ¼": 4744,
      "Ġ79": 4745,
      "ĠKern": 4746,
      "ĠQgis": 4747,
      "ĠUser": 4748,
      "Ġcity": 4749,
      "Ġmac": 4750,
      "Ġslope": 4751,
      "ģæľī": 4752,
      "ģè£ħ": 4753,
      "ģéĵ": 4754,
      "Ĥè´": 4755,
      "ĤçªĹ": 4756,
      "ĤåķĨ": 4757,
      "ĥçī¹": 4758,
      "ĥæ¬¡è¦ģ": 4759,
      "ĥä¸ĩçº§": 4760,
      "Ħç½": 4761,
      "Ħèī²": 4762,
      "Ħæ³¢æ®µ": 4763,
      "ħè¡Į": 4764,
      "ħåĪ°": 4765,
      "ħç¬": 4766,
      "ħä¼ł": 4767,
      "ħåĬ©": 4768,
      "Ĩåı¯": 4769,
      "ĪçĤ¹": 4770,
      "ĪåĢ¼": 4771,
      "Īä¸įåĲĮ": 4772,
      "ĪæĿĥ": 4773,
      "Īåħ·æľī": 4774,
      "īå¤ĦçĲĨ": 4775,
      "īå¯¹": 4776,
      "īæķĪæŀľ": 4777,
      "īçĤ¹çŃī": 4778,
      "Ĭå¤ĦçĲĨ": 4779,
      "ĬåĮº": 4780,
      "Ĭä»į": 4781,
      "Įæı": 4782,
      "ĮèĬ": 4783,
      "įä¼": 4784,
      "įç®¡çĲĨ": 4785,
      "İçļĦ": 4786,
      "İä¹Ī": 4787,
      "İéĻ©": 4788,
      "ıåĴĮ": 4789,
      "ıä¸Ń": 4790,
      "ıå¹": 4791,
      "ıä¸ŃçļĦ": 4792,
      "Ĳåº¦": 4793,
      "ĲåĮĸ": 4794,
      "ĳçĤ¹": 4795,
      "ĳé«ĺ": 4796,
      "ĳè¦ģç´ł": 4797,
      "ĳæ¬¡": 4798,
      "ĳåĴĮåĪĨç±»": 4799,
      "Ĵç©ºéĹ´åıĤèĢĥä¿¡æģ¯": 4800,
      "Ĵå²Ľ": 4801,
      "ĴèĥĮæĻ¯": 4802,
      "ĵçĶ¨": 4803,
      "Ķå¾Ħ": 4804,
      "ĶæĹ¶éĹ´": 4805,
      "ĶåĽ¾æłĩ": 4806,
      "Ķæĸĩæľ¬": 4807,
      "ķä½į": 4808,
      "ķæķĪæŀľ": 4809,
      "ķæķ°åŃĹåĮĸ": 4810,
      "ĸä¸Ģä¸ª": 4811,
      "Ĺæĸ¯": 4812,
      "Ĺå·®å¼Ĥ": 4813,
      "Ĺè®¾æĸ½": 4814,
      "Ĺħä¼ł": 4815,
      "ĺè¦ģ": 4816,
      "ĺæŁ¥": 4817,
      "ĺè´¹": 4818,
      "ĺçļĦåıĺå½¢": 4819,
      "Ļåº¦": 4820,
      "ĻæŃ¢": 4821,
      "ĻèĤ": 4822,
      "ĽéĢī": 4823,
      "ľæµĭç»ĺ": 4824,
      "Ŀåıį": 4825,
      "ĿæľĢå¤§": 4826,
      "ŀäº": 4827,
      "ŀå£": 4828,
      "ŁéĢļ": 4829,
      "ŁçļĦG": 4830,
      "łæŃ£": 4831,
      "Ńä¹": 4832,
      "ŃåĲĪ": 4833,
      "Ńä»£": 4834,
      "Ńç©ºéĹ´åĪĨæŀĲ": 4835,
      "çļĨåı¯": 4836,
      "çļĦR": 4837,
      "çļĦæĸ": 4838,
      "çļĦåĿĲæłĩ": 4839,
      "çļĦåŃ": 4840,
      "çļĦéĿ": 4841,
      "çļĦåĪĨæŀĲ": 4842,
      "çļĦä¸į": 4843,
      "çļĦçº¿": 4844,
      "çļĦæĹ¶": 4845,
      "çļĦåĲĮ": 4846,
      "çļĦä¸ī": 4847,
      "çļĦæĶ¯æĮģ": 4848,
      "çļĦçĲĥ": 4849,
      "çļĦç»ı": 4850,
      "çļĦä¿¡æģ¯": 4851,
      "çļĦçŁ¢éĩı": 4852,
      "çļĦåĲİ": 4853,
      "çļĦç±³": 4854,
      "çļĦæŃ£": 4855,
      "çļĦèĮĥ": 4856,
      "çļĦåĮĹ": 4857,
      "çļĦä¸Ģä¸ª": 4858,
      "çļĦåºĶçĶ¨": 4859,
      "çļĦçī¹": 4860,
      "çļĦç®¡çĲĨ": 4861,
      "çļĦç²¾åº¦": 4862,
      "çļĦç»Ħ": 4863,
      "çļĦå®Į": 4864,
      "çļĦè½¯ä»¶": 4865,
      "çļĦçª": 4866,
      "çļĦWGS": 4867,
      "çļĦæĻ": 4868,
      "çļĦåĮºåŁŁ": 4869,
      "çļĦåį«æĺŁ": 4870,
      "çļĦæĸ¹æ³ķ": 4871,
      "çļĦåīį": 4872,
      "çļĦæĺ¾ç¤º": 4873,
      "çļĦåĩłä½ķ": 4874,
      "çļĦè·Ŀç¦»": 4875,
      "çļĦæľįåĬ¡": 4876,
      "çļĦè½½": 4877,
      "çļĦå¼ĢæºĲ": 4878,
      "çļĦCGCS": 4879,
      "çļĦåľ°çĲĥ": 4880,
      "çļĦæŃ£ç¡®": 4881,
      "çļĦè¾ĵåĩº": 4882,
      "çļĦä¿ĿåŃĺ": 4883,
      "çļĦéģ¥æĦŁå½±åĥı": 4884,
      "çļĦåħ¨çĲĥ": 4885,
      "çļĦè·¯å¾Ħ": 4886,
      "çļĦæĸ¹å¼ı": 4887,
      "çļĦåı¯è§ĨåĮĸ": 4888,
      "çļĦæµ·": 4889,
      "çļĦæĸ°å»º": 4890,
      "çļĦåŁºåĩĨéĿ¢": 4891,
      "çļĦåľĨ": 4892,
      "çļĦåĲ«": 4893,
      "çļĦåĪ¶åĽ¾": 4894,
      "çļĦç½ĳæł¼": 4895,
      "çļĦä¸ĭè½½": 4896,
      "çļĦLandsat": 4897,
      "çļĦå¤©": 4898,
      "çļĦè¦ģç´łç±»": 4899,
      "çļĦåľ°çĲĨæķ°æį®åºĵ": 4900,
      "çļĦç²¾ç¡®": 4901,
      "çļĦåįķä½į": 4902,
      "çļĦPython": 4903,
      "çļĦæī©å±ķ": 4904,
      "çļĦæķ°åĢ¼": 4905,
      "çļĦåľ°åĽ¾æĬķå½±": 4906,
      "çļĦå¤ļåħīè°±": 4907,
      "çļĦåĨħå®¹": 4908,
      "çļĦå½¢çĬ¶": 4909,
      "çļĦç¨ĭåº¦": 4910,
      "çļĦå®ŀæĹ¶": 4911,
      "çļĦåħĥæķ°æį®": 4912,
      "çļĦç¬¦åı·åĮĸ": 4913,
      "çļĦCRS": 4914,
      "çļĦWebåľ°åĽ¾": 4915,
      "çļĦäººåı£": 4916,
      "çļĦç¾İ": 4917,
      "çļĦGNSS": 4918,
      "çļĦWKT": 4919,
      "çļĦå¯¹è±¡": 4920,
      "çļĦåĮĹäº¬": 4921,
      "çļĦçİ°ä»£": 4922,
      "çļĦæŀĦå»º": 4923,
      "çļĦæī¹éĩıå¤ĦçĲĨ": 4924,
      "çļĦåİĨåı²": 4925,
      "çļĦå¿«éĢŁ": 4926,
      "çļĦçŃīè§Ĵ": 4927,
      "çļĦé«ĺæķĪ": 4928,
      "çļĦç§ĳåŃ¦": 4929,
      "çļĦå¼ĢæĶ¾": 4930,
      "çļĦCADæķ°æį®": 4931,
      "çļĦçĶµç£ģæ³¢": 4932,
      "çļĦå¹³æ»ĳ": 4933,
      "çļĦæĭ¼æİ¥": 4934,
      "çļĦéĢļçĶ¨": 4935,
      "çļĦæĸĩæ¡£": 4936,
      "çļĦåıĺæį¢": 4937,
      "çļĦæľĢä¼ĺ": 4938,
      "çļĦçĽ¸å¯¹": 4939,
      "çļĦåºĶçĶ¨åľºæĻ¯": 4940,
      "çļĦåħ³éĶ®": 4941,
      "çļĦçº¬çº¿": 4942,
      "çļĦä¼łç»Ł": 4943,
      "çļĦæĿ¥æºĲ": 4944,
      "çļĦåħīè°±çī¹å¾ģ": 4945,
      "çļĦæīĵåį°": 4946,
      "çļĦé«ĺç¨ĭåŁºåĩĨ": 4947,
      "çļĦå¸¸è§ģéĹ®é¢ĺ": 4948,
      "çļĦåĿĲæłĩåĬłå¯Ĩ": 4949,
      "çļĦå¯¹åľ°è§Ĥæµĭ": 4950,
      "çļĦæİ¥è¿ĳ": 4951,
      "çļĦè½¬æį¢åıĤæķ°": 4952,
      "çļĦåĬ¨çĶ»": 4953,
      "çļĦWebå¢¨åį¡æīĺæĬķå½±": 4954,
      "çļĦåĪĨç±»æĸ¹æ³ķ": 4955,
      "çļĦåİŁçĲĨ": 4956,
      "çļĦå¤§åľ°é«ĺ": 4957,
      "çļĦä¸¤ç§į": 4958,
      "çļĦçŁ¢éĩıæķ°æį®æ¨¡åŀĭ": 4959,
      "çļĦæµıè§ĪåĻ¨éĿ¢æĿ¿ä¸Ń": 4960,
      "çļĦåĽ½å®¶å¤§åľ°åĿĲæłĩç³»": 4961,
      "çļĦçĭ¬çī¹": 4962,
      "çļĦèĥĮæĻ¯": 4963,
      "çļĦæľīæķĪ": 4964,
      "çļĦä½ľçĶ¨": 4965,
      "çļĦéģ¥æĦŁåĪĨæŀĲ": 4966,
      "çļĦå®ŀä½ĵ": 4967,
      "çļĦå¯ĨéĽĨ": 4968,
      "çļĦå·¥ä½ľæµģ": 4969,
      "çļĦåĪĨè¾¨çİĩåĴĮ": 4970,
      "çļĦçĶ¨æĪ·åı¯ä»¥": 4971,
      "çļĦåİŁçĤ¹": 4972,
      "çļĦGISè½¯ä»¶ä½ĵç³»": 4973,
      "çļĦåĪĨå¸ĥå¼ı": 4974,
      "çļĦæİ¨åĩº": 4975,
      "çļĦGISæķ°æį®æĹ¶": 4976,
      "çļĦæŁ¥è¯¢æĢ§èĥ½": 4977,
      "çļĦæıĴåĢ¼æĸ¹æ³ķ": 4978,
      "çļĦåľ¨çº¿åºķåĽ¾": 4979,
      "çļĦé«ĺçº§çī¹æĢ§": 4980,
      "çļĦæľĢå¤§ä¼ĺåĬ¿": 4981,
      "çļĦä¾Ŀèµĸ": 4982,
      "çļĦDouglas": 4983,
      "çļĦè®Ńç»ĥæł·æľ¬": 4984,
      "çļĦèĻļåģĩ": 4985,
      "çļĦçĳ": 4986,
      "ï¼Į.": 4987,
      "åıªæİ¥": 4988,
      "åıĪåħ·æľī": 4989,
      "åıīçĤ¹çŃī": 4990,
      "æłıä¸ŃçļĦ": 4991,
      "æłĳé«ĺ": 4992,
      "ãĢģ$": 4993,
      "åĪĢ": 4994,
      "ï¼ī-": 4995,
      "ï¼īï¼ļ": 4996,
      "æķĻèĤ": 4997,
      "åħ´è¶": 4998,
      "æķ°åĴĮ": 4999,
      "æķ°ä¸ª": 5000,
      "æķ°ç±³": 5001,
      "æķ°ç»Ħ": 5002,
      "æķ°èĢĮ": 5003,
      "ä½³çļĦéĢīæĭ©": 5004,
      "ä½ıä¸Ń": 5005,
      "çĶ¨åĴĮ": 5006,
      "çĶ¨ä¸Ģ": 5007,
      "çĶ¨çº¿": 5008,
      "çĶ¨å¤ļ": 5009,
      "çĶ¨æ³ķ": 5010,
      "çĶ¨éľĢè¦ģ": 5011,
      "çĶ¨åĬŁèĥ½": 5012,
      "çĶ¨éĢĤåĲĪ": 5013,
      "çĶ¨å®ļä¹ī": 5014,
      "çĶ¨éĩįæĬķå½±": 5015,
      "çĶ¨è¾¹çķĮ": 5016,
      "çĶ¨åĥıç´ł": 5017,
      "çĶ¨è®¾æĸ½": 5018,
      "çĶ¨ç¼ĵåĨ²åĮºåĪĨæŀĲ": 5019,
      "çĶ¨æĬķå½±åĿĲæłĩç³»": 5020,
      "çĶ¨è¾ĥé«ĺ": 5021,
      "çĶ¨çº¢èī²": 5022,
      "çĶ¨éļıæľº": 5023,
      "å¤«æĸ¯": 5024,
      "ç»ĪçĤ¹": 5025,
      "ä»¬ç»Łä¸Ģ": 5026,
      "ä»Ĭä»į": 5027,
      "ä»ĺè´¹": 5028,
      "ISO": 5029,
      "ISOD": 5030,
      "ISçĥŃçº¢å¤ĸæ³¢æ®µ": 5031,
      "GISä¸Ń": 5032,
      "GISåĪĨæŀĲ": 5033,
      "GISç³»ç»Ł": 5034,
      "GISæł¼å¼ı": 5035,
      "GISå°Ĩ": 5036,
      "GISå±ŀæĢ§": 5037,
      "GISåĲİ": 5038,
      "GISåĿĲæłĩç³»": 5039,
      "GISæŃ£": 5040,
      "GISåºĶçĶ¨": 5041,
      "GISå·¥ä½ľ": 5042,
      "GISæĬĢæľ¯": 5043,
      "GISçļĦæķ°æį®": 5044,
      "GISä¼ļ": 5045,
      "GISåľºæĻ¯": 5046,
      "GISèĥ½åĬĽ": 5047,
      "GISåľ¨ä¸įåĲĮ": 5048,
      "GISåħĥæķ°æį®": 5049,
      "GISå¦Ĥä½ķ": 5050,
      "GISä¾§": 5051,
      "GISå·¥ä½ľæµģç¨ĭ": 5052,
      "GISåĿĲæłĩç³»ç»ŁéĢīæĭ©": 5053,
      "äºĪä¸įåĲĮ": 5054,
      "äºķä½į": 5055,
      "åľ°ç±": 5056,
      "åľ°å¤ĦçĲĨ": 5057,
      "åľ°å¿ĥ": 5058,
      "åľ°ä¼ļ": 5059,
      "åľ°åľ°åĮº": 5060,
      "åºľæµĭç»ĺ": 5061,
      "æķ°æį®æłĩ": 5062,
      "æķ°æį®çŃī": 5063,
      "æķ°æį®ä»¥": 5064,
      "æķ°æį®éĢļè¿ĩ": 5065,
      "æķ°æį®èĩª": 5066,
      "æķ°æį®ç±»åŀĭ": 5067,
      "æķ°æį®ç²¾åº¦": 5068,
      "æķ°æį®å·²": 5069,
      "æķ°æį®æ¡Ĩ": 5070,
      "æķ°æį®å±ķç¤º": 5071,
      "æķ°æį®è¦ĨçĽĸ": 5072,
      "æķ°æį®çī¹å¾ģ": 5073,
      "æķ°æį®ç»ĺåĪ¶": 5074,
      "æķ°æį®åı¯éĢļè¿ĩ": 5075,
      "æķ°æį®å¯¼åĩºä¸º": 5076,
      "æķ°æį®åĿĩ": 5077,
      "æķ°æį®ä½¿çĶ¨çļĦ": 5078,
      "æķ°æį®åŃĺåĤ¨åĴĮ": 5079,
      "æķ°æį®æľĢå¸¸çĶ¨çļĦ": 5080,
      "æķ°æį®åĴĮåĪĨæŀĲ": 5081,
      "æķ°æį®æĿ¥æºĲ": 5082,
      "æķ°æį®ä¸ºGIS": 5083,
      "æķ°æį®ç¡®å®ļ": 5084,
      "æķ°æį®å®īåħ¨": 5085,
      "æķ°æį®è½¬ä¸º": 5086,
      "æķ°æį®éĢļå¸¸ä»¥": 5087,
      "æķ°æį®æ¸ħ": 5088,
      "æķ°æį®åģļ": 5089,
      "æķ°æį®è¿ŀæİ¥åĪ°": 5090,
      "æķ°æį®åıįæĺł": 5091,
      "æķ°æį®åİĭç¼©æĬĢæľ¯": 5092,
      "æķ°æį®åħ³èģĶåĪ°": 5093,
      "å½»åºķ": 5094,
      "åĽ¾åľ¨": 5095,
      "åĽ¾çŃī": 5096,
      "åĽ¾éĽĨ": 5097,
      "åĽ¾ä¸ĢèĪ¬": 5098,
      "åĽ¾çº¸": 5099,
      "åĽ¾æ¡ĪåĴĮ": 5100,
      "æľĪ": 5101,
      "æľ«ç«¯": 5102,
      "éĢģ": 5103,
      "éĢĴç©ºéĹ´åıĤèĢĥä¿¡æģ¯": 5104,
      "åĮ»çĸ": 5105,
      "å¼ĥæ¬¡è¦ģ": 5106,
      "æłĩæ»ļ": 5107,
      "åĴĮå±": 5108,
      "åĴĮåŁ": 5109,
      "åĴĮéĿ¢": 5110,
      "åĴĮç©º": 5111,
      "åĴĮåĽ¾å±Ĥ": 5112,
      "åĴĮQGIS": 5113,
      "åĴĮæł¼å¼ı": 5114,
      "åĴĮArcGIS": 5115,
      "åĴĮéĢīæĭ©": 5116,
      "åĴĮå±ŀæĢ§": 5117,
      "åĴĮåİ": 5118,
      "åĴĮåĿĲæłĩç³»ç»Ł": 5119,
      "åĴĮæ·»åĬł": 5120,
      "åĴĮåıĤæķ°": 5121,
      "åĴĮæłĩæ³¨": 5122,
      "åĴĮåĬŁèĥ½": 5123,
      "åĴĮé¡¹çĽ®": 5124,
      "åĴĮåĪĨè¾¨çİĩ": 5125,
      "åĴĮæĺ¾ç¤º": 5126,
      "åĴĮæĹł": 5127,
      "åĴĮçĶ¨æĪ·": 5128,
      "åĴĮåľ°å½¢": 5129,
      "åĴĮé«ĺç¨ĭ": 5130,
      "åĴĮçĥŃ": 5131,
      "åĴĮæµĭéĩı": 5132,
      "åĴĮå¸ĥå±Ģ": 5133,
      "åĴĮå¯¼åħ¥": 5134,
      "åĴĮåŁİå¸Ĥ": 5135,
      "åĴĮæī¹éĩı": 5136,
      "åĴĮæī§è¡Į": 5137,
      "åĴĮéģ¥æĦŁå½±åĥı": 5138,
      "åĴĮåħ¨çĲĥ": 5139,
      "åĴĮèĩªåĬ¨": 5140,
      "åĴĮç©ºéĹ´åĪĨæŀĲ": 5141,
      "åĴĮå®īè£ħ": 5142,
      "åĴĮåı¯è§ĨåĮĸ": 5143,
      "åĴĮåŁºåĩĨéĿ¢": 5144,
      "åĴĮæ¨¡å¼ı": 5145,
      "åĴĮåĪ¶åĽ¾": 5146,
      "åĴĮä¸ĭè½½": 5147,
      "åĴĮLandsat": 5148,
      "åĴĮå¤©": 5149,
      "åĴĮè¦ĨçĽĸ": 5150,
      "åĴĮè¦ģç´łç±»": 5151,
      "åĴĮç²¾ç¡®": 5152,
      "åĴĮåħ¶ä»ĸ": 5153,
      "åĴĮçī¹å¾ģ": 5154,
      "åĴĮæ¤įè¢«": 5155,
      "åĴĮçĥŃçº¢å¤ĸ": 5156,
      "åĴĮèģĶ": 5157,
      "åĴĮæĿ¡ä»¶": 5158,
      "åĴĮå¹ħ": 5159,
      "åĴĮæĬķå½±åĿĲæłĩ": 5160,
      "åĴĮå¤ļåħīè°±": 5161,
      "åĴĮæĿĥ": 5162,
      "åĴĮçĶŁæĢģ": 5163,
      "åĴĮé«ĺåº¦": 5164,
      "åĴĮç©ºéĹ´ç´¢å¼ķ": 5165,
      "åĴĮå®ŀæĹ¶": 5166,
      "åĴĮåħĥæķ°æį®": 5167,
      "åĴĮåľŁåľ°": 5168,
      "åĴĮGF": 5169,
      "åĴĮåĩ½æķ°": 5170,
      "åĴĮé«ĺç²¾åº¦": 5171,
      "åĴĮå¤§æ°Ķ": 5172,
      "åĴĮå¤ļç§į": 5173,
      "åĴĮå®ļä½į": 5174,
      "åĴĮæĽ¿ä»£": 5175,
      "åĴĮéĢı": 5176,
      "åĴĮGeoTIFF": 5177,
      "åĴĮåĽ¾å½¢å»ºæ¨¡åĻ¨": 5178,
      "åĴĮä¸°å¯ĮçļĦ": 5179,
      "åĴĮçĶ¨éĢĶ": 5180,
      "åĴĮç©ºéĹ´åħ³ç³»": 5181,
      "åĴĮQGISä¸Ń": 5182,
      "åĴĮåĮºåĪĨ": 5183,
      "åĴĮå±ŀæĢ§ä¿¡æģ¯": 5184,
      "åĴĮçªģ": 5185,
      "åĴĮè¯¦ç»Ĩ": 5186,
      "åĴĮéģĵè·¯": 5187,
      "åĴĮè¥¿å®ī": 5188,
      "åĴĮå¹³æ»ĳ": 5189,
      "åĴĮç»Łä¸Ģ": 5190,
      "åĴĮæİĴåºı": 5191,
      "åĴĮåºĶçĶ¨åľºæĻ¯": 5192,
      "åĴĮåĨħç½®å·¥åħ·": 5193,
      "åĴĮåħ¨å¤©åĢĻ": 5194,
      "åĴĮæ²¡æľī": 5195,
      "åĴĮåĽ¢éĺŁ": 5196,
      "åĴĮä¼Ĺ": 5197,
      "åĴĮç©ºåĢ¼": 5198,
      "åĴĮçº¿æ®µ": 5199,
      "åĴĮArcGISçļĦ": 5200,
      "åĴĮæľĢæĸ°": 5201,
      "åĴĮWebå¢¨åį¡æīĺæĬķå½±": 5202,
      "åĴĮæ¬§": 5203,
      "åĴĮçģ«": 5204,
      "åĴĮäººå·¥": 5205,
      "åĴĮåŃĲéĽĨ": 5206,
      "åĴĮèµĦæºĲè°ĥæŁ¥": 5207,
      "åĴĮè®¸å¤ļ": 5208,
      "åĴĮç«ĭä½ĵ": 5209,
      "åĴĮåĵįåºĶ": 5210,
      "åĴĮåĲ¸æĶ¶": 5211,
      "åĴĮçŃīè·ĿæĬķå½±": 5212,
      "åĴĮéĩĳåŃĹå¡Ķ": 5213,
      "åĴĮBIM": 5214,
      "åĴĮEC": 5215,
      "åĴĮæł¼ç½ĳ": 5216,
      "åĴĮéĩįéĩĩæł·": 5217,
      "åĴĮGeometry": 5218,
      "åĴĮæıĲé«ĺ": 5219,
      "åĴĮæķ°æį®åºĵè¿ŀæİ¥": 5220,
      "åĴĮåıĸèĪį": 5221,
      "åĴĮçķ¸åıĺ": 5222,
      "åĴĮæĵįä½ľç³»ç»Ł": 5223,
      "åĴĮTIRS": 5224,
      "åĴĮè·Ŀç¦»æµĭéĩı": 5225,
      "åĴĮæ¯ıå¸¦": 5226,
      "åĴĮéļıæľº": 5227,
      "åĴĮæķ°åŃ¦åĩ½æķ°": 5228,
      "åĴĮWebåľ°åĽ¾åºĵ": 5229,
      "åĴĮæĥ¯": 5230,
      "åĴĮåħ¬åħ±äº¤éĢļè§ĦåĪĴ": 5231,
      "åĴĮä¸»åĬ¨ä¼łæĦŁåĻ¨": 5232,
      "åĴĮèħ¾è®¯": 5233,
      "åĴĮæłĩçŃ¾": 5234,
      "åĴĮåĢ¾æĸľæĳĦå½±": 5235,
      "åĴĮåħĭéĩĮéĩĳ": 5236,
      "åĴĮgdalwarp": 5237,
      "åĴĮå¤ĩä»½æģ¢å¤į": 5238,
      "åĴĮDT": 5239,
      "åĴĮMåĢ¼": 5240,
      "åĴĮNND": 5241,
      "è¿ĶæĹ¶éĹ´": 5242,
      "è¿Ŀåıį": 5243,
      "è¿Ńä»£": 5244,
      "æĺĵçĶ¨": 5245,
      "åĪĨå±Ĥ": 5246,
      "åĪĨåĮº": 5247,
      "åĪĨæĶ¯": 5248,
      "åĪĨè£": 5249,
      "åĪĨè§£": 5250,
      "åĪĨå¸¦": 5251,
      "åĪĨéļ": 5252,
      "åĪĨç®Ĺæ³ķ": 5253,
      "ä¸Ńä½¿çĶ¨": 5254,
      "ä¸ŃæĮ": 5255,
      "ä¸Ńä¸İ": 5256,
      "ä¸ŃéĢīæĭ©": 5257,
      "ä¸Ńå°Ĩ": 5258,
      "ä¸Ńè®¡ç®Ĺ": 5259,
      "ä¸Ńè®¾ç½®": 5260,
      "ä¸Ńç¼ĸè¾ĳ": 5261,
      "ä¸Ńç®¡çĲĨ": 5262,
      "ä¸ŃæĮĩ": 5263,
      "ä¸Ńå¿ĥ": 5264,
      "ä¸ŃçĽ´æİ¥": 5265,
      "ä¸ŃæŃ£ç¡®": 5266,
      "ä¸Ńä¿ĿåŃĺ": 5267,
      "ä¸Ńç¨ĭåº¦": 5268,
      "ä¸ŃæķĪæŀľ": 5269,
      "ä¸Ńäº¤äºĴå¼ı": 5270,
      "ä¸ŃæľĢå¸¸çĶ¨çļĦ": 5271,
      "ä¸Ńç¡®è®¤": 5272,
      "ä¸ŃéľĢè¦ģè¿Ľè¡Į": 5273,
      "ä¸Ńè°ĥçĶ¨": 5274,
      "ä¸Ńæľīå¹¿æ³ĽåºĶçĶ¨": 5275,
      "ä¸Ńæ³¨åĨĮ": 5276,
      "ä¸ŃåĳĪ": 5277,
      "ä¸Ńåħ·æľīçĭ¬çī¹": 5278,
      "ä¸ŃåµĮåħ¥": 5279,
      "ä¸Ńpub": 5280,
      "åľ¨é«ĺ": 5281,
      "åľ¨åľ°åĽ¾": 5282,
      "åľ¨éľĢè¦ģ": 5283,
      "åľ¨æľ¬": 5284,
      "åľ¨å±ŀæĢ§": 5285,
      "åľ¨è¿Ľè¡Į": 5286,
      "åľ¨æķ°æį®åºĵ": 5287,
      "åľ¨æ·»åĬł": 5288,
      "åľ¨æ¨¡åŀĭ": 5289,
      "åľ¨ç¼ĸè¾ĳ": 5290,
      "åľ¨æłĩåĩĨ": 5291,
      "åľ¨éĿ¢ç§¯": 5292,
      "åľ¨é¡¹çĽ®": 5293,
      "åľ¨åīį": 5294,
      "åľ¨åı³": 5295,
      "åľ¨å¯¼åĩº": 5296,
      "åľ¨äºĳ": 5297,
      "åľ¨å¤ļä¸ª": 5298,
      "åľ¨æĻ¯": 5299,
      "åľ¨CAD": 5300,
      "åľ¨åľ°å½¢": 5301,
      "åľ¨å¸ĥå±Ģ": 5302,
      "åľ¨å¯¼åħ¥": 5303,
      "åľ¨æī¹éĩı": 5304,
      "åľ¨æłħæł¼æķ°æį®": 5305,
      "åľ¨è¿ŀç»Ń": 5306,
      "åľ¨TIFF": 5307,
      "åľ¨æ¯ıä¸ª": 5308,
      "åľ¨ä¸ľ": 5309,
      "åľ¨å¤įæĿĤ": 5310,
      "åľ¨å»ºæ¨¡åĻ¨": 5311,
      "åľ¨å·²æľī": 5312,
      "åľ¨æµıè§ĪåĻ¨": 5313,
      "åľ¨GDAL": 5314,
      "åľ¨è¿ĻäºĽ": 5315,
      "åľ¨å¤ª": 5316,
      "åľ¨é«ĺåĪĨè¾¨çİĩ": 5317,
      "åľ¨ç¼º": 5318,
      "åľ¨èĮĥåĽ´åĨħ": 5319,
      "åľ¨éķ¿æľŁ": 5320,
      "åľ¨ä¸ĢèĪ¬": 5321,
      "åľ¨å·¥ç¨ĭ": 5322,
      "åľ¨è®¾è®¡": 5323,
      "åľ¨åĲİçļĦ": 5324,
      "åľ¨ä¼łç»Ł": 5325,
      "åľ¨æĹ¥å¸¸": 5326,
      "åľ¨æ¨ªè½´å¢¨åį¡æīĺæĬķå½±": 5327,
      "åľ¨æķ°æį®å¯¼åħ¥": 5328,
      "åľ¨æķ°æį®éĩĩéĽĨ": 5329,
      "åľ¨åľ°åĽ¾çĶ»å¸ĥ": 5330,
      "åľ¨Webåıĳå¸ĥ": 5331,
      "åľ¨æµıè§ĪåĻ¨éĿ¢æĿ¿ä¸Ń": 5332,
      "åľ¨æķ°æį®åıłåĬł": 5333,
      "åľ¨çŁ¿äº§": 5334,
      "åľ¨å¹³åĿ¦": 5335,
      "åľ¨SARå½±åĥı": 5336,
      "åľ¨è¿ģç§»åĪ°": 5337,
      "åľ¨åı¦ä¸Ģä¸ª": 5338,
      "åľ¨æŁĲä¸ª": 5339,
      "åľ¨æķ°åįģä¸ĩ": 5340,
      "åľ¨åľŁåľ°åĪ©çĶ¨åıĺåĮĸ": 5341,
      "åľ¨å¼¹åĩº": 5342,
      "åľ¨äºĳè®¡ç®Ĺå¹³åı°": 5343,
      "åľ¨éĢĲæŃ¥åĲĳ": 5344,
      "åľ¨é¡µéĿ¢ä¸Ĭ": 5345,
      "æĸĹ": 5346,
      "æĸĻ": 5347,
      "å®£å¸ĥ": 5348,
      "åĬ£": 5349,
      "åĬŀ": 5350,
      "å¸®åĬ©": 5351,
      "çĲĨéĩı": 5352,
      "çĲĨå¿µ": 5353,
      "è¦ģéĢļè¿ĩ": 5354,
      "è¦ģæ³¨æĦı": 5355,
      "è¦ģå¼¯": 5356,
      "å·¦ä¾§": 5357,
      "å·±çļĦ": 5358,
      "æĭĶ": 5359,
      "æĭ¥æľī": 5360,
      "çºª": 5361,
      "çºµåĿĲæłĩ": 5362,
      "çºłæŃ£": 5363,
      "éĹŃåĲĪ": 5364,
      "åı¯ä½¿çĶ¨": 5365,
      "åı¯å¤ļ": 5366,
      "åı¯éĢīæĭ©": 5367,
      "åı¯æ·»åĬł": 5368,
      "åı¯åı³éĶ®": 5369,
      "åı¯äºĴ": 5370,
      "åı¯èĥ½åĬĽ": 5371,
      "åı¯éħįç½®": 5372,
      "åı¯èİ·åıĸ": 5373,
      "åı¯æĮĩå®ļ": 5374,
      "åı¯åĮħåĲ«": 5375,
      "åı¯ä¿®æĶ¹": 5376,
      "åı¯æ£Ģæµĭ": 5377,
      "åı¯åĮºåĪĨ": 5378,
      "åı¯å¤§å¹ħ": 5379,
      "åı¯ç»´æĬ¤": 5380,
      "åı¯ä½¿çĶ¨å¤ĦçĲĨå·¥åħ·ç®±çļĦ": 5381,
      "åı¯ç©¿éĢı": 5382,
      "åı¯å¯¹çī¹å®ļ": 5383,
      "åı¯ä¸İåĽ¢éĺŁ": 5384,
      "åı¯åĥıåĨħç½®å·¥åħ·ä¸Ģæł·": 5385,
      "åı¯åŃĺåĤ¨çŁ¢éĩıåĴĮæłħæł¼æķ°æį®": 5386,
      "åı¯éĢĤå½ĵ": 5387,
      "åı¯èİ·å¾Ĺ": 5388,
      "åı¯éĢĲä¸ª": 5389,
      "æł¼éĻ": 5390,
      "æł¼æĪĲ": 5391,
      "æł¼åĨħå®¹": 5392,
      "æł¼æŀĹ": 5393,
      "æĪ³åĴĮ": 5394,
      "åº¦çļĦ": 5395,
      "åº¦æĪĸ": 5396,
      "åº¦ä¹ĭéĹ´": 5397,
      "åº¦ç»ıçº¿": 5398,
      "åº¦åľ¨ä¸įåĲĮ": 5399,
      "åº¦çº¬çº¿": 5400,
      "åº¦ç»ĵåĲĪ": 5401,
      "åº¦ç¡®å®ļ": 5402,
      "åº¦ä¾Ŀæ¬¡ç¼ĸåı·": 5403,
      "åº¦Wå¼Ģå§ĭ": 5404,
      "è¾ħåĬ©": 5405,
      "å°¤ä¸º": 5406,
      "å°ģè£ħ": 5407,
      "æĺ¯ä¸İ": 5408,
      "æĺ¯åľ°çĲĨ": 5409,
      "æĺ¯éĢļè¿ĩ": 5410,
      "æĺ¯éĢīæĭ©": 5411,
      "æĺ¯è¿Ľè¡Į": 5412,
      "æĺ¯çĶ¨äºİ": 5413,
      "æĺ¯åĿĲæłĩç³»ç»Ł": 5414,
      "æĺ¯åĪĽå»º": 5415,
      "æĺ¯éĢļå¸¸": 5416,
      "æĺ¯DEM": 5417,
      "æĺ¯åľ°çĲĥ": 5418,
      "æĺ¯PostGIS": 5419,
      "æĺ¯åĪ©çĶ¨": 5420,
      "æĺ¯æī§è¡Į": 5421,
      "æĺ¯éģ¥æĦŁå½±åĥı": 5422,
      "æĺ¯åħ¨çĲĥ": 5423,
      "æĺ¯GISæķ°æį®": 5424,
      "æĺ¯åħĪ": 5425,
      "æĺ¯Landsat": 5426,
      "æĺ¯å®ŀçİ°": 5427,
      "æĺ¯åıĳå¸ĥ": 5428,
      "æĺ¯é»ĺè®¤": 5429,
      "æĺ¯OGC": 5430,
      "æĺ¯åľ°åĽ¾ä¸Ĭ": 5431,
      "æĺ¯ç©ºéĹ´æķ°æį®åºĵ": 5432,
      "æĺ¯ç»ıåº¦": 5433,
      "æĺ¯å¼ĢæºĲGIS": 5434,
      "æĺ¯æııè¿°": 5435,
      "æĺ¯KML": 5436,
      "æĺ¯PostgreSQL": 5437,
      "æĺ¯ä¿ĿæĮģ": 5438,
      "æĺ¯æİ¨èįĲ": 5439,
      "æĺ¯ç©ºéĹ´åıĤèĢĥ": 5440,
      "æĺ¯ç½ĳç»ľåĪĨæŀĲ": 5441,
      "æĺ¯LAS": 5442,
      "æĺ¯é«ĺåĪĨè¾¨çİĩ": 5443,
      "æĺ¯QGISä¸Ń": 5444,
      "æĺ¯è¡Įä¸ļ": 5445,
      "æĺ¯çŁ¢éĩıæķ°æį®çļĦ": 5446,
      "æĺ¯åŃ¦ä¹ł": 5447,
      "æĺ¯æĹ¥å¸¸": 5448,
      "æĺ¯Nodata": 5449,
      "æĺ¯çłĶç©¶": 5450,
      "æĺ¯æķ°æį®äº¤æį¢": 5451,
      "æĺ¯UTMæĬķå½±": 5452,
      "æĺ¯å¤§åľ°é«ĺ": 5453,
      "æĺ¯ä¸¤ç§į": 5454,
      "æĺ¯éĩįæĬķå½±åĽ¾å±Ĥ": 5455,
      "æĺ¯ä¸ĵéĹ¨": 5456,
      "æĺ¯æĲŃè½½": 5457,
      "æĺ¯OGCæłĩåĩĨ": 5458,
      "æĺ¯åľ°çĲĨç©ºéĹ´æķ°æį®æł¼å¼ı": 5459,
      "æĺ¯åĶ¯ä¸Ģ": 5460,
      "æĺ¯Cæ³¢æ®µ": 5461,
      "æĺ¯çĶ¨çĤ¹": 5462,
      "æĺ¯åľ¨çĤ¹": 5463,
      "æĺ¯ä½¿çĶ¨QGIS": 5464,
      "æĺ¯æĮģç»Ń": 5465,
      "æĺ¯ç»ıåħ¸çļĦ": 5466,
      "æĺ¯åħīåŃ¦": 5467,
      "æĺ¯åħ³äºİ": 5468,
      "æĺ¯å¸¸è§ģçļĦæķ°æį®": 5469,
      "æĺ¯å½ĵåľ°": 5470,
      "æĺ¯å®ŀéĻħå·¥ä½ľä¸Ń": 5471,
      "æĺ¯GBK": 5472,
      "æĺ¯æ¬§æ´²": 5473,
      "æĺ¯ä¸įåĿĩåĮĢçļĦ": 5474,
      "æĺ¯çĶ¨ä¸Ģ": 5475,
      "æĺ¯åľ¨æłĩåĩĨ": 5476,
      "åĿĲæłĩçĤ¹": 5477,
      "åĿĲæłĩä¸º": 5478,
      "åĿĲæłĩèĥ½": 5479,
      "åĿĲæłĩè¿Ľè¡Į": 5480,
      "åĿĲæłĩèĮĥåĽ´": 5481,
      "åĿĲæłĩè¡¨ç¤º": 5482,
      "åĿĲæłĩåį³": 5483,
      "åĿĲæłĩä¹ĭéĹ´": 5484,
      "åĿĲæłĩåıį": 5485,
      "åĿĲæłĩå·®å¼Ĥ": 5486,
      "åĿĲæłĩä¸ĬçļĦ": 5487,
      "åĿĲæłĩç½ĳæł¼": 5488,
      "åĿĲæłĩåįķä½į": 5489,
      "åĿĲæłĩè½¬æį¢ä¸º": 5490,
      "åĿĲæłĩåı¯èĥ½": 5491,
      "åĿĲæłĩåĩºçİ°": 5492,
      "åĿĲæłĩä¸İWGS": 5493,
      "åĿĲæłĩç¼©æĶ¾åĴĮ": 5494,
      "åĿĲæłĩåľ¨æķ°åįģä¸ĩ": 5495,
      "åŃĶå¾Ħ": 5496,
      "åį«çĶŁ": 5497,
      "åį±éĻ©": 5498,
      "åį·ç§¯": 5499,
      "åįĥä¸ĩçº§": 5500,
      "éĿĴå²Ľ": 5501,
      "éĿĻæŃ¢": 5502,
      "ç³Ĭ": 5503,
      "ç³Ļåº¦": 5504,
      "ä½¿æĸĩåŃĹ": 5505,
      "ä½¿åįĥä¸ĩçº§": 5506,
      "æĬ½æ£Ģ": 5507,
      "è§¦çī©ä½ĵ": 5508,
      "è§īæķĪæŀľ": 5509,
      "ç³»æķ°": 5510,
      "ç³»ä¿¡æģ¯": 5511,
      "ä½¿çĶ¨åĮĸ": 5512,
      "ä½¿çĶ¨æĹ¶": 5513,
      "ä½¿çĶ¨éľĢè¦ģ": 5514,
      "ä½¿çĶ¨åĪĽå»º": 5515,
      "ä½¿çĶ¨ä¸Ģä¸ª": 5516,
      "ä½¿çĶ¨ä¹ĭ": 5517,
      "ä½¿çĶ¨æĭĵæīĳ": 5518,
      "ä½¿çĶ¨åį«æĺŁ": 5519,
      "ä½¿çĶ¨åīį": 5520,
      "ä½¿çĶ¨SQL": 5521,
      "ä½¿çĶ¨å¯¼åĩº": 5522,
      "ä½¿çĶ¨EPSG": 5523,
      "ä½¿çĶ¨å¼ĢæºĲ": 5524,
      "ä½¿çĶ¨CGCS": 5525,
      "ä½¿çĶ¨GeoPackage": 5526,
      "ä½¿çĶ¨åľ°éĿ¢": 5527,
      "ä½¿çĶ¨SS": 5528,
      "ä½¿çĶ¨QGISçļĦ": 5529,
      "ä½¿çĶ¨æŃ¤": 5530,
      "ä½¿çĶ¨ç»ıçº¬åº¦": 5531,
      "ä½¿çĶ¨åħ¶ä»ĸ": 5532,
      "ä½¿çĶ¨æĿ¡ä»¶": 5533,
      "ä½¿çĶ¨arcpy": 5534,
      "ä½¿çĶ¨Esri": 5535,
      "ä½¿çĶ¨é«ĺçº§": 5536,
      "ä½¿çĶ¨å¤§æ¯Ķä¾ĭå°º": 5537,
      "ä½¿çĶ¨è¡¨è¾¾å¼ı": 5538,
      "ä½¿çĶ¨æłħæł¼è®¡ç®ĹåĻ¨": 5539,
      "ä½¿çĶ¨ä¸įåĲĮçļĦ": 5540,
      "ä½¿çĶ¨GCJ": 5541,
      "ä½¿çĶ¨è§Ĵåº¦": 5542,
      "ä½¿çĶ¨çĻ¾åº¦": 5543,
      "ä½¿çĶ¨åĽ¾å½¢å»ºæ¨¡åĻ¨": 5544,
      "ä½¿çĶ¨Spatial": 5545,
      "ä½¿çĶ¨éķ¿æľŁ": 5546,
      "ä½¿çĶ¨å¼ºå¤§": 5547,
      "ä½¿çĶ¨Feature": 5548,
      "ä½¿çĶ¨Webå¢¨åį¡æīĺ": 5549,
      "ä½¿çĶ¨åŃĹæ®µè®¡ç®ĹåĻ¨": 5550,
      "ä½¿çĶ¨åľ¨çº¿åľ°åĽ¾": 5551,
      "ä½¿çĶ¨æ¨ªè½´å¢¨åį¡æīĺæĬķå½±": 5552,
      "ä½¿çĶ¨åĿĲæłĩåĮĹ": 5553,
      "ä½¿çĶ¨çº¿æĢ§": 5554,
      "ä½¿çĶ¨ç¤ºä¾ĭ": 5555,
      "ä½¿çĶ¨æĬĢå·§": 5556,
      "ä½¿çĶ¨æĹłæįŁåİĭç¼©": 5557,
      "ä½¿çĶ¨çŃīè·ĿæĬķå½±": 5558,
      "ä½¿çĶ¨CASE": 5559,
      "ä½¿çĶ¨Ro": 5560,
      "ä½¿çĶ¨å½ĵåľ°": 5561,
      "ä½¿çĶ¨ç®Ģä»ĭ": 5562,
      "ä½¿çĶ¨GeoJSONæĪĸ": 5563,
      "ä½¿çĶ¨ç²¾ç¡®çļĦ": 5564,
      "ä½¿çĶ¨çŃīè§ĴæĬķå½±": 5565,
      "ä½¿çĶ¨GiSTç´¢å¼ķ": 5566,
      "ä½¿çĶ¨å®¢æĪ·ç«¯": 5567,
      "ä½¿çĶ¨CADèĩ³åľ°çĲĨæķ°æį®åºĵå·¥åħ·": 5568,
      "ä½¿çĶ¨åħ¨çĲĥå¯¼èĪªåį«æĺŁç³»ç»Ł": 5569,
      "ä½¿çĶ¨dBASE": 5570,
      "ä½¿çĶ¨æķ°ä¸ª": 5571,
      "ï¼ļ.": 5572,
      "ï¼ļï¼Ī": 5573,
      "æī°": 5574,
      "éĿ¢çº¿": 5575,
      "éĿ¢ä¸İ": 5576,
      "éĿ¢æ³ķ": 5577,
      "éĿ¢åŁŁ": 5578,
      "éĿ¢æŃ£": 5579,
      "éĿ¢è¡¨ç¤º": 5580,
      "éĿ¢æĿ¥": 5581,
      "éĿ¢ä¹ĭéĹ´": 5582,
      "éĿ¢ä¸įèĥ½": 5583,
      "éĿ¢ä¸įèĥ½éĩįåıł": 5584,
      "éĿ¢æĪĸå¤ļ": 5585,
      "éĿ¢åĳ¨åĽ´åĪĽå»º": 5586,
      "éĿ¢ä¸ŃæĮ": 5587,
      "çĽĲåº¦": 5588,
      "çĽĴèĥĮæĻ¯": 5589,
      "çĽŁçļĦG": 5590,
      "éĹ´è½¬æį¢": 5591,
      "éĹ´ä¼łè¾ĵ": 5592,
      "å¼ıæĭŁ": 5593,
      "å¼ıä¼łè¾ĵ": 5594,
      "çŃĶ": 5595,
      "çŃĽéĢī": 5596,
      "äºİåĲĮ": 5597,
      "äºİéĽ": 5598,
      "äºİåħ¶ä»ĸ": 5599,
      "äºİèµ¤éģĵ": 5600,
      "æĮ¥äºĨ": 5601,
      "æĢİä¹Ī": 5602,
      "éĩıåĪĨæŀĲ": 5603,
      "éĩıçº§": 5604,
      "éĩıè¾¾": 5605,
      "éĩıå·®å¼Ĥ": 5606,
      "éĩıéĻĲåĪ¶": 5607,
      "æĬķå½±æľī": 5608,
      "æĬķå½±éĢīæĭ©": 5609,
      "æĬķå½±åĿĲæłĩç³»ç»Ł": 5610,
      "æĬķå½±ä¿¡æģ¯": 5611,
      "æĬķå½±åıĺå½¢": 5612,
      "æĬķå½±çļĦæķ°æį®": 5613,
      "æĬķå½±ç½ĳæł¼": 5614,
      "æĬķå½±åľ¨ä¸Ģä¸ª": 5615,
      "æĬķå½±è¿Ľè¡ĮéĩįæĬķå½±": 5616,
      "æĬķå½±ç±»åŀĭåĮħæĭ¬": 5617,
      "æĬķå½±æ¦Ĥè¿°": 5618,
      "æĬķå½±åĪ°äºĮç»´å¹³éĿ¢": 5619,
      "æĬķå½±çļĦæľīæķĪ": 5620,
      "ä¼¸å»ºçŃĳ": 5621,
      "ä¼ıåĴĮ": 5622,
      "ç©ºè½¨éģĵ": 5623,
      "ç©ºçĽĴèĥĮæĻ¯": 5624,
      "ç´«å¤ĸ": 5625,
      "ç´¯ç§¯": 5626,
      "çŃīæķ°æį®": 5627,
      "çŃīæľī": 5628,
      "çŃīå¤ļ": 5629,
      "çŃīè¦ģç´ł": 5630,
      "çŃīå®ŀ": 5631,
      "çŃīæķ°æį®åºĵ": 5632,
      "çŃīä¸īç»´": 5633,
      "çŃīæ¨¡åŀĭ": 5634,
      "çŃīæĸ°": 5635,
      "çŃīç²¾åº¦": 5636,
      "çŃīä¹ĭéĹ´": 5637,
      "çŃīåľºæĻ¯": 5638,
      "çŃīæł·å¼ı": 5639,
      "çŃīéĢīé¡¹åį¡": 5640,
      "çŃīç©ºéĹ´åĪĨæŀĲ": 5641,
      "çŃīç©ºéĹ´æķ°æį®åºĵ": 5642,
      "çŃīåħĥç´ł": 5643,
      "çŃīæııè¿°": 5644,
      "çŃīç©ºéĹ´åħ³ç³»": 5645,
      "çŃīä¸ĵä¸ļ": 5646,
      "çŃīä¸»æµģ": 5647,
      "çŃīæĮĩæķ°": 5648,
      "çŃīå¿Ĺ": 5649,
      "çŃīåįķæ³¢æ®µ": 5650,
      "çŃīè¿ŀç»ŃåĪĨå¸ĥ": 5651,
      "çŃīåľ¨çº¿åºķåĽ¾": 5652,
      "çŃīçİ°ä»£æł¼å¼ı": 5653,
      "çĤ¹åĮħ": 5654,
      "çĤ¹è¦ģç´ł": 5655,
      "çĤ¹éĽĨ": 5656,
      "çĤ¹è¡¨ç¤º": 5657,
      "çĤ¹æķ°æį®çļĦ": 5658,
      "çĤ¹çļĦä¸īç»´": 5659,
      "çĤ¹å®ļä½į": 5660,
      "çĤ¹è¶Ĭ": 5661,
      "çĤ¹æ£Ģæµĭ": 5662,
      "çĤ¹æ³¨è®°": 5663,
      "çĤ¹æİĴåºı": 5664,
      "çĤ¹æķ°æį®æĪĸ": 5665,
      "çĤ¹åŀĤçĽ´": 5666,
      "çĤ¹åĴĮçĥŃ": 5667,
      "çĤ¹æĺ¯ä¿ĿæĮģ": 5668,
      "çĤ¹åĿĲæłĩåıį": 5669,
      "é«ĺé¢": 5670,
      "é«ĺæ¸©": 5671,
      "é«ĺä»ª": 5672,
      "é«ĺè¦ģæ±Ĥ": 5673,
      "é«ĺæĢ§èĥ½": 5674,
      "é«ĺçļĦåİĭç¼©": 5675,
      "é«ĺäº®": 5676,
      "é«ĺçļĦåĪĨç±»æĸ¹æ³ķ": 5677,
      "é«ĺäºİåĲĮ": 5678,
      "æµħåĪ°": 5679,
      "ä»¶ä¸¥": 5680,
      "ç§ģæľī": 5681,
      "ä¸ĢåĮĸ": 5682,
      "ä¸ĢåĲĮ": 5683,
      "ä¸Ģç»´": 5684,
      "ä¸Ģä½ĵ": 5685,
      "ä¸Ģæłĩæ³¨": 5686,
      "ä¸Ģæµģ": 5687,
      "ä¸ĢäºĽ": 5688,
      "ä¸Ģå¹ħ": 5689,
      "ä¸Ģä»½": 5690,
      "ä¸Ģé¢Ĺ": 5691,
      "æĹ¢ä¿ĿæĮģ": 5692,
      "æĹħè¡Į": 5693,
      "åľ°åĽ¾å·¥åħ·": 5694,
      "åľ°åĽ¾æĪĸ": 5695,
      "åľ°åĽ¾ä¸İ": 5696,
      "åľ°åĽ¾å®ļ": 5697,
      "åľ°åĽ¾éĢļè¿ĩ": 5698,
      "åľ°åĽ¾å±ŀæĢ§": 5699,
      "åľ°åĽ¾åºĵ": 5700,
      "åľ°åĽ¾åĪĽå»º": 5701,
      "åľ°åĽ¾ä»£": 5702,
      "åľ°åĽ¾åĮºåŁŁ": 5703,
      "åľ°åĽ¾è¾ĵåĩº": 5704,
      "åľ°åĽ¾ä¸ĬçļĦ": 5705,
      "åľ°åĽ¾çļĦæŃ¥éª¤": 5706,
      "åľ°åĽ¾çĶ¨éĢĶ": 5707,
      "åľ°åĽ¾æ¨¡æĿ¿": 5708,
      "åľ°åĽ¾åĴĮæķ°æį®": 5709,
      "åľ°åĽ¾æłĩåĩĨæĬķå½±": 5710,
      "åľ°åĽ¾åĴĮåºĶçĶ¨": 5711,
      "åľ°åĽ¾ä¸Ģèµ·": 5712,
      "åľ°åĽ¾åĴĮå¸ĥå±Ģ": 5713,
      "åľ°åĽ¾ä½¿çĶ¨GCJ": 5714,
      "ç¼ĺçļĦåıĺå½¢": 5715,
      "éĢļä½¿çĶ¨": 5716,
      "éĢļæĢ§": 5717,
      "éĢļè§Ĩ": 5718,
      "æĢ§æķ°æį®": 5719,
      "æĢ§åĮħæĭ¬": 5720,
      "æĢ§æµĭéĩı": 5721,
      "æĢ§æĽ´": 5722,
      "æĢ§çĽĳæµĭ": 5723,
      "æĢ§å¼º": 5724,
      "æĢ§è¯Ħä¼°": 5725,
      "æĢ§äºĳå¹³åı°": 5726,
      "æĢ§åĪĨæŀĲåĴĮå±ķç¤º": 5727,
      "æĢ§çļĦå¯¹åľ°è§Ĥæµĭ": 5728,
      "å¸¸å°Ĩ": 5729,
      "å¸¸çĶ¨äºİ": 5730,
      "å¸¸ä¿ĿåŃĺ": 5731,
      "å¸¸çĶ¨äºİåŃĺåĤ¨åĴĮåı¯è§ĨåĮĸ": 5732,
      "å¸¸æķ°åĴĮ": 5733,
      "ä¸ºåĽ¾å±Ĥ": 5734,
      "ä¸ºçŁ": 5735,
      "ä¸ºWGS": 5736,
      "ä¸ºShapefile": 5737,
      "ä¸ºæĹł": 5738,
      "ä¸ºæĸĩåŃĹ": 5739,
      "ä¸ºåįķä½į": 5740,
      "ä¸ºéģ¿åħį": 5741,
      "ä¸ºUTF": 5742,
      "ä¸ºlo": 5743,
      "ä¸ºåĽ½éĻħ": 5744,
      "ä¸ºè´Ł": 5745,
      "ä¸ºè¿ĳçº¢å¤ĸ": 5746,
      "ä¸ºCADåĽ¾å±Ĥ": 5747,
      "ä¸ºçº¢åħī": 5748,
      "ä¸ºä¸ľç»ı": 5749,
      "ä¸ºèĦļæľ¬å·¥åħ·": 5750,
      "ä¸ºRFC": 5751,
      "ä¸ºæĺĵçĶ¨": 5752,
      "ä¸ºä¸Ńå¿ĥ": 5753,
      "ä¸ºä¸Ģå¹ħ": 5754,
      "ä»¥åıĳ": 5755,
      "ä»¥åħ¶": 5756,
      "ä»¥åıĤèĢĥ": 5757,
      "ä»¥åľ°çĲĥ": 5758,
      "ä»¥æıĲåıĸ": 5759,
      "ä»¥å®ŀçİ°": 5760,
      "ä»¥åıĬ": 5761,
      "ä»¥è¥¿": 5762,
      "ä»¥ç»ıåº¦": 5763,
      "ä»¥åĩĨç¡®": 5764,
      "ä»¥ä¿ĿæĮģ": 5765,
      "ä»¥æ¶ĪéĻ¤": 5766,
      "ä»¥æıĲåįĩ": 5767,
      "ä»¥çº¢èī²": 5768,
      "ä»¥å¤§åľ°æ°´åĩĨ": 5769,
      "ä»¥åĩıå°ı": 5770,
      "ç©ºéĹ´æĢ§": 5771,
      "ç©ºéĹ´è¡¨": 5772,
      "ç©ºéĹ´ä¿¡æģ¯": 5773,
      "ç©ºéĹ´èĩª": 5774,
      "ç©ºéĹ´èĮĥåĽ´": 5775,
      "ç©ºéĹ´ä½įç½®": 5776,
      "ç©ºéĹ´å±Ģ": 5777,
      "ç©ºéĹ´æĵįä½ľ": 5778,
      "ç©ºéĹ´åĪĨå¸ĥ": 5779,
      "ç©ºéĹ´å®Įæķ´": 5780,
      "ç©ºéĹ´å¯Ĩåº¦": 5781,
      "ç©ºéĹ´åĩ½æķ°": 5782,
      "ç©ºéĹ´æł¡æŃ£": 5783,
      "ç©ºéĹ´è¶ĭåĬ¿": 5784,
      "ç©ºéĹ´æ£Ģç´¢": 5785,
      "è¯¥æĬķå½±": 5786,
      "è¯ĳåĴĮåĪĨç±»": 5787,
      "å¤§å¤§": 5788,
      "å¤§ç±»": 5789,
      "å¤§å½±åĥı": 5790,
      "å¤§åĪĻ": 5791,
      "å¤§æķ°æį®çļĦ": 5792,
      "å¤§éĥ¨åĪĨ": 5793,
      "å¤§æķ°æį®éĽĨ": 5794,
      "å¤§æ´²": 5795,
      "å¤§çļĦæķ°åŃĹ": 5796,
      "å¤§è§Ħæ¨¡": 5797,
      "åĪĨæŀĲä¸Ń": 5798,
      "åĪĨæŀĲæĪĸ": 5799,
      "åĪĨæŀĲéľĢè¦ģ": 5800,
      "åĪĨæŀĲæ¨¡åŀĭ": 5801,
      "åĪĨæŀĲç±»åŀĭ": 5802,
      "åĪĨæŀĲä¸ŃçļĦ": 5803,
      "åĪĨæŀĲåīį": 5804,
      "åĪĨæŀĲèĥ½åĬĽ": 5805,
      "åĪĨæŀĲèµĦ": 5806,
      "åĪĨæŀĲæ¤įè¢«": 5807,
      "åĪĨæŀĲä»£çłģ": 5808,
      "åĪĨæŀĲç©ºéĹ´æķ°æį®çļĦ": 5809,
      "åĪĨæŀĲæŁĲ": 5810,
      "åĪĨæŀĲéĢ»è¾ĳ": 5811,
      "åĪĨæŀĲäººåı£å¯Ĩåº¦": 5812,
      "åĪĨæŀĲäººåĳĺ": 5813,
      "åĪĨæŀĲçļĦéģ¥æĦŁå½±åĥı": 5814,
      "åĪĨæŀĲçŃīåľºæĻ¯": 5815,
      "ä¸įåľ¨": 5816,
      "ä¸įé«ĺ": 5817,
      "ä¸įéľĢè¦ģ": 5818,
      "ä¸įåĪ°": 5819,
      "ä¸įä»İ": 5820,
      "ä¸įçĽ´æİ¥": 5821,
      "ä¸įéĢĤåĲĪ": 5822,
      "ä¸įæŃ£ç¡®": 5823,
      "ä¸įä¼ļ": 5824,
      "ä¸įéĩįåıł": 5825,
      "ä¸įåŃĺåľ¨": 5826,
      "ä¸įåħ¼å®¹": 5827,
      "ä¸įåĨį": 5828,
      "ä¸įåĨĻ": 5829,
      "ä¸įå®Įåħ¨": 5830,
      "ä¸įåħģè®¸": 5831,
      "ä¸įå¤Ł": 5832,
      "ä¸įéľĢè¦ģåħĪ": 5833,
      "ä¸įæĵħéķ¿": 5834,
      "åĨ°çĽĳæµĭ": 5835,
      "éĢīåıĸ": 5836,
      "éĢīä½ľä¸º": 5837,
      "éĢīEp": 5838,
      "éĢīçĶ¨çº¢èī²": 5839,
      "å»ĵ": 5840,
      "å·¥åħ·æĪĸ": 5841,
      "å·¥åħ·åĪ°": 5842,
      "å·¥åħ·åºĵ": 5843,
      "å·¥åħ·è¿Ľè¡Į": 5844,
      "å·¥åħ·éĥ½": 5845,
      "å·¥åħ·å®ŀçİ°": 5846,
      "å·¥åħ·ä¹ĭä¸Ģ": 5847,
      "å·¥åħ·æ£ĢæŁ¥": 5848,
      "å·¥åħ·è¿ģç§»": 5849,
      "å·¥åħ·é¢Ħå¤ĦçĲĨ": 5850,
      "å·¥åħ·æī¹éĩıå¤ĦçĲĨ": 5851,
      "å·¥åħ·è¯»åıĸ": 5852,
      "å·¥åħ·éħįåĩĨ": 5853,
      "å·¥åħ·çļĦè¾ĵåħ¥": 5854,
      "å·¥åħ·åĩıå°ĳ": 5855,
      "å·¥åħ·è¿Ĳè¡ĮåĲİ": 5856,
      "å·¥åħ·çļĦä¸ŃéĹ´": 5857,
      "å·¥åħ·æłıä¸ŃçļĦ": 5858,
      "å·¥åħ·åĴĮäººå·¥": 5859,
      "å·¥åħ·éĢīä½ľä¸º": 5860,
      "å»ºè®¾": 5861,
      "å»ºåºĵ": 5862,
      "ä¿Ħç½": 5863,
      "å±Ĥæ¬¡": 5864,
      "è¡¨åĪĹ": 5865,
      "è¡¨æ¸©åº¦": 5866,
      "æĪĸéĿ¢": 5867,
      "æĪĸåĽ¾å±Ĥ": 5868,
      "æĪĸè¦ģç´ł": 5869,
      "æĪĸå°Ĩ": 5870,
      "æĪĸåĽ½": 5871,
      "æĪĸä¸įåĲĮ": 5872,
      "æĪĸæķ°æį®åºĵ": 5873,
      "æĪĸåĪĽå»º": 5874,
      "æĪĸæ·»åĬł": 5875,
      "æĪĸåħ¨": 5876,
      "æĪĸåħī": 5877,
      "æĪĸåħ¶": 5878,
      "æĪĸè§£": 5879,
      "æĪĸç¬¦åı·": 5880,
      "æĪĸEPSG": 5881,
      "æĪĸæĸ¹åĲĳ": 5882,
      "æĪĸCGCS": 5883,
      "æĪĸå¯¼åħ¥": 5884,
      "æĪĸéĩįåıł": 5885,
      "æĪĸGoogle": 5886,
      "æĪĸPython": 5887,
      "æĪĸå½¢çĬ¶": 5888,
      "æĪĸä¿®æĶ¹": 5889,
      "æĪĸå¯¼åĩºä¸º": 5890,
      "æĪĸè¦ģæ±Ĥ": 5891,
      "æĪĸåįģ": 5892,
      "æĪĸä½¿çĶ¨å¤ĦçĲĨå·¥åħ·ç®±": 5893,
      "æĪĸçŃīè§Ĵ": 5894,
      "æĪĸç¼º": 5895,
      "æĪĸOpenLayers": 5896,
      "æĪĸè¥¿å®ī": 5897,
      "æĪĸps": 5898,
      "æĪĸæĹĭè½¬": 5899,
      "æĪĸGISè½¯ä»¶ä¸Ń": 5900,
      "æĪĸçŃīéĿ¢ç§¯æĬķå½±": 5901,
      "æĪĸQu": 5902,
      "æĪĸåľ¨åĽ¾å±Ĥ": 5903,
      "æĪĸçº¿æ®µ": 5904,
      "æĪĸæĪĲæľ¬": 5905,
      "æĪĸåŃĹæ®µåĢ¼": 5906,
      "æĪĸåģĩ": 5907,
      "æĪĸæĹłæįŁåİĭç¼©": 5908,
      "æĪĸarea": 5909,
      "æĪĸçŃīè·ĿæĬķå½±": 5910,
      "æĪĸlength": 5911,
      "æĪĸCSV": 5912,
      "æĪĸè®©": 5913,
      "æĪĸå¹³åĿ¦": 5914,
      "æĪĸåŁºäºİè§ĦåĪĻ": 5915,
      "æĪĸæłĩåĩĨçº¬çº¿": 5916,
      "æĪĸGBK": 5917,
      "æĪĸSVG": 5918,
      "æĪĸåıĳå°ĦçļĦ": 5919,
      "æĪĸåİŁå§ĭæķ°æį®": 5920,
      "æĪĸä¸»åĬ¨ä¼łæĦŁåĻ¨": 5921,
      "æĪĸä¼ģä¸ļçº§åľ°çĲĨæķ°æį®åºĵ": 5922,
      "æĪĸGeostatistical": 5923,
      "æĪĸåľĨæŁ±æĬķå½±": 5924,
      "æĪĸFl": 5925,
      "æĪĸPPK": 5926,
      "æĪĸSystem": 5927,
      "æĪĸåĪĨè£": 5928,
      "æĪĸä½¿çĶ¨é«ĺçº§": 5929,
      "æĪĸä¸ºè´Ł": 5930,
      "æĪĸå¤§æ´²": 5931,
      "å¦ĤR": 5932,
      "å¦ĤéľĢ": 5933,
      "å¦Ĥå°Ĩ": 5934,
      "å¦Ĥè®¡ç®Ĺ": 5935,
      "å¦Ĥåħ¨": 5936,
      "å¦Ĥä¸Ģä¸ª": 5937,
      "å¦Ĥé«ĺç¨ĭ": 5938,
      "å¦Ĥæī¹éĩı": 5939,
      "å¦ĤçĬ": 5940,
      "å¦Ĥå¢¨åį¡æīĺæĬķå½±": 5941,
      "å¦Ĥåľ°éĿ¢": 5942,
      "å¦ĤGoogle": 5943,
      "å¦Ĥäº¤éĢļ": 5944,
      "å¦Ĥæ¤įè¢«": 5945,
      "å¦ĤPython": 5946,
      "å¦ĤGB": 5947,
      "å¦Ĥå¤ļåħīè°±": 5948,
      "å¦Ĥç»ıåº¦": 5949,
      "å¦Ĥæ¸©åº¦": 5950,
      "å¦Ĥæµıè§ĪåĻ¨": 5951,
      "å¦ĤéĽ·è¾¾": 5952,
      "å¦ĤåĮĹäº¬": 5953,
      "å¦Ĥæ£®æŀĹ": 5954,
      "å¦ĤST": 5955,
      "å¦ĤLeaflet": 5956,
      "å¦ĤGeoServer": 5957,
      "å¦ĤçŁ¢éĩıåĽ¾å±Ĥ": 5958,
      "å¦ĤJPEG": 5959,
      "å¦ĤMapbox": 5960,
      "å¦ĤåĲįç§°": 5961,
      "å¦Ĥä¸įèĥ½éĩįåıł": 5962,
      "å¦Ĥäººåı£å¯Ĩåº¦": 5963,
      "å¦Ĥè¡ĮæĶ¿è¾¹çķĮ": 5964,
      "å¦ĤéĻįæ°´": 5965,
      "å¦ĤLZW": 5966,
      "å¦ĤAut": 5967,
      "å¦ĤRo": 5968,
      "å¦ĤæĸŃ": 5969,
      "å¦ĤArcSDE": 5970,
      "å¦ĤéģįåİĨ": 5971,
      "å¦Ĥè¶ħåĽ¾": 5972,
      "å¦Ĥç¾İåĽ½çļĦ": 5973,
      "å¦ĤWMS": 5974,
      "å¦ĤANSI": 5975,
      "å¦ĤMy": 5976,
      "å¦ĤISO": 5977,
      "å¦ĤåĽ¾éĽĨ": 5978,
      "è¡Įè®¡ç®Ĺ": 5979,
      "è¡ĮåĪĹ": 5980,
      "è¡ĮéĻĲåĪ¶": 5981,
      "è¡ĮçļĦé«ĺç¨ĭåŁºåĩĨ": 5982,
      "ArcSc": 5983,
      "ArcGlo": 5984,
      "atic": 5985,
      "atch": 5986,
      "atpak": 5987,
      "ä¸ªæł¸å¿ĥ": 5988,
      "ä¸ªåŃĹç¬¦": 5989,
      "ä¸ªéĥ¨åĪĨ": 5990,
      "ä¸ªå±ŀæĢ§åŃĹæ®µ": 5991,
      "ä¸ªåįĬå¾Ħ": 5992,
      "ä¸ªç»ıåº¦å¸¦": 5993,
      "ä¸ªçĤ¹çļĦä¸īç»´": 5994,
      "åĽ¾å±Ĥå±ŀæĢ§": 5995,
      "åĽ¾å±ĤåĿĲæłĩç³»": 5996,
      "åĽ¾å±Ĥç±»åŀĭ": 5997,
      "åĽ¾å±ĤæłĩåĩĨ": 5998,
      "åĽ¾å±Ĥè¿ŀæİ¥": 5999,
      "åĽ¾å±Ĥæł·å¼ı": 6000,
      "åĽ¾å±ĤåıłåĬł": 6001,
      "åĽ¾å±Ĥå±ŀæĢ§è¡¨": 6002,
      "åĽ¾å±Ĥå½ĵåīį": 6003,
      "åĽ¾å±ĤèĮĥåĽ´åĨħ": 6004,
      "åĽ¾å±ĤæĪĸå¤ļä¸ª": 6005,
      "åĽ¾å±ĤåĴĮç¬¦åı·": 6006,
      "eran": 6007,
      "ertu": 6008,
      "eraliz": 6009,
      "eridian": 6010,
      "eræĪĸGoogle": 6011,
      "æİ¢æµĭ": 6012,
      "æİĪæĿĥ": 6013,
      "æİĮæı": 6014,
      "çº¿ä½¿çĶ¨": 6015,
      "çº¿åĽ¾å±Ĥ": 6016,
      "çº¿è¡¨ç¤º": 6017,
      "çº¿æīĢ": 6018,
      "çº¿ç¼ĵåĨ²åĮº": 6019,
      "çº¿å®½": 6020,
      "çº¿ç®ĢåĮĸ": 6021,
      "çº¿å·¡æ£Ģ": 6022,
      "çº¿çļĦä¸į": 6023,
      "çº¿åĴĮéĿ¢": 6024,
      "çº¿æĪĸéĿ¢": 6025,
      "ç³»ç»ŁçŃī": 6026,
      "ç³»ç»ŁåĮħæĭ¬": 6027,
      "ç³»ç»Łçº§": 6028,
      "ç³»ç»ŁçĽ´æİ¥": 6029,
      "ç³»ç»Łä¹ĭä¸Ģ": 6030,
      "ç³»ç»ŁçªĹæł¼ä¸Ń": 6031,
      "ç³»ç»ŁçļĦæłĩåĩĨ": 6032,
      "ç³»ç»ŁçļĦæł¸å¿ĥåĬŁèĥ½": 6033,
      "ç³»ç»Łåħ¨éĿ¢": 6034,
      "QGISåĿĲæłĩç³»": 6035,
      "QGISæłĩæ³¨": 6036,
      "QGISå¯¼åĩº": 6037,
      "QGISè¿ŀæİ¥": 6038,
      "QGISå¯¼åħ¥": 6039,
      "QGISä¹Ł": 6040,
      "QGISä¸ĭè½½": 6041,
      "QGISå±ŀæĢ§è¡¨": 6042,
      "QGISçĶŁæĢģ": 6043,
      "QGISæĺ¯æľĢ": 6044,
      "QGISå¼ºå¤§": 6045,
      "QGISåĽ¾æłĩ": 6046,
      "QGISä¼ļèĩªåĬ¨": 6047,
      "QGISæķ°æį®å¯¼åħ¥": 6048,
      "QGISåľ°åĽ¾çĶ»å¸ĥ": 6049,
      "QGISæīĵåį°å¸ĥå±Ģ": 6050,
      "QGISç¬¦åı·åĮĸä¸İ": 6051,
      "QGISå®ĺæĸ¹": 6052,
      "QGISåĴĮArcGIS": 6053,
      "QGISåľ¨å¯¼åĩº": 6054,
      "åŁºæ¤ŃçĲĥä½ĵçļĦåıĤå¿ĥåĿĲæłĩç³»": 6055,
      "å¤ĦæĹł": 6056,
      "å¤ĦçļĦéķ¿åº¦åıĺå½¢": 6057,
      "åĮħåĮĸ": 6058,
      "åĮħKML": 6059,
      "è¿ĩå¤§": 6060,
      "è¿ĩæ¸": 6061,
      "è¿ĩå¯Ĩ": 6062,
      "è¿ĩè¿ĳ": 6063,
      "è¿ĩå¤§æ°Ķ": 6064,
      "è¿ĩäºİéĽ": 6065,
      "æľīä¼ĺ": 6066,
      "æľīæıĲä¾Ľ": 6067,
      "æľīæĬĢæľ¯": 6068,
      "æľīéĻĲ": 6069,
      "æľīé«ĺæĸ¯": 6070,
      "æľīç´¢å¼ķ": 6071,
      "æľīåģıç§»": 6072,
      "æľīåħįè´¹": 6073,
      "æľīåĮĹäº¬": 6074,
      "æľīè¿ĻäºĽ": 6075,
      "æľīåĽĽ": 6076,
      "æľīæķ°æį®è½¬æį¢": 6077,
      "æľīæĦıä¹ī": 6078,
      "æľīæķ°ç±³": 6079,
      "æľīè¿Ŀåıį": 6080,
      "æľīé«ĺè¦ģæ±Ĥ": 6081,
      "åĬłéĢŁ": 6082,
      "åĬłå¼Ģåıĳ": 6083,
      "åĬłServer": 6084,
      "åĬłOr": 6085,
      "åĬłå°ºåº¦": 6086,
      "åĬłAp": 6087,
      "åĬłOnline": 6088,
      "åĬłåľ¨ä¸ľ": 6089,
      "å¤ĦçĲĨä¸Ĭ": 6090,
      "å¤ĦçĲĨåĿĲæłĩç³»ç»Ł": 6091,
      "å¤ĦçĲĨçŁ¢éĩı": 6092,
      "å¤ĦçĲĨåĲİ": 6093,
      "å¤ĦçĲĨä¸ŃåĽ½": 6094,
      "å¤ĦçĲĨåīį": 6095,
      "å¤ĦçĲĨæŃ¥éª¤": 6096,
      "å¤ĦçĲĨåħ¨çĲĥ": 6097,
      "å¤ĦçĲĨæĸ¹å¼ı": 6098,
      "å¤ĦçĲĨå¤įæĿĤ": 6099,
      "å¤ĦçĲĨæµģç¨ĭ": 6100,
      "å¤ĦçĲĨè¶ħ": 6101,
      "å¤ĦçĲĨåİĨåı²": 6102,
      "å¤ĦçĲĨåĬ¨æĢģ": 6103,
      "å¤ĦçĲĨå·¥ä½ľæµģç¨ĭ": 6104,
      "å¤ĦçĲĨNodata": 6105,
      "å¤ĦçĲĨçŃĸçķ¥": 6106,
      "å¤ĦçĲĨä¸įå¤Ł": 6107,
      "ç±»åĪ«": 6108,
      "ç±»åĮºåĪĨ": 6109,
      "ç±»éĿ¢è¦ģç´ł": 6110,
      "ç±»çļĦè¿ĩç¨ĭ": 6111,
      "æĦ¿èĢħ": 6112,
      "æĸĩå»ºæ¨¡": 6113,
      "å¤ļçĤ¹": 6114,
      "å¤ļæł·": 6115,
      "å¤ļæľŁ": 6116,
      "å¤ļæĻ¯": 6117,
      "å¤ļçĶ¨æĪ·": 6118,
      "å¤ļå¹´": 6119,
      "å¤ļæ¬¡": 6120,
      "å¤ļå¹ħ": 6121,
      "å¤ļåĽłåŃĲ": 6122,
      "å¤ļçĶ¨äºİWeb": 6123,
      "å¤ļçĤ¹çŃī": 6124,
      "å¤ļæĹ¶çĽ¸": 6125,
      "å¤ļè¾¹å½¢": 6126,
      "æĸ¹å½¢": 6127,
      "æĸ¹ç¨ĭ": 6128,
      "æĸ¹ä½į": 6129,
      "æĸ¹æĸ¹åĲĳ": 6130,
      "æĸ¹ä¾¿": 6131,
      "æĸ¹åıªæİ¥": 6132,
      "å¯¹åľ°çĲĨ": 6133,
      "å¯¹æłħæł¼": 6134,
      "å¯¹ä¸įåĲĮ": 6135,
      "å¯¹ä¸īç»´": 6136,
      "å¯¹åĨħ": 6137,
      "å¯¹WGS": 6138,
      "å¯¹æķ´": 6139,
      "å¯¹åľ°çī©": 6140,
      "å¯¹åĥıç´ł": 6141,
      "å¯¹åĥıåħĥ": 6142,
      "å¯¹åľ°çĲĨè¦ģç´ł": 6143,
      "å¯¹åľ°çĲĥè¡¨éĿ¢": 6144,
      "å¯¹ä¸įä¸Ģèĩ´": 6145,
      "å¯¹é«ĺçº§åĪĨæŀĲ": 6146,
      "å¯¹ä¸¤æľŁ": 6147,
      "å¯¹å¤§æķ°æį®": 6148,
      "å¯¹PostGISçļĦ": 6149,
      "å¯¹ç©ºéĹ´æķ°æį®ç±»åŀĭåĴĮ": 6150,
      "å¯¹æ¯ıä¸ªè¦ģç´łç±»": 6151,
      "å¯¹æŁĲäºĽ": 6152,
      "å¯¹é½Ĳ": 6153,
      "å¯¹æķĻèĤ": 6154,
      "å¯¹GISåĪĨæŀĲ": 6155,
      "å¯¹å¤ļæľŁ": 6156,
      "éľĢéĢļè¿ĩ": 6157,
      "éľĢåħĪ": 6158,
      "éľĢåħ·æľī": 6159,
      "éľĢä»ĺè´¹": 6160,
      "éľĢæķ°æį®åĴĮåĪĨæŀĲ": 6161,
      "èĥ½å¿«éĢŁ": 6162,
      "èĥ½æ»¡è¶³": 6163,
      "åĮĸå¤ĦçĲĨ": 6164,
      "åĮĸæ³ķ": 6165,
      "åĮĸåĴĮä¼Ĺ": 6166,
      "åĮĸåĪĨè§£": 6167,
      "åŀĭæķ°æį®åºĵ": 6168,
      "åŀĭæ¯Ķä¾ĭå°º": 6169,
      "è¦ģç´łæł¼å¼ı": 6170,
      "è¦ģç´łä¹Ł": 6171,
      "è¦ģç´łéĩįåıł": 6172,
      "è¦ģç´łå¿ħé¡»": 6173,
      "è¦ģç´łå¯¼åĩºä¸º": 6174,
      "è¦ģç´łé¡¶çĤ¹": 6175,
      "è¦ģç´łçļĦä½įç½®": 6176,
      "è¦ģç´łæķ°æį®éĽĨ": 6177,
      "è¦ģç´łæĿĥéĩį": 6178,
      "è¦ģç´łå¾ªçİ¯": 6179,
      "è¦ģç´łæĪĸåħ¨": 6180,
      "é¡ºåºı": 6181,
      "ä¸İArcGIS": 6182,
      "ä¸İéĢīæĭ©": 6183,
      "ä¸İå±ŀæĢ§": 6184,
      "ä¸İå®ŀ": 6185,
      "ä¸İæ·»åĬł": 6186,
      "ä¸İç±»åŀĭ": 6187,
      "ä¸İæĭĵæīĳ": 6188,
      "ä¸İåĪĨè¾¨çİĩ": 6189,
      "ä¸İéĥ": 6190,
      "ä¸İUTM": 6191,
      "ä¸İæ°´": 6192,
      "ä¸İCGCS": 6193,
      "ä¸İè§ĦåĪĻ": 6194,
      "ä¸İä¼łæĦŁåĻ¨": 6195,
      "ä¸İæłħæł¼æķ°æį®": 6196,
      "ä¸İå®īè£ħ": 6197,
      "ä¸İGISæķ°æį®": 6198,
      "ä¸İéĩįæĬķå½±": 6199,
      "ä¸İåĪ¶åĽ¾": 6200,
      "ä¸İåľ°çī©": 6201,
      "ä¸İæķ°åĢ¼": 6202,
      "ä¸İåŁºæľ¬": 6203,
      "ä¸İä½İ": 6204,
      "ä¸İè¿ģç§»": 6205,
      "ä¸İåı¦": 6206,
      "ä¸İç§»åĬ¨": 6207,
      "ä¸İäºĳGIS": 6208,
      "ä¸İArcPy": 6209,
      "ä¸İæ³¨è®°": 6210,
      "ä¸İåıĳå±ķ": 6211,
      "ä¸İåĽ½éĻħ": 6212,
      "ä¸İå¹³ç§»": 6213,
      "ä¸İä¸»æµģ": 6214,
      "ä¸İWebå¢¨åį¡æīĺ": 6215,
      "ä¸İæķ°åŃĹåĮĸ": 6216,
      "ä¸İGISæķ°æį®çļĦ": 6217,
      "ä¸İåĿĲæłĩåĬłå¯Ĩ": 6218,
      "ä¸İçĤ¹åĽ¾å±Ĥ": 6219,
      "ä¸İå®ŀåľ°": 6220,
      "ä¸İQGISçļĦåĽ¾å½¢å»ºæ¨¡åĻ¨": 6221,
      "ä¸İè¿ĩæ»¤": 6222,
      "ä¸İåŀĤçĽ´": 6223,
      "ä¸İäºĳå¹³åı°": 6224,
      "ä¸İç§ĳåŃ¦æķ°æį®æł¼å¼ı": 6225,
      "ä¸İé«ĺåħīè°±éģ¥æĦŁ": 6226,
      "ä¸İåŃĲåįĪçº¿æĶ¶æķĽè§Ĵ": 6227,
      "ä¸İæĬķå½±æ¦Ĥè¿°": 6228,
      "ä¸İåľ°åĽ¾è¾ĵåĩº": 6229,
      "æł¼å¼ıåĮħæĭ¬": 6230,
      "æł¼å¼ıéĢīæĭ©": 6231,
      "æł¼å¼ıåŃĺåĤ¨": 6232,
      "æł¼å¼ıåŁºç¡Ģ": 6233,
      "æł¼å¼ıçļĦæĬĢæľ¯": 6234,
      "æł¼å¼ıä¸įä¸Ģèĩ´": 6235,
      "æł¼å¼ıçļĦè¯»åĨĻ": 6236,
      "æł¼å¼ıå¯¼åħ¥PostGIS": 6237,
      "æł¼å¼ıçļĦä¸īç»´æ¨¡åŀĭ": 6238,
      "æ¨¡ç³Ĭ": 6239,
      "str": 6240,
      "stal": 6241,
      "stFeature": 6242,
      "stim": 6243,
      "åĲĪæĪĲ": 6244,
      "åĲĪæŃ£": 6245,
      "åĲĪæķ´": 6246,
      "åĲĪå¤ļä¸ª": 6247,
      "å½¢å·¥åħ·": 6248,
      "å½¢æĪĲ": 6249,
      "è½¬åĿĲæłĩ": 6250,
      "è½¬GeoJSON": 6251,
      "è½¬ä¸ºGIS": 6252,
      "è½¬å¼¯": 6253,
      "åľ°çĲĨç²¾åº¦": 6254,
      "åľ°çĲĨæķ°æį®æł¼å¼ı": 6255,
      "åľ°çĲĨç¼ĸçłģ": 6256,
      "åľ°çĲĨç©ºéĹ´æķ°æį®çļĦ": 6257,
      "åľ°çĲĨå®ļä½į": 6258,
      "åľ°çĲĨç©ºéĹ´åıĤèĢĥä¿¡æģ¯": 6259,
      "åľ°çĲĨå®ŀä½ĵ": 6260,
      "åľ°çĲĨå¤ĦçĲĨå·¥åħ·ç®±ä¸Ń": 6261,
      "åĮºçŃīåĪĨæŀĲ": 6262,
      "åĮºä¸İéĥ": 6263,
      "åĮħæĭ¬åĿĲæłĩç³»ç»Ł": 6264,
      "åĮħæĭ¬WGS": 6265,
      "åĮħæĭ¬Sentinel": 6266,
      "åĮħæĭ¬åķĨä¸ļ": 6267,
      "åĮħæĭ¬LAS": 6268,
      "åĮħæĭ¬Point": 6269,
      "åĮħæĭ¬é£ŀæľº": 6270,
      "åĮħæĭ¬SRT": 6271,
      "åĮħæĭ¬ç©ºéĹ´æĢ§": 6272,
      "åĮħæĭ¬ç³»ç»Łçº§": 6273,
      "ina": 6274,
      "inæĪĸps": 6275,
      "æ³ķåĪĻ": 6276,
      "æ³ķè§Ħ": 6277,
      "ç®Ĺæľ¯": 6278,
      "ç®ĹæľªçŁ¥": 6279,
      "æĹ¶è¿Ľè¡Į": 6280,
      "æĹ¶æĮī": 6281,
      "æĹ¶åºĶçĶ¨": 6282,
      "æĹ¶æīĵå¼Ģ": 6283,
      "æĹ¶æĮĩå®ļ": 6284,
      "æĹ¶éĿŀå¸¸": 6285,
      "æĹ¶çļĦéĩįè¦ģ": 6286,
      "æĹ¶ä¼ļèĩªåĬ¨": 6287,
      "æĹ¶å°±": 6288,
      "æĹ¶éľĢèĢĥèĻĳ": 6289,
      "æĹ¶åı¯è®¾ç½®": 6290,
      "æĹ¶è½¬ä¸º": 6291,
      "æĹ¶éľĢè¦ģèĢĥèĻĳ": 6292,
      "æĹ¶åı¯éĢīæĭ©": 6293,
      "æĹ¶ä½¿çĶ¨å½ĵåľ°": 6294,
      "ArcGISå¸¸çĶ¨": 6295,
      "ArcGISä¸ŃçļĦ": 6296,
      "ArcGISç¬¦åı·": 6297,
      "ArcGISç³»åĪĹ": 6298,
      "ArcGISçĶŁæĢģ": 6299,
      "ArcGISè¿ĺ": 6300,
      "ArcGISçļĦå·¥åħ·": 6301,
      "ArcGISæĭĵæīĳè§ĦåĪĻ": 6302,
      "ArcGISåĴĮQGIS": 6303,
      "apt": 6304,
      "apping": 6305,
      "é¢ĿæľĢå¤§": 6306,
      "åĲĮç±»åŀĭ": 6307,
      "åĲĮçĽ®å½ķ": 6308,
      "åĲĮæŀĦæĪĲ": 6309,
      "åĢ¼éĩį": 6310,
      "åĢ¼æłħæł¼": 6311,
      "åĢ¼èĮĥåĽ´": 6312,
      "åĢ¼æ¯Ķè¾ĥ": 6313,
      "åĢ¼è¾ĥé«ĺ": 6314,
      "åĢ¼åŁºäºİè¡¨è¾¾å¼ı": 6315,
      "åĢ¼è¾ĥä½İ": 6316,
      "åĢ¼çļĦæĸ¹æ³ķ": 6317,
      "åĢ¼æĪĸåŃĹæ®µåĢ¼": 6318,
      "åı¯ä»¥å¿": 6319,
      "åı¯ä»¥ä¸įåĲĮ": 6320,
      "åı¯ä»¥æĮī": 6321,
      "åı¯ä»¥ä»İ": 6322,
      "åı¯ä»¥æīĵ": 6323,
      "åı¯ä»¥æ¯ı": 6324,
      "åı¯ä»¥åıłåĬł": 6325,
      "åı¯ä»¥èİ·åıĸ": 6326,
      "åı¯ä»¥åĮħåĲ«": 6327,
      "åı¯ä»¥å®ŀçİ°": 6328,
      "åı¯ä»¥è¿Ĳè¡Į": 6329,
      "åı¯ä»¥è½¬æį¢ä¸º": 6330,
      "åı¯ä»¥åľ¨ä¸įåĲĮ": 6331,
      "åı¯ä»¥çĶŁæĪĲ": 6332,
      "åı¯ä»¥æİ§åĪ¶": 6333,
      "åı¯ä»¥è¯»åıĸ": 6334,
      "åı¯ä»¥æīĭåĬ¨": 6335,
      "åı¯ä»¥åħ¨å¤©åĢĻ": 6336,
      "åı¯ä»¥æĮīåĩłä½ķç±»åŀĭ": 6337,
      "åı¯ä»¥è°ĥçĶ¨": 6338,
      "åı¯ä»¥ç»§": 6339,
      "åı¯ä»¥è¿½": 6340,
      "åı¯ä»¥å°Ĩå¤ļä¸ª": 6341,
      "åı¯ä»¥åŃĺåĤ¨æµ·éĩıæķ°æį®": 6342,
      "åı¯ä»¥æ»¡è¶³": 6343,
      "åı¯ä»¥åĴĮé¡¹çĽ®": 6344,
      "åı¯ä»¥åĪĨæŀĲæ¤įè¢«": 6345,
      "åı¯ä»¥æĸ¹ä¾¿": 6346,
      "åĻªå£": 6347,
      "å®ļæłĩ": 6348,
      "å®ļåĪ¶": 6349,
      "åĩĨåĨľä¸ļ": 6350,
      "åĩĨçļĦåĿĲæłĩåĬłå¯Ĩ": 6351,
      "åıĺå¼Ĥ": 6352,
      "åıĺæĢ§åıĺåĮĸ": 6353,
      "éĩįç©ºéĹ´åĪĨæŀĲ": 6354,
      "éĩįç¨ĭåº¦": 6355,
      "éĩįå¡": 6356,
      "éĢļè¿ĩçĤ¹": 6357,
      "éĢļè¿ĩæ·»åĬł": 6358,
      "éĢļè¿ĩWeb": 6359,
      "éĢļè¿ĩåŁºäºİ": 6360,
      "éĢļè¿ĩé¡¹çĽ®": 6361,
      "éĢļè¿ĩDEM": 6362,
      "éĢļè¿ĩå¤ĦçĲĨå·¥åħ·ç®±": 6363,
      "éĢļè¿ĩæĹ¶éĹ´": 6364,
      "éĢļè¿ĩæıĴä»¶": 6365,
      "éĢļè¿ĩæİ¥æĶ¶": 6366,
      "éĢļè¿ĩç¾": 6367,
      "éĢļè¿ĩèıľåįķ": 6368,
      "éĢļè¿ĩGDAL": 6369,
      "éĢļè¿ĩSQLæŁ¥è¯¢": 6370,
      "éĢļè¿ĩFeature": 6371,
      "éĢļè¿ĩéĢīä¸Ń": 6372,
      "éĢļè¿ĩå»ºç«ĭ": 6373,
      "éĢļè¿ĩè®¾å®ļ": 6374,
      "éĢļè¿ĩåį«æĺŁæĪĸ": 6375,
      "éĢļè¿ĩJavaScript": 6376,
      "éĢļè¿ĩRT": 6377,
      "éĢļè¿ĩå¯¹æ¯Ķ": 6378,
      "éĢļè¿ĩä¸įåĲĮæĹ¶æľŁ": 6379,
      "éĢļè¿ĩä¼łæĦŁåĻ¨èİ·åıĸ": 6380,
      "éĢļè¿ĩInSAR": 6381,
      "éĢļè¿ĩæķ°åŃ¦åĩ½æķ°": 6382,
      "éĢļè¿ĩèĭ±": 6383,
      "éĢļè¿ĩCopernicus": 6384,
      "éĢļè¿ĩfor": 6385,
      "éĢļè¿ĩåľ¨TIFF": 6386,
      "éĢļè¿ĩé«ĺæ¸©": 6387,
      "éĢļè¿ĩåĪĨæŀĲäººåı£å¯Ĩåº¦": 6388,
      "éĢļè¿ĩåıĺå¼Ĥ": 6389,
      "æĦŁåħ´è¶": 6390,
      "åĻ¨æıĴä»¶": 6391,
      "çŁ³çĥŃ": 6392,
      "æµĭåĽ¾": 6393,
      "æµĭå¾Ĺ": 6394,
      "æµĭè¯ķ": 6395,
      "æµĭé«ĺä»ª": 6396,
      "éĢīæĭ©QGIS": 6397,
      "éĢīæĭ©æł¼å¼ı": 6398,
      "éĢīæĭ©åıĤæķ°": 6399,
      "éĢīæĭ©åŃĺåĤ¨": 6400,
      "éĢīæĭ©æĺ¾ç¤º": 6401,
      "éĢīæĭ©UTM": 6402,
      "éĢīæĭ©CGCS": 6403,
      "éĢīæĭ©åİĭç¼©": 6404,
      "éĢīæĭ©æŃ£ç¡®": 6405,
      "éĢīæĭ©GISè½¯ä»¶": 6406,
      "éĢīæĭ©æĸ°å»º": 6407,
      "éĢīæĭ©æŀģ": 6408,
      "éĢīæĭ©å·²æľī": 6409,
      "éĢīæĭ©åľĨéĶ¥æĬķå½±": 6410,
      "éĢīæĭ©æ¨ªè½´": 6411,
      "éĢīæĭ©æĮīéĴ®": 6412,
      "éĢīæĭ©ä¸ĸçķĮ": 6413,
      "éĢīæĭ©çº¸": 6414,
      "éĢīæĭ©æľĢæĸ°": 6415,
      "éĢīæĭ©åķĨä¸ļGIS": 6416,
      "éĢīæĭ©åĴĮæĮĩå®ļ": 6417,
      "éĢīæĭ©åįķæ³¢æ®µ": 6418,
      "éĢīæĭ©æłĩæ³¨åŃĹæ®µ": 6419,
      "éĢīæĭ©é¡¹çĽ®åĿĲæłĩç³»": 6420,
      "éĢīæĭ©æıĴåĢ¼æĸ¹æ³ķ": 6421,
      "éĢīæĭ©æķ°åĢ¼åŀĭ": 6422,
      "æ®Ĭå¤ĦçĲĨ": 6423,
      "å°Ĩæĸĩä»¶": 6424,
      "å°Ĩä¸įåĲĮ": 6425,
      "å°Ĩä¸īç»´": 6426,
      "å°Ĩåħ¶": 6427,
      "å°Ĩå¤ĸ": 6428,
      "å°Ĩåħīè°±": 6429,
      "å°Ĩåĩłä½ķ": 6430,
      "å°Ĩè·Ŀç¦»": 6431,
      "å°Ĩåľ°çĲĥ": 6432,
      "å°Ĩå®ĥ": 6433,
      "å°Ĩç»ĵæŀľ": 6434,
      "å°ĨçĶµç£ģæ³¢": 6435,
      "å°ĨéĢīä¸Ń": 6436,
      "å°ĨçĽ¸éĤ»": 6437,
      "å°ĨäºĮç»´": 6438,
      "å°Ĩä¸ĸçķĮ": 6439,
      "å°ĨDWG": 6440,
      "å°Ĩçº¸": 6441,
      "å°ĨéĢīä¸ŃçļĦ": 6442,
      "å°ĨQGISé¡¹çĽ®": 6443,
      "å°Ĩæķ°åĢ¼åŀĭ": 6444,
      "å°ĨExcel": 6445,
      "å°ĨéĢĲæŃ¥æ·ĺæ±°": 6446,
      "å°ĨGISèĥ½åĬĽ": 6447,
      "å°Ĩæĺ¯Nodata": 6448,
      "å°Ĩå¤§æķ°æį®éĽĨ": 6449,
      "å°Ĩå·¥åħ·çļĦä¸ŃéĹ´": 6450,
      "å°ĨQGISåĽ¾æłĩ": 6451,
      "å°Ĩå¤ļæĻ¯": 6452,
      "æİ¥è½¨": 6453,
      "æİ¥è§¦çī©ä½ĵ": 6454,
      "leum": 6455,
      "lels": 6456,
      "levation": 6457,
      "æŁĵæī": 6458,
      "è½¬æį¢åĪ°": 6459,
      "è½¬æį¢å¸¸çĶ¨": 6460,
      "è½¬æį¢æĸ¹æ³ķ": 6461,
      "è½¬æį¢çļĦæł¸å¿ĥ": 6462,
      "è½¬æį¢è¿ĩç¨ĭ": 6463,
      "è½¬æį¢å¯¼èĩ´": 6464,
      "è½¬æį¢å¸¸è§ģéĹ®é¢ĺ": 6465,
      "è½¬æį¢åĲĹ": 6466,
      "è½¬æį¢çļĦä¸ŃéĹ´": 6467,
      "è½¬æį¢åı¯ä½¿çĶ¨å¤ĦçĲĨå·¥åħ·ç®±çļĦ": 6468,
      "è½¬æį¢æĺ¯å®ŀéĻħå·¥ä½ľä¸Ń": 6469,
      "æłħæł¼æł¼å¼ı": 6470,
      "æłħæł¼è½¬æį¢": 6471,
      "æłħæł¼æķ°æį®çļĦ": 6472,
      "æłħæł¼æ³¢æ®µ": 6473,
      "æłħæł¼DEM": 6474,
      "æłħæł¼æķ°æį®æł¼å¼ı": 6475,
      "æłħæł¼éĩįæĬķå½±": 6476,
      "æłħæł¼åĽ¾å±ĤçļĦ": 6477,
      "æłħæł¼åħ·æľī": 6478,
      "æłħæł¼æł¼å¼ıè½¬æį¢": 6479,
      "æłħæł¼é«ĺçº§åĪĨæŀĲ": 6480,
      "æłħæł¼çļĦä¸»è¦ģ": 6481,
      "æłħæł¼æķ°åŃ¦è¿Ĳç®Ĺ": 6482,
      "æłħæł¼åĪĨæŀĲä¸ŃçļĦ": 6483,
      "æłħæł¼å·¥åħ·é¢Ħå¤ĦçĲĨ": 6484,
      "æłħæł¼æĹ¶åı¯è®¾ç½®": 6485,
      "åºĶå½ĵ": 6486,
      "åºĶçłĶç©¶": 6487,
      "åºĶä½¿çĶ¨çŃīè·ĿæĬķå½±": 6488,
      "éľĢè¦ģæĺ¾ç¤º": 6489,
      "éľĢè¦ģæŃ£ç¡®": 6490,
      "éľĢè¦ģåĪ©çĶ¨": 6491,
      "éľĢè¦ģå®īè£ħ": 6492,
      "éľĢè¦ģçŁ¥": 6493,
      "éľĢè¦ģæĿĥ": 6494,
      "éľĢè¦ģé«ĺåº¦": 6495,
      "éľĢè¦ģè°ĥæķ´": 6496,
      "éľĢè¦ģçĲĨè§£": 6497,
      "éľĢè¦ģåĮºåĪĨ": 6498,
      "éľĢè¦ģå¤§éĩı": 6499,
      "éľĢè¦ģéĽĨæĪĲ": 6500,
      "éľĢè¦ģè½¬æį¢åıĤæķ°": 6501,
      "éľĢè¦ģç»ıè¿ĩ": 6502,
      "éľĢè¦ģæĮīåĩłä½ķç±»åŀĭ": 6503,
      "éľĢè¦ģäººå·¥": 6504,
      "éľĢè¦ģåı¯éĿł": 6505,
      "éľĢè¦ģçĶ¨éĩįæĬķå½±": 6506,
      "éľĢè¦ģä½¿çĶ¨Esri": 6507,
      "éľĢè¦ģæİĮæı": 6508,
      "éľĢè¦ģè½¬æį¢åĲĹ": 6509,
      "ä¸īç±»": 6510,
      "ä¸īåıĤæķ°": 6511,
      "æľ¬åĮºåŁŁ": 6512,
      "å¼Ģæķ°æį®åºĵ": 6513,
      "å¼Ģæķ°æį®çŃī": 6514,
      "åŃĺåľ¨äºİ": 6515,
      "one": 6516,
      "onoi": 6517,
      "ç¨³å®ļ": 6518,
      "æĪĲå¤§æ¯Ķä¾ĭå°º": 6519,
      "æĪĲåĳĺ": 6520,
      "æĪĲçĨ": 6521,
      "ç¼ĸç¨ĭ": 6522,
      "ç¼ĸåĨĻ": 6523,
      "æĸĩä»¶æĺ¯": 6524,
      "æĸĩä»¶åĮħæĭ¬": 6525,
      "æĸĩä»¶æ·»åĬł": 6526,
      "æĸĩä»¶è·¯å¾Ħ": 6527,
      "æĸĩä»¶æŁ¥çľĭ": 6528,
      "æĸĩä»¶é»ĺè®¤": 6529,
      "æĸĩä»¶ç»ĦæĪĲ": 6530,
      "æĸĩä»¶æľĢå¤§": 6531,
      "æĸĩä»¶ä»¥ä¾¿": 6532,
      "æĸĩä»¶éĢļå¸¸ä½¿çĶ¨": 6533,
      "æĸĩä»¶åıĬçĽ¸åħ³": 6534,
      "æĸĩä»¶åĩıå°ı": 6535,
      "æĸĩä»¶å¡«åħ¥": 6536,
      "æĸĩä»¶åĲĮçĽ®å½ķ": 6537,
      "æĶ¯æĮģåº¦": 6538,
      "æĶ¯æĮģåıĤæķ°": 6539,
      "æĶ¯æĮģç¦»": 6540,
      "æĶ¯æĮģLandsat": 6541,
      "æĶ¯æĮģæĿ¡ä»¶": 6542,
      "æĶ¯æĮģçļĦåĿĲæłĩç³»ç»Ł": 6543,
      "æĶ¯æĮģå¤ļç§į": 6544,
      "æĶ¯æĮģå¯¼åĩºä¸º": 6545,
      "æĶ¯æĮģçļĦç©ºéĹ´": 6546,
      "æĶ¯æĮģä¸īç§į": 6547,
      "æĶ¯æĮģçļĦåŁºæľ¬": 6548,
      "æĶ¯æĮģä¸°å¯ĮçļĦ": 6549,
      "æĶ¯æĮģæ·»åĬłåĽ¾å±Ĥ": 6550,
      "æĶ¯æĮģUn": 6551,
      "æĶ¯æĮģå»ºçŃĳçī©": 6552,
      "æĶ¯æĮģçĤ¹çº¿éĿ¢": 6553,
      "æĶ¯æĮģè¶ħè¿ĩ": 6554,
      "æĶ¯æĮģçº¹çĲĨ": 6555,
      "æĶ¯æĮģå¤§æĸĩä»¶": 6556,
      "æĶ¯æĮģå¯¹å¤ļä¸ª": 6557,
      "æĶ¯æĮģçŁ¢éĩıçĵ¦çīĩ": 6558,
      "æĶ¯æĮģåĲĳéĩı": 6559,
      "æĶ¯æĮģåĨħéĥ¨": 6560,
      "æĶ¯æĮģçļĦé«ĺçº§çī¹æĢ§": 6561,
      "æĶ¯æĮģåĴĮåŁ": 6562,
      "åıĤçħ": 6563,
      "åıĤä¸İæĭĵæīĳ": 6564,
      "åĪ°åįķ": 6565,
      "åĪ°è¾¾": 6566,
      "åĪ°ç½ĳç»ľ": 6567,
      "åĪ°CGCS": 6568,
      "åĪ°åľ°çĲĨåĿĲæłĩ": 6569,
      "åĪ°åħ¶ä»ĸ": 6570,
      "åĪ°å¤§æ¯Ķä¾ĭå°º": 6571,
      "åĪ°ç¬¬": 6572,
      "åĪ°Webåľ°åĽ¾": 6573,
      "åĪ°çĶ»å¸ĥ": 6574,
      "åĪ°é¡¶çĤ¹": 6575,
      "åĪ°åĮĹäº¬": 6576,
      "åĪ°æķ°çĻ¾ä¸ª": 6577,
      "åĪ°TBçº§": 6578,
      "åĪ°åľ°åĽ¾çĶ»å¸ĥ": 6579,
      "åĪ°Webåıĳå¸ĥ": 6580,
      "åĪ°å¾®æ³¢": 6581,
      "åĪ°ä¸īç»´åľºæĻ¯": 6582,
      "åĪ°å¤ĦçĲĨå·¥åħ·ç®±ä¸Ń": 6583,
      "åĪ°å·²æľīè¦ģç´łçļĦ": 6584,
      "å±ŀæĢ§æķ°æį®çļĦ": 6585,
      "å±ŀæĢ§æıĲåıĸ": 6586,
      "å±ŀæĢ§æĸĩåŃĹ": 6587,
      "å±ŀæĢ§æķ°æį®å¤ĦçĲĨ": 6588,
      "å±ŀæĢ§éĶĻè¯¯": 6589,
      "å±ŀæĢ§å¯¹è¯Ŀæ¡Ĩä¸Ń": 6590,
      "å±ŀæĢ§è½¬ä¸ºGIS": 6591,
      "è®¾å¤ĩ": 6592,
      "ç¨ĭåı¯ä»¥è¿½": 6593,
      "Geopro": 6594,
      "GeoAI": 6595,
      "GeoDa": 6596,
      "GeoMes": 6597,
      "è·µ": 6598,
      "è¿Ľåħ¥": 6599,
      "æ·¹æ²¡": 6600,
      "åħ¥åºĵ": 6601,
      "åħ¥åı£": 6602,
      "åħ¥ç£ģ": 6603,
      "åħ¥èŀįåĲĪ": 6604,
      "åĽ½æĪĸå¤ļ": 6605,
      "åĽ½æł¼æŀĹ": 6606,
      "alile": 6607,
      "alog": 6608,
      "allels": 6609,
      "alone": 6610,
      "åİĤåķĨ": 6611,
      "ä½įæķ°": 6612,
      "ä½įç§»": 6613,
      "ä½įäºİèµ¤éģĵ": 6614,
      "ç»´çī¹å¾ģ": 6615,
      "ç»´æķ°æį®åŃĺåĤ¨": 6616,
      "åºĵèµĦæºĲ": 6617,
      "åºĵä¸Ńä¿ĿåŃĺ": 6618,
      "æľĢå¤ļ": 6619,
      "æľĢå¸¸è§ģçļĦ": 6620,
      "æľĢä½İ": 6621,
      "æľĢéĩįè¦ģçļĦ": 6622,
      "æľĢåĪĿ": 6623,
      "æľĢåħ¨éĿ¢": 6624,
      "æľĢä½³çļĦéĢīæĭ©": 6625,
      "æľĢé«ĺçļĦåĪĨç±»æĸ¹æ³ķ": 6626,
      "çĲĥéĿ¢åĿĲæłĩ": 6627,
      "åĩºéĹ®é¢ĺ": 6628,
      "åĩºéĩĩæł·": 6629,
      "åĩºåľ°åĽ¾æ¡Ĩ": 6630,
      "åĩºå·¥ä½ľç©ºéĹ´": 6631,
      "åĪ¶æıĲä¾ĽäºĨ": 6632,
      "å¯¼å®ĮæĪĲ": 6633,
      "é¡¹èıľåįķ": 6634,
      "é¡¹æĬķå½±åıĤæķ°": 6635,
      "é¡¹å¼ıæĭŁ": 6636,
      "è¿Ľè¡Įå¤ĦçĲĨ": 6637,
      "è¿Ľè¡Įæĭĵæīĳ": 6638,
      "è¿Ľè¡Įç»Łè®¡": 6639,
      "è¿Ľè¡Įæłħæł¼æķ°æį®": 6640,
      "è¿Ľè¡Įæµıè§Ī": 6641,
      "è¿Ľè¡Įå¤įæĿĤ": 6642,
      "è¿Ľè¡Įè§Ĥæµĭ": 6643,
      "è¿Ľè¡Įä»¥ä¸ĭ": 6644,
      "è¿Ľè¡ĮåĿĲæłĩè½¬æį¢": 6645,
      "è¿Ľè¡Įæī¹éĩıå¤ĦçĲĨ": 6646,
      "è¿Ľè¡Įç®ĢåĮĸ": 6647,
      "è¿Ľè¡ĮèĩªåĬ¨åĮĸ": 6648,
      "è¿Ľè¡ĮåĿ¡åº¦": 6649,
      "è¿Ľè¡Įæ··åĲĪ": 6650,
      "è¿Ľè¡Įç©ºéĹ´æıĴåĢ¼": 6651,
      "è¿Ľè¡ĮæľĢçŁŃè·¯å¾Ħ": 6652,
      "è¿Ľè¡Įå½Ĵ": 6653,
      "è¿Ľè¡ĮåĲĪçĲĨ": 6654,
      "è¿Ľè¡Įä¸īç»´åľ°åĽ¾åı¯è§ĨåĮĸ": 6655,
      "è¿Ľè¡Įè§ĦèĮĥ": 6656,
      "è¿Ľè¡Įè¯Ńä¹ī": 6657,
      "è¿Ľè¡Įç¼©æĶ¾åĴĮ": 6658,
      "è¿Ľè¡Įåľ°åĽ¾åĪĽå»º": 6659,
      "è¿Ľè¡ĮéĢļè§Ĩ": 6660,
      "è¿Ľè¡Įæłħæł¼æķ°åŃ¦è¿Ĳç®Ĺ": 6661,
      "ä¸Ĭä¼ł": 6662,
      "ä¸ĬæĽ´": 6663,
      "ä¸ĬåıłåĬł": 6664,
      "ä¸Ĭéģ¿åħį": 6665,
      "ä¸ĬåŃĺåľ¨": 6666,
      "ä¸Ĭç¬¬": 6667,
      "ä¸Ĭåı³éĶ®éĢīæĭ©": 6668,
      "ä¸ĬåµĮåħ¥": 6669,
      "ä¸Ĭå¢ŀåĬł": 6670,
      "ä¸Ĭä½¿çĶ¨æľĢå¹¿æ³ĽçļĦ": 6671,
      "ä¸ĬçºµåĿĲæłĩ": 6672,
      "ä¸Ĭæĸ¹æĸ¹åĲĳ": 6673,
      "ä¸Ĭå¯¹åľ°çĲĥè¡¨éĿ¢": 6674,
      "çĶ¨äºİè¡¨ç¤º": 6675,
      "çĶ¨äºİæµģ": 6676,
      "çĶ¨äºİDEM": 6677,
      "çĶ¨äºİéģ¥æĦŁå½±åĥı": 6678,
      "çĶ¨äºİå±ķç¤º": 6679,
      "çĶ¨äºİè¿ĳ": 6680,
      "çĶ¨äºİè¯Ħä¼°": 6681,
      "çĶ¨äºİGoogle": 6682,
      "çĶ¨äºİéĩĩéĽĨ": 6683,
      "çĶ¨äºİèĪª": 6684,
      "çĶ¨äºİè¯ĨåĪ«": 6685,
      "çĶ¨äºİçľŁ": 6686,
      "çĶ¨äºİä¸įåĲĮçļĦ": 6687,
      "çĶ¨äºİå¿«éĢŁ": 6688,
      "çĶ¨äºİç¡®ä¿Ŀ": 6689,
      "çĶ¨äºİå·¥ç¨ĭ": 6690,
      "çĶ¨äºİè®¾è®¡": 6691,
      "çĶ¨äºİåŁİå¸Ĥè§ĦåĪĴ": 6692,
      "çĶ¨äºİæµ·æ´ĭ": 6693,
      "çĶ¨äºİèµĦæºĲè°ĥæŁ¥": 6694,
      "çĶ¨äºİå®Ĺåľ°": 6695,
      "çĶ¨äºİåĪ¶ä½ľä¸ĵä¸ļ": 6696,
      "çĶ¨äºİåĪĨæŀĲçļĦéģ¥æĦŁå½±åĥı": 6697,
      "ç»ıè§£": 6698,
      "ç»ıç½ĳç»ľ": 6699,
      "ç»ıåİĨ": 6700,
      "ç»ıåıĳå±ķ": 6701,
      "ç»ıå¸¸ä¿ĿåŃĺ": 6702,
      "å¹³åĿĲæłĩç³»ç»Ł": 6703,
      "å¹³éĵº": 6704,
      "å¹³ç§»åĬł": 6705,
      "å¹³åĪ°äºĮç»´å¹³éĿ¢": 6706,
      "æº¯åĪ°": 6707,
      "æ³¨éĩįåĽ¾å½¢": 6708,
      "åĿĲæłĩç³»ç»ŁåĲİ": 6709,
      "åĿĲæłĩç³»ç»Łè®¾ç½®": 6710,
      "åĿĲæłĩç³»ç»ŁåıĤæķ°": 6711,
      "åĿĲæłĩç³»ç»Łä¹ĭéĹ´": 6712,
      "åĿĲæłĩç³»ç»Łè¯¦è§£": 6713,
      "åĿĲæłĩç³»ç»Łæĺ¯ç¬¬": 6714,
      "åĿĲæłĩç³»ç»ŁéĢļå¸¸ä»¥": 6715,
      "åĿĲæłĩç³»ç»Łä¸İæĬķå½±æ¦Ĥè¿°": 6716,
      "ç²¾åĮĸ": 6717,
      "ç²¾å¯Ĩ": 6718,
      "ç²¾ç»Ĩ": 6719,
      "ç²¾åĩĨåĨľä¸ļ": 6720,
      "ä½ĵçŃī": 6721,
      "ä½ĵè¶ĭåĬ¿": 6722,
      "éģ¥æĦŁæķ°æį®": 6723,
      "éģ¥æĦŁè½¯ä»¶": 6724,
      "éģ¥æĦŁçļĦåŁºç¡Ģ": 6725,
      "éģ¥æĦŁåıĺåĮĸæ£Ģæµĭ": 6726,
      "éģ¥æĦŁçłĶç©¶": 6727,
      "éģ¥æĦŁçļĦåŁºæľ¬åİŁçĲĨ": 6728,
      "éģ¥æĦŁçļĦéĩįè¦ģè¡¥åħħ": 6729,
      "éģ¥æĦŁç³»ç»ŁéĢļå¸¸çĶ±": 6730,
      "éģ¥æĦŁåı¯ä»¥èİ·åıĸ": 6731,
      "ä¿¡æģ¯æĸĩä»¶": 6732,
      "ä¿¡æģ¯æıĲåıĸ": 6733,
      "ä¿¡æģ¯çļĦè¿ĩç¨ĭ": 6734,
      "ä¿¡æģ¯åıĪåħ·æľī": 6735,
      "ä¿¡æģ¯ç³»ç»ŁçļĦæł¸å¿ĥåĬŁèĥ½": 6736,
      "ä¿¡æģ¯åı¯ä»¥è½¬æį¢ä¸º": 6737,
      "æºĲåĳ¨åĽ´": 6738,
      "anech": 6739,
      "è´¦åı·": 6740,
      "è´´åĽ¾": 6741,
      "è´Ńä¹": 6742,
      "ç½ĳè¿ŀ": 6743,
      "ç½ĳåľ°åĽ¾å±ķç¤º": 6744,
      "ç½ĳç«Ļ": 6745,
      "æıĲä¸ĭ": 6746,
      "æıĲé«ĺæķĪ": 6747,
      "org": 6748,
      "orest": 6749,
      "å½±åĥıä¸ŃçļĦ": 6750,
      "å½±åĥıåĪĨç±»": 6751,
      "å½±åĥıåºķåĽ¾": 6752,
      "å½±åĥıæł¡æŃ£": 6753,
      "å½±åĥıæĭ¼æİ¥": 6754,
      "å½±åĥıåŃĲéĽĨ": 6755,
      "å½±åĥıçļĦå·®åĢ¼": 6756,
      "å½±åĥıä¸İä½İ": 6757,
      "ä¸įåĲĮæłĩæ³¨": 6758,
      "ä¸įåĲĮåĮºåŁŁ": 6759,
      "ä¸įåĲĮå¹³åı°": 6760,
      "ä¸įåĲĮè¾ĵåħ¥": 6761,
      "ä¸įåĲĮåŁºåĩĨéĿ¢": 6762,
      "ä¸įåĲĮåľ°çī©": 6763,
      "ä¸įåĲĮé«ĺç¨ĭåŁºåĩĨ": 6764,
      "ä¸įåĲĮåŃĲéĽĨ": 6765,
      "ä¸įåĲĮåĽ¾å±Ĥåı¯ä»¥": 6766,
      "ä¸įåĲĮéĩĩéĽĨæĸ¹æ³ķ": 6767,
      "ä¸įåĲĮåĿĲæłĩç³»ç»Łä¹ĭéĹ´": 6768,
      "ä¸»ç®¡": 6769,
      "ä¸»é¢ĺ": 6770,
      "ä¸»æĵįä½ľ": 6771,
      "ä¸»æľº": 6772,
      "ä¸»åĽ¾åľ¨": 6773,
      "å®ŀä½įç½®": 6774,
      "å®ŀä¸ĸçķĮ": 6775,
      "åįķä¸ĢåĽ¾å±Ĥ": 6776,
      "åįķçĤ¹å®ļä½į": 6777,
      "åįķè¡ĮéĻĲåĪ¶": 6778,
      "»åĬłæĿĥ": 6779,
      "è°·": 6780,
      "éĶĲåĮĸ": 6781,
      "éĽ¨å¤©": 6782,
      "å¸¸çĶ¨è½¯ä»¶": 6783,
      "å¸¸çĶ¨æĵįä½ľ": 6784,
      "å¸¸çĶ¨æł·å¼ı": 6785,
      "å¸¸çĶ¨æıĴä»¶": 6786,
      "å¸¸çĶ¨å¿«": 6787,
      "å¸¸çĶ¨EPSGä»£çłģ": 6788,
      "å¸¸çĶ¨æĬĢå·§": 6789,
      "å¸¸çĶ¨æĬķå½±åĿĲæłĩçļĦ": 6790,
      "å¸¸çĶ¨WebæľįåĬ¡": 6791,
      "å¸¸çĶ¨åĳ½ä»¤è¡Į": 6792,
      "roup": 6793,
      "ropean": 6794,
      "roleum": 6795,
      "æķ°æį®åºĵç³»ç»Ł": 6796,
      "æķ°æį®åºĵå¹¶": 6797,
      "æķ°æį®åºĵæĬĢæľ¯": 6798,
      "æķ°æį®åºĵåĲį": 6799,
      "æķ°æį®åºĵç»ĵåĲĪ": 6800,
      "æķ°æį®åºĵçļĦç©ºéĹ´æī©å±ķ": 6801,
      "æķ°æį®åºĵçļĦæī¹éĩıå¤ĦçĲĨ": 6802,
      "æķ°æį®åºĵåĽ¾å±Ĥç±»åŀĭ": 6803,
      "åĬ¨äºĨ": 6804,
      "åĬ¨ä¼łæĦŁåĻ¨": 6805,
      "åŁŁåĪĨæŀĲåĴĮ": 6806,
      "åŁŁçŃīåĪĨæŀĲ": 6807,
      "ä¾ĭå¦Ĥ": 6808,
      "æ¯ĶåĢ¼": 6809,
      "æ¯ĶéĿŀ": 6810,
      "eneraliz": 6811,
      "ä¸ĭä¸Ģä¸ª": 6812,
      "ä¸ĭæłĩæ³¨": 6813,
      "ä¸ĭéĢļå¸¸": 6814,
      "ä¸ĭè§Ĵ": 6815,
      "ä¸ĭåį³åı¯": 6816,
      "ä¸ĭä¿ĿæĮģ": 6817,
      "ä¸ĭçļĦç©ºéĹ´": 6818,
      "ä¸ĭåıĮåĩ»": 6819,
      "ä¸ĭæĭī": 6820,
      "ä¸ĭåľ°çĲĨåĿĲæłĩä¸İ": 6821,
      "ä¸ĭåįķä½įä¸ºåº¦": 6822,
      "ä¸ĭéľĢåħĪ": 6823,
      "åıĳçĶŁ": 6824,
      "åıĳç¼ĸè¾ĳ": 6825,
      "åıĳæĺİ": 6826,
      "åıĳä¼°ç®Ĺ": 6827,
      "åıĳæĮ¥äºĨ": 6828,
      "æ³¢çº¢å¤ĸ": 6829,
      "è®¡ç®Ĺæĸ°": 6830,
      "è®¡ç®Ĺä½įç½®": 6831,
      "è®¡ç®ĹèĢĮ": 6832,
      "è®¡ç®ĹåĿ¡åº¦": 6833,
      "è®¡ç®Ĺæ±¡æŁĵ": 6834,
      "è®¡ç®ĹæĪĲæľ¬": 6835,
      "è®¡ç®Ĺåħ¬å¼ı": 6836,
      "è®¡ç®Ĺä¸¤æľŁ": 6837,
      "è®¡ç®ĹæľĢçŁŃè·¯å¾Ħ": 6838,
      "è®¡ç®ĹçľŁå®ŀ": 6839,
      "è®¡ç®ĹåıĳçĶŁ": 6840,
      "çŁ¢éĩıåĮºåŁŁ": 6841,
      "çŁ¢éĩıåĩłä½ķ": 6842,
      "çŁ¢éĩıGISæķ°æį®": 6843,
      "çŁ¢éĩıæł¼å¼ıè½¬æį¢": 6844,
      "çŁ¢éĩıè¦ģç´łçļĦ": 6845,
      "çŁ¢éĩıæł¼å¼ıçļĦè¯»åĨĻ": 6846,
      "çŁ¢éĩıåľ°çĲĨæķ°æį®æł¼å¼ı": 6847,
      "åī§çĥĪ": 6848,
      "åĪĽå»ºæĸ°": 6849,
      "åĪĽå»ºæĭĵæīĳ": 6850,
      "åĪĽå»ºåĮºåŁŁ": 6851,
      "åĪĽå»ºç¼ĵåĨ²åĮº": 6852,
      "åĪĽå»ºå¸ĥå±Ģ": 6853,
      "åĪĽå»ºç½ĳæł¼": 6854,
      "åĪĽå»ºåľ°çĲĨæķ°æį®åºĵ": 6855,
      "åĪĽå»ºå¹³æ»ĳ": 6856,
      "åĪĽå»ºæĸĩæľ¬": 6857,
      "åĪĽå»ºèĩªåĬ¨åĮĸ": 6858,
      "åĪĽå»ºçļĦè¦ģç´ł": 6859,
      "åĪĽå»ºèĻļ": 6860,
      "åĪĽå»ºéĩĳåŃĹå¡Ķ": 6861,
      "åĪĽå»ºä¸īç»´åľºæĻ¯": 6862,
      "åĪĽå»ºè¦ģç´łç±»åĴĮç¼ĸè¾ĳ": 6863,
      "åĲİå¯¼åĩº": 6864,
      "åĲİè¢«": 6865,
      "åĲİçĤ¹åĩ»": 6866,
      "åĲİåı¯åľ¨": 6867,
      "åĲİæįŁå¤±": 6868,
      "åĲİåı¯åĲĮæĹ¶": 6869,
      "åĲİé¦ĸ": 6870,
      "åĲİåı³éĶ®éĢīæĭ©": 6871,
      "åĲİåľ¨çĶ»å¸ĥä¸Ĭç»ĺåĪ¶": 6872,
      "åĲİåľ¨å±ŀæĢ§": 6873,
      "åĲİå¤ĦçĲĨåĬ¨æĢģ": 6874,
      "åĲİå¯¹æķ´": 6875,
      "åĲĳæĹ¶": 6876,
      "åĲĳä¸īç»´": 6877,
      "åĲĳä¸ľ": 6878,
      "åĲĳåģıç§»éĩı": 6879,
      "åĲĳæķ£å°Ħ": 6880,
      "åĲĳDijkstra": 6881,
      "åĲĳåĿĲæłĩä¸ĬçļĦ": 6882,
      "åĲĳå¯¼å®ĮæĪĲ": 6883,
      "çº§æĸ¹æ³ķ": 6884,
      "çº§ç¡¬ä»¶": 6885,
      "çº§éģ¥æĦŁæķ°æį®": 6886,
      "å¹¶éĽĨ": 6887,
      "å¹¶æıĲä¾Ľ": 6888,
      "å¹¶æµĭéĩı": 6889,
      "å¹¶åİĭç¼©": 6890,
      "å¹¶å®īè£ħ": 6891,
      "å¹¶ä¿ĿåŃĺä¸º": 6892,
      "å¹¶åĳ½åĲį": 6893,
      "å¹¶åĲ¸æĶ¶": 6894,
      "å¹¶æĶ¯æĮģå¤įæĿĤçļĦ": 6895,
      "å¹¶æİ¨åĩº": 6896,
      "å¹¶è¡Įè®¡ç®Ĺ": 6897,
      "å¹¶éĢīæĭ©åŃĺåĤ¨": 6898,
      "å¹¶å°Ĩç»ĵæŀľ": 6899,
      "å¹¶åıĳç¼ĸè¾ĳ": 6900,
      "ä¸īç»´Web": 6901,
      "ä¸īç»´åľ°å½¢": 6902,
      "ä¸īç»´åı¯è§ĨåĮĸ": 6903,
      "ä¸īç»´å»ºæ¨¡": 6904,
      "ä¸īç»´çªĹåı£": 6905,
      "ä¸īç»´æķ°æį®æĹ¶": 6906,
      "ä¸īç»´GISåľºæĻ¯": 6907,
      "ä¸īç»´åĴĮBIM": 6908,
      "ä¸īç»´ä¸Ģä½ĵ": 6909,
      "ä¸īç»´ç©ºéĹ´ä¿¡æģ¯": 6910,
      "è®¾ç½®æł·å¼ı": 6911,
      "è®¾ç½®åįķä½į": 6912,
      "è®¾ç½®çİ¯å¢ĥ": 6913,
      "è®¾ç½®çĽ®æłĩ": 6914,
      "è®¾ç½®è½¬æį¢åıĤæķ°": 6915,
      "è®¾ç½®åľ°åĽ¾æ¯Ķä¾ĭå°º": 6916,
      "è®¾ç½®åŃĹä½ĵ": 6917,
      "è®¾ç½®å·¥ä½ľç©ºéĹ´": 6918,
      "è®¾ç½®é¡¹çĽ®åĿĲæłĩç³»": 6919,
      "è®¾ç½®åĪĨè¾¨çİĩåĴĮ": 6920,
      "è®¾ç½®åĽ¾å±Ĥæł·å¼ı": 6921,
      "è®¾ç½®ä¸İéĩįæĬķå½±": 6922,
      "æ·»åĬłä¸Ģä¸ª": 6923,
      "æ·»åĬłæıı": 6924,
      "æ·»åĬłGoogle": 6925,
      "æ·»åĬłæĸĩåŃĹ": 6926,
      "æ·»åĬłåľ°åĽ¾æ¡Ĩ": 6927,
      "æ·»åĬłåĪ°åľ°åĽ¾": 6928,
      "æ·»åĬłWMS": 6929,
      "æ·»åĬłåĪĨéļ": 6930,
      "æ·»åĬłåĪ°å¤ĦçĲĨå·¥åħ·ç®±ä¸Ń": 6931,
      "Well": 6932,
      "åıĸå¤ļä¸ªåĽ¾å±ĤçļĦåĩłä½ķ": 6933,
      "åħ¨åĽ¾ä¸ĢèĪ¬": 6934,
      "ä»£æĽ¿": 6935,
      "ä»£åĽ½å®¶åĿĲæłĩç³»": 6936,
      "åĿĲæłĩç³»éĢļå¸¸": 6937,
      "åĿĲæłĩç³»ç»ĵåĲĪ": 6938,
      "åĿĲæłĩç³»æľªçŁ¥": 6939,
      "åĿĲæłĩç³»çļĦåįķä½į": 6940,
      "åĿĲæłĩç³»æĪĸåħ¶": 6941,
      "åĿĲæłĩç³»ä¸ĭéľĢåħĪ": 6942,
      "ç±³ä¹ĺ": 6943,
      "ç±³éĩıçº§": 6944,
      "ç±³ä¸ºåįķä½į": 6945,
      "åĨħæıĲä¾Ľ": 6946,
      "åĨħä¸Ńå¤®ç»ıçº¿": 6947,
      "åĨħæŁĲ": 6948,
      "åĨħåµĮ": 6949,
      "åĨħåľŁåľ°åĪ©çĶ¨": 6950,
      "åĨħæīĢæľīè¦ģç´łç±»": 6951,
      "åĨħçļĦäººåı£": 6952,
      "åĨħä½¿çĶ¨åľ¨çº¿åľ°åĽ¾": 6953,
      "GCP": 6954,
      "æĮīåŃĹæ®µ": 6955,
      "æĮīä½įç½®": 6956,
      "æĮīåĬŁèĥ½": 6957,
      "æĮīå·¥ä½ľ": 6958,
      "æĮīè§ĦåĪĻ": 6959,
      "æĮīæķ°åĢ¼": 6960,
      "æĮīçĽ¸åĲĮ": 6961,
      "æĮīç»Łä¸Ģ": 6962,
      "æĮīç»ıåº¦å¸¦": 6963,
      "æĮīå±ŀæĢ§åĢ¼": 6964,
      "æĮīèĮĥåĽ´æıĲåıĸ": 6965,
      "æĮīåľ°çī©ç±»åŀĭ": 6966,
      "æĮīå±ŀæĢ§åŃĹæ®µçļĦä¸įåĲĮåĢ¼ä½¿çĶ¨ä¸įåĲĮ": 6967,
      "æĮīä½ıä¸Ń": 6968,
      "æĮīç©ºéĹ´èĮĥåĽ´": 6969,
      "æĮīéľĢä»ĺè´¹": 6970,
      "æĮīæĦŁåħ´è¶": 6971,
      "æĮīå±ŀæĢ§æıĲåıĸ": 6972,
      "æĮīçŁ¢éĩıåĮºåŁŁ": 6973,
      "æĮīåĲĳå¯¼å®ĮæĪĲ": 6974,
      "ä¿Ŀè¯ģ": 6975,
      "æŃ£åĢ¼": 6976,
      "æŃ£è½´": 6977,
      "æŃ£å¸¸é«ĺ": 6978,
      "æŃ£åľ¨è¿ģç§»åĪ°": 6979,
      "æŃ£æĸ¹å½¢": 6980,
      "WebP": 6981,
      "WebåºĶçĶ¨": 6982,
      "WebæĬĢæľ¯": 6983,
      "Webåľ°åĽ¾ä¸Ĭ": 6984,
      "çł´": 6985,
      "çłįä¼": 6986,
      "åħīå¹¶åĲ¸æĶ¶": 6987,
      "ç®¡æľīè¿ĻäºĽ": 6988,
      "ç®¡ç½ĳè¿ŀ": 6989,
      "åŁºäºİWGS": 6990,
      "åŁºäºİé¡¹çĽ®": 6991,
      "åŁºäºİç½ĳç»ľ": 6992,
      "åŁºäºİåħĭ": 6993,
      "åŁºäºİJSON": 6994,
      "åŁºäºİæĹ¶éĹ´": 6995,
      "åŁºäºİä¼¼": 6996,
      "åŁºäºİPostgreSQL": 6997,
      "åŁºäºİå¯¹è±¡": 6998,
      "åŁºäºİçĶµç£ģæ³¢": 6999,
      "åŁºäºİLeaflet": 7000,
      "åŁºäºİå¤§éĩı": 7001,
      "åŁºäºİæ¨¡æĿ¿": 7002,
      "åŁºäºİåħ¬åħ±": 7003,
      "åŁºäºİåľ°ç»Łè®¡": 7004,
      "åŁºäºİåĪĨå¸ĥå¼ı": 7005,
      "åŁºäºİDel": 7006,
      "åŁºäºİIU": 7007,
      "åŁºäºİVor": 7008,
      "åŁºäºİXML": 7009,
      "åŁºäºİåľ°å¿ĥ": 7010,
      "åŁºäºİéĿĴå²Ľ": 7011,
      "æ¨¡åŀĭæĸĩä»¶": 7012,
      "æ¨¡åŀĭçªĹåı£": 7013,
      "æ¨¡åŀĭçĶ»å¸ĥ": 7014,
      "æ¨¡åŀĭä¼ļèĩªåĬ¨": 7015,
      "æ¨¡åŀĭçļĦè¾ĵåħ¥": 7016,
      "èĩªåĿĲæłĩç³»ç»Ł": 7017,
      "èĩªæĶ¿": 7018,
      "èĩªçĽ¸äº¤": 7019,
      "èĩªå·±çļĦ": 7020,
      "ç¬¦åĲĪæŃ£": 7021,
      "çĽ¸å¯¹äºİ": 7022,
      "çĽ¸ä¼¼": 7023,
      "çĽ¸åĪĩ": 7024,
      "the": 7025,
      "thometr": 7026,
      "ĠPet": 7027,
      "ĠPar": 7028,
      "ĠPython": 7029,
      "åĮĹæŀģ": 7030,
      "åĮĹæĸĹ": 7031,
      "éĽĨçļĦåĨħå®¹": 7032,
      "éĽĨä¸Ńç¨ĭåº¦": 7033,
      "etation": 7034,
      "eters": 7035,
      "etwork": 7036,
      "ä¸ļè°ĥæŁ¥": 7037,
      "åĪĻå¼º": 7038,
      "åĪĻåı¦": 7039,
      "åĪĻåı¯ä»¥ä½¿çĶ¨": 7040,
      "åĪĻæĺ¯éģ¥æĦŁ": 7041,
      "åĪĻè¿ĩäºİéĽ": 7042,
      "çĶŁéķ¿": 7043,
      "äºĨåľ°åĽ¾": 7044,
      "äºĨArc": 7045,
      "äºĨç»Ĩ": 7046,
      "äºĨä¸Ńå¤®ç»ıçº¿": 7047,
      "äºĨGCJ": 7048,
      "äºĨè§Ĵåº¦": 7049,
      "äºĨæķ°åįģ": 7050,
      "äºĨä¼łç»Ł": 7051,
      "äºĨæķ°çĻ¾ä¸ª": 7052,
      "äºĨä¸ĸçķĮ": 7053,
      "äºĨGISæķ°æį®çļĦ": 7054,
      "äºĨçĤ¹çº¿éĿ¢": 7055,
      "äºĨæ¤ŃçĲĥä½ĵåıĤæķ°": 7056,
      "äºĨPBçº§": 7057,
      "äºĨå¤ļæ¬¡": 7058,
      "äºĨå¯¹ç©ºéĹ´æķ°æį®ç±»åŀĭåĴĮ": 7059,
      "äºĨGeoAI": 7060,
      "äºĨéģ¥æĦŁçłĶç©¶": 7061,
      "éĹ®åı·": 7062,
      "å°ıèĮĥåĽ´": 7063,
      "å°ıåĮºåŁŁ": 7064,
      "å°ıæī¹éĩı": 7065,
      "å°ıå·®å¼Ĥ": 7066,
      "å°ıç¨ĭåº¦": 7067,
      "å°ıåľ°åĽ¾æĺ¾ç¤º": 7068,
      "å°ıåĪĻè¿ĩäºİéĽ": 7069,
      "ä¸Ģä¸ªé¡¹çĽ®": 7070,
      "ä¸Ģä¸ªåıĤèĢĥ": 7071,
      "ä¸Ģä¸ªåĥıç´ł": 7072,
      "ä¸Ģä¸ªå¥½": 7073,
      "ä¸Ģä¸ªå®Įæķ´çļĦ": 7074,
      "ä¸Ģä¸ªå¤¹": 7075,
      "ä¸Ģä¸ªåľ°çĲĨä¿¡æģ¯ç³»ç»Ł": 7076,
      "ä¸Ģä¸ªGeoPackageåį³åı¯": 7077,
      "çİĩå¼ķ": 7078,
      "åŃĹæ®µéĢīé¡¹åį¡": 7079,
      "åŃĹæ®µåĪĨä¸º": 7080,
      "åŃĹæ®µç»ĵæŀĦ": 7081,
      "åŃĹæ®µçļĦæķ°åĢ¼": 7082,
      "åŃĹæ®µåĴĮåĿĲæłĩç³»ç»Ł": 7083,
      "åŃĹæ®µå¤ĦçĲĨä¸įå¤Ł": 7084,
      "åŃĹæ®µå°Ĩå¤ĸ": 7085,
      "ç¼ĸè¾ĳæķ°æį®": 7086,
      "ç¼ĸè¾ĳç²¾åº¦": 7087,
      "ç¼ĸè¾ĳåħ±äº«": 7088,
      "ç¼ĸè¾ĳçļĦæŃ¥éª¤": 7089,
      "ç¼ĸè¾ĳèĬĤçĤ¹": 7090,
      "ç¼ĸè¾ĳå®ĮæĪĲåĲİ": 7091,
      "ç¼ĸè¾ĳåĴĮç®¡çĲĨ": 7092,
      "ç¼ĸè¾ĳå·²æľīè¦ģç´łçļĦ": 7093,
      "ç¼ĸè¾ĳè¾ħåĬ©": 7094,
      "ç¼ĸè¾ĳä¸İæķ°åŃĹåĮĸ": 7095,
      "åħ¶æ¤ŃçĲĥ": 7096,
      "åħ¶è½¬æį¢ä¸º": 7097,
      "åħ¶æľĢå¤§": 7098,
      "åħ¶å®ĺ": 7099,
      "åħ¶å¾Ģ": 7100,
      "åħ¶çĽ¸äºĴ": 7101,
      "åħ¶å¹¿æ³ĽçļĦ": 7102,
      "åħ¶ä¼ĺåĬ¿åĮħæĭ¬": 7103,
      "åħ¶ç©ºéĹ´ç´¢å¼ķåĴĮ": 7104,
      "åħ¶éķ¿åįĬè½´": 7105,
      "åħ¶åĢ¼åŁºäºİè¡¨è¾¾å¼ı": 7106,
      "å±ķå¼Ģæķ°æį®åºĵ": 7107,
      "å±ķå¹³åĪ°äºĮç»´å¹³éĿ¢": 7108,
      "ç§įçī¹æĢ§": 7109,
      "ç§įæłħæł¼åĴĮ": 7110,
      "ç§įç±»åĮºåĪĨ": 7111,
      "ä¹ĭåĪĻéľĢè¦ģ": 7112,
      "ä¹ĭçĪ": 7113,
      "åºĶçĶ¨é¢ĨåŁŁ": 7114,
      "åºĶçĶ¨éľĢæ±Ĥ": 7115,
      "åºĶçĶ¨åĪĻéľĢè¦ģ": 7116,
      "åºĶçĶ¨æľĢéĩįè¦ģçļĦ": 7117,
      "åıĤæķ°æıĲåıĸ": 7118,
      "åıĤæķ°è¯¦è§£": 7119,
      "åıĤæķ°ä¸İWGS": 7120,
      "æ¯Ķä¾ĭèĮĥåĽ´": 7121,
      "æ¯Ķä¾ĭåĽłåŃĲ": 7122,
      "èĮĥåĽ´çŃī": 7123,
      "èĮĥåĽ´åĪĨçº§": 7124,
      "èĮĥåĽ´æĬķå½±åľ¨ä¸Ģä¸ª": 7125,
      "else": 7126,
      "åħĥå®ļä¹ī": 7127,
      "äº¤éĽĨ": 7128,
      "äº¤åıīçĤ¹çŃī": 7129,
      "äº¤åĮĸæ³ķ": 7130,
      "æĸ°çĶ¨æĪ·": 7131,
      "æĸ°çīĪæľ¬": 7132,
      "æĸ°çļĦGIS": 7133,
      "æĸ°å¢ŀ": 7134,
      "æĸ°åĪĨç»Ħ": 7135,
      "æĸ°è¦ģç´łç±»åĴĮç¼ĸè¾ĳ": 7136,
      "å°ºçŃī": 7137,
      "è§Ĩè§īæķĪæŀľ": 7138,
      "è§ĨåŁŁçŃīåĪĨæŀĲ": 7139,
      "è¡¨ç¤ºç¦»": 7140,
      "è¡¨ç¤ºé«ĺç¨ĭ": 7141,
      "è¡¨ç¤ºä¸Ńå¤®ç»ıçº¿": 7142,
      "è¡¨ç¤ºåįĹ": 7143,
      "è¡¨ç¤ºåľ°åĽ¾ä¸Ĭ": 7144,
      "è¡¨ç¤ºåľ°çĲĨè¦ģç´ł": 7145,
      "è¡¨ç¤ºå¹³éĿ¢": 7146,
      "è¡¨ç¤ºåľ°çĲĥè¡¨éĿ¢": 7147,
      "è¡¨ç¤ºåľ°åĽ¾çļĦ": 7148,
      "è¡¨ç¤ºåľ°éĿ¢é«ĺç¨ĭ": 7149,
      "è¡¨ç¤ºä¸ľè¥¿": 7150,
      "è¡¨ç¤ºåľ¨èĮĥåĽ´åĨħ": 7151,
      "è¡¨ç¤ºéĿ¢åŁŁ": 7152,
      "è¡¨ç¤ºä¸įåľ¨": 7153,
      "è¡¨ç¤ºä¸Ģä¸ªåĥıç´ł": 7154,
      "çī¹æ®Ĭå¤ĦçĲĨ": 7155,
      "ç±»åŀĭä¹ĭä¸Ģ": 7156,
      "ç±»åŀĭæľīåĽĽ": 7157,
      "çİ°åľº": 7158,
      "çİ°ç©ºéĹ´åħ³ç³»": 7159,
      "çİ°è¡ĮçļĦé«ĺç¨ĭåŁºåĩĨ": 7160,
      "çİ°å®ŀä¸ĸçķĮ": 7161,
      "ç®¡çĲĨç©ºéĹ´æķ°æį®": 7162,
      "ç®¡çĲĨç©ºéĹ´æķ°æį®çļĦ": 7163,
      "ç®¡çĲĨæµ·éĩı": 7164,
      "ç®¡çĲĨçŃīé¢ĨåŁŁ": 7165,
      "ç®¡çĲĨå¤§éĩı": 7166,
      "ç®¡çĲĨåĴĮéķ¿æľŁ": 7167,
      "ç®¡çĲĨæķ°æį®åĴĮ": 7168,
      "ç®¡çĲĨåĽ¾å±ĤåĴĮç¬¦åı·": 7169,
      "ç®¡çĲĨå¹¶å®īè£ħ": 7170,
      "ĠCM": 7171,
      "ĠCGCS": 7172,
      "ĠCSV": 7173,
      "ĠCity": 7174,
      "ĠCloud": 7175,
      "ĠCOMPR": 7176,
      "ĠClust": 7177,
      "ä¸ŃçļĦçĤ¹": 7178,
      "ä¸ŃçļĦä½įç½®": 7179,
      "ä¸ŃçļĦä¿ĿåŃĺ": 7180,
      "ä¸ŃçļĦçŁ¢éĩıæķ°æį®": 7181,
      "ä¸ŃçļĦç»ıçº¬åº¦": 7182,
      "ä¸ŃçļĦéĩĩæł·çĤ¹": 7183,
      "ä¸ŃçļĦèĩªå®ļä¹ī": 7184,
      "ä¸ŃçļĦåºĶçĶ¨åĮħæĭ¬": 7185,
      "ä¸ŃçļĦéĩįæĬķå½±åĽ¾å±Ĥ": 7186,
      "ä¸ŃçļĦæīĢæľīæĵįä½ľéĥ½": 7187,
      "ä¸ŃçļĦåľ°çĲĨå®ŀä½ĵ": 7188,
      "ä¸ŃçļĦä¸įåĲĮåĽ¾å±Ĥåı¯ä»¥": 7189,
      "æĬĢèĥ½": 7190,
      "æĮĩæłĩ": 7191,
      "æĮĩä»İ": 7192,
      "æĮĩåįĹ": 7193,
      "æĮĩçļĦæĸ¹åĲĳ": 7194,
      "ä¼ĺå¼Ĥ": 7195,
      "ç²¾åº¦é«ĺ": 7196,
      "ç²¾åº¦ä¼ĺäºİ": 7197,
      "ç²¾åº¦çŃīçº§": 7198,
      "ç²¾åº¦éĢļå¸¸åľ¨": 7199,
      "ç²¾åº¦åı¯è¾¾åİĺç±³çº§": 7200,
      "ç²¾åº¦æľĢé«ĺçļĦåĪĨç±»æĸ¹æ³ķ": 7201,
      "æĭĵæīĳç¼ĸè¾ĳ": 7202,
      "æĭĵæīĳåľ¨GIS": 7203,
      "æĭĵæīĳæ£ĢæŁ¥": 7204,
      "æĭĵæīĳéĶĻè¯¯": 7205,
      "æĭĵæīĳå¹¶è®¾ç½®": 7206,
      "æĭĵæīĳåĲİä½¿çĶ¨": 7207,
      "æĭĵæīĳå®¹å·®": 7208,
      "æĭĵæīĳå·¥åħ·æ£ĢæŁ¥": 7209,
      "æĭĵæīĳè¿Ľè¡ĮæľĢçŁŃè·¯å¾Ħ": 7210,
      "æĭĵæīĳæ·»åĬłåĪ°åľ°åĽ¾": 7211,
      "MapSer": 7212,
      "ç»Ħç½ĳ": 7213,
      "ç»Ħæľīåºı": 7214,
      "ç»ĦåĲĪå¤ļä¸ª": 7215,
      "æłĩåĩĨäºĮ": 7216,
      "æłĩåĩĨçļĦæĬķå½±": 7217,
      "æłĩåĩĨæķ°æį®äº¤æį¢": 7218,
      "æłĩåĩĨçļĦæĬķå½±åĿĲæłĩç³»": 7219,
      "æłĩåĩĨè§Ħå®ļ": 7220,
      "æłĩåĩĨé¢Ħå¤ĦçĲĨæµģç¨ĭ": 7221,
      "æłĩåĩĨåħ¥åºĵ": 7222,
      "ä¸ŃåĽ½èµĦæºĲ": 7223,
      "ä¸ŃåĽ½é¢Ĩ": 7224,
      "ä¸ŃåĽ½ç¬¬": 7225,
      "ä¸ŃåĽ½éĩĩçĶ¨": 7226,
      "ä¸ŃåĽ½é«ĺåĪĨè¾¨çİĩ": 7227,
      "ä¸ŃåĽ½GISå·¥ä½ľä¸Ń": 7228,
      "ä¸ŃåĽ½é«ĺåĪĨç³»åĪĹåį«æĺŁ": 7229,
      "ä¸ŃåĽ½äºĴèģĶç½ĳåľ°åĽ¾æľįåĬ¡": 7230,
      "ä¸ŃåĽ½åħ¨åĽ¾ä¸ĢèĪ¬": 7231,
      "ä¸ŃåĽ½çİ°è¡ĮçļĦé«ĺç¨ĭåŁºåĩĨ": 7232,
      "è½¯ä»¶ä¸¤": 7233,
      "è½¯ä»¶æĸ¹éĿ¢": 7234,
      "è½¯ä»¶çļĦæĥħåĨµä¸ĭ": 7235,
      "è½¯ä»¶è¿ĺåĮħæĭ¬": 7236,
      "è½¯ä»¶æİĪæĿĥ": 7237,
      "è½¯ä»¶æĶ¯æĮģåº¦": 7238,
      "çī©è´¨": 7239,
      "çī©çĲĨéĩı": 7240,
      "ä½įç½®åĽ¾": 7241,
      "ä½įç½®çŃī": 7242,
      "ä½įç½®ä¹Ł": 7243,
      "ä½įç½®ç»ĺåĪ¶": 7244,
      "ä½įç½®ä¸įæŃ£ç¡®": 7245,
      "ä½įç½®åĢ¼çļĦæĸ¹æ³ķ": 7246,
      "ä¸»è¦ģåĮħæĭ¬": 7247,
      "ä¸»è¦ģåıĺå½¢": 7248,
      "ä¸»è¦ģéħįç½®": 7249,
      "ä¸»è¦ģçī¹å¾ģ": 7250,
      "ä¸»è¦ģè¿Ĳè¡Į": 7251,
      "ä¸»è¦ģåĪĨä¸º": 7252,
      "ä¸»è¦ģç¬¦åı·åĮĸ": 7253,
      "ä¸»è¦ģæĸ¹æ³ķåĮħæĭ¬": 7254,
      "ä¸»è¦ģåĬŁèĥ½åĮħæĭ¬": 7255,
      "ä¸»è¦ģåľ¨çº¿åľ°åĽ¾": 7256,
      "ä¸»è¦ģçļĦç»¼åĲĪ": 7257,
      "ä¸»è¦ģåĮħæĭ¬ä»¥ä¸ĭ": 7258,
      "ä¸»è¦ģç¼ĸè¾ĳåĬŁèĥ½åĮħæĭ¬": 7259,
      "ä¸»è¦ģç±»åŀĭåĮħæĭ¬": 7260,
      "ä¸»è¦ģçļĦGNSS": 7261,
      "ä¸»è¦ģæł¼å¼ıåĮħæĭ¬": 7262,
      "ä¸»è¦ģçĶ¨äºİè®¾è®¡": 7263,
      "ä¸»è¦ģåºĶçĶ¨é¢ĨåŁŁ": 7264,
      "éĶ®å¹³ç§»": 7265,
      "ĠProfile": 7266,
      "ĠProçķĮéĿ¢": 7267,
      "ĠProå·¥åħ·ç®±": 7268,
      "ĠProæĶ¯æĮģå¤ļ": 7269,
      "ĠProå¼Ģå§ĭ": 7270,
      "ĠProä¸ŃåĪĽå»º": 7271,
      "ĠProåİŁçĶŁæĶ¯æĮģ": 7272,
      "ĠProä¸Ńæīĵå¼Ģ": 7273,
      "ĠProæĺ¯åŁºäºİ": 7274,
      "ĠProæĺ¯åħ¶": 7275,
      "ĠProçļĦåľ°çĲĨå¤ĦçĲĨå·¥åħ·": 7276,
      "ĠProæĺ¯Esriåħ¬åı": 7277,
      "ĠProä¸Ńå°Ĩ": 7278,
      "èī²åĿĹ": 7279,
      "èī²å½©": 7280,
      "åŃĺåĤ¨æł¼å¼ı": 7281,
      "åŃĺåĤ¨åĩłä½ķ": 7282,
      "åŃĺåĤ¨å»ºè®®ä½¿çĶ¨": 7283,
      "åŃĺåĤ¨ä¸īç»´æķ°æį®çļĦ": 7284,
      "åŃĺåĤ¨ä¸Ģä¸ªæĪĸå¤ļä¸ª": 7285,
      "åŃĺåĤ¨ä½įæķ°": 7286,
      "ç«ŀäº": 7287,
      "è£Ĥçº¿": 7288,
      "åĪ«æĪĸè¦ģç´ł": 7289,
      "å¤ĸéľĢè¦ģæ³¨æĦı": 7290,
      "å¤ĸä¸¢å¤±": 7291,
      "å¤ĸä¸ļè°ĥæŁ¥": 7292,
      "ä»İArcGIS": 7293,
      "ä»İæĹł": 7294,
      "ä»İå·²æľī": 7295,
      "ä»İæķ°æį®ç®¡çĲĨ": 7296,
      "ä»İçĥŃçº¢å¤ĸæ³¢æ®µ": 7297,
      "ä»İå°ıæ¯Ķä¾ĭå°º": 7298,
      "ä»İä¸Ģä¸ªæĪĸå¤ļä¸ª": 7299,
      "ä»İæıĴåħ¥éĢīé¡¹åį¡": 7300,
      "ä»İæł¹æľ¬": 7301,
      "ä»İä¸ľç»ı": 7302,
      "ä»İåĲĦç§į": 7303,
      "ä»İç´«å¤ĸ": 7304,
      "ä»İçĤ¹æķ°æį®æĪĸ": 7305,
      "ä»İæµħåĪ°": 7306,
      "éĢĤçĶ¨äºİåŁİå¸Ĥè§ĦåĪĴ": 7307,
      "æłĩæ³¨ç±»": 7308,
      "æłĩæ³¨å±ŀæĢ§": 7309,
      "æłĩæ³¨è®¾ç½®": 7310,
      "æłĩæ³¨åĬŁèĥ½": 7311,
      "æłĩæ³¨åĨ²": 7312,
      "æłĩæ³¨éĢīé¡¹åį¡": 7313,
      "æłĩæ³¨æĸ¹å¼ı": 7314,
      "æłĩæ³¨éĩįåıł": 7315,
      "æłĩæ³¨æĸĩåŃĹ": 7316,
      "æłĩæ³¨åı¯èĥ½": 7317,
      "æłĩæ³¨æł·æľ¬": 7318,
      "æłĩæ³¨ä¼ĺåħĪ": 7319,
      "æłĩæ³¨è¿ĩå¯Ĩ": 7320,
      "æłĩæ³¨åĪ°åįķ": 7321,
      "æłĩæ³¨çĽ¸å¯¹äºİ": 7322,
      "æĺŁç»Ħç½ĳ": 7323,
      "éĩĩçº³": 7324,
      "åĪĨç±»ç»ĵæŀľ": 7325,
      "åĪĨç±»æĺ¯å°Ĩ": 7326,
      "åĪĨç±»çŃīä¿¡æģ¯": 7327,
      "åľ¨QGISå·¦ä¾§": 7328,
      "å±Ģéĥ¨": 7329,
      "åĩłä¸ªåįĬå¾Ħ": 7330,
      "ä¼łéĢĴç©ºéĹ´åıĤèĢĥä¿¡æģ¯": 7331,
      "éĹ®é¢ĺåĮħæĭ¬": 7332,
      "åĬŁèĥ½åĮº": 7333,
      "åĬŁèĥ½èĩªåĬ¨": 7334,
      "åĬŁèĥ½è¦ģæ±Ĥ": 7335,
      "åĬŁèĥ½å¼ºå¤§": 7336,
      "åĬŁèĥ½çĽ¸å¯¹": 7337,
      "åĬŁèĥ½å¹¶è®¾ç½®": 7338,
      "åĬŁèĥ½åīįç¡®ä¿Ŀ": 7339,
      "åĬŁèĥ½åĪ¶ä½ľä¸ĵä¸ļ": 7340,
      "åĬŁèĥ½åľ¨åĽ¾å±Ĥå±ŀæĢ§": 7341,
      "åĬŁèĥ½çļĦçĶ¨æĪ·åı¯ä»¥": 7342,
      "åĬŁèĥ½æľĢåħ¨éĿ¢": 7343,
      "æĵįä½ľä¹ĭä¸Ģ": 7344,
      "æĵįä½ľåŁºäºİSQLite": 7345,
      "æĵįä½ľæĢ§çļĦåŁºç¡Ģ": 7346,
      "ication": 7347,
      "icode": 7348,
      "iceè½¯ä»¶": 7349,
      "æĻ°åı¯è¯»": 7350,
      "æĻķæķĪæŀľ": 7351,
      "å·®åĪĨ": 7352,
      "å·®è®¡ç®Ĺ": 7353,
      "å·®å¯¼èĩ´çļĦ": 7354,
      "æŀľåħ±äº«": 7355,
      "è§£çŃĶ": 7356,
      "çĽ´çº¿": 7357,
      "çĽ´è§Ĥ": 7358,
      "éĢļå¸¸åĮħæĭ¬": 7359,
      "éĢļå¸¸åı¯è§Ĩ": 7360,
      "éĢļå¸¸ä½ľä¸º": 7361,
      "éĢļå¸¸ä¼ĺäºİ": 7362,
      "éĢļå¸¸åĨħåŃĺ": 7363,
      "éĢļå¸¸éĢīEp": 7364,
      "éĢļå¸¸éĢļè¿ĩçĤ¹": 7365,
      "éĢļå¸¸åŁºäºİDel": 7366,
      "éĢļå¸¸æĮĩä»İ": 7367,
      "æĿ¥å®ļä¹ī": 7368,
      "æĿ¥è¡¨è¾¾": 7369,
      "æĿ¥å®ŀçİ°": 7370,
      "æĿ¥ç»Ħç»ĩ": 7371,
      "æĿ¥å®ļä½į": 7372,
      "æĿ¥è¶Ĭ": 7373,
      "æĿ¥å¿«éĢŁ": 7374,
      "æĿ¥æĪĲåĥı": 7375,
      "æĿ¥è¿ĳä¼¼": 7376,
      "æĿ¥åĨ³å®ļ": 7377,
      "æĿ¥è¡¨ç¤ºè¿ŀç»Ńè¡¨éĿ¢": 7378,
      "æĿ¥æ¯ĶéĿŀ": 7379,
      "æĿ¥è®¡ç®Ĺä½įç½®": 7380,
      "æĿ¥è®¾ç½®è½¬æį¢åıĤæķ°": 7381,
      "æĿ¥èĩªæĶ¿": 7382,
      "æĿ¥ç®¡çĲĨç©ºéĹ´æķ°æį®": 7383,
      "åĮºåŁŁèĮĥåĽ´": 7384,
      "åĮºåŁŁç»Łè®¡": 7385,
      "åĮºåŁŁåĲĪå¹¶": 7386,
      "åĮºåŁŁåŁºåĩĨéĿ¢": 7387,
      "åĮºåŁŁçļĦåĢ¼": 7388,
      "åĮºåŁŁèµĭ": 7389,
      "åĮºåŁŁæĮģç»Ń": 7390,
      "åĮºåŁŁåĪĻä½¿çĶ¨": 7391,
      "æıĲä¾Ľè¶Ĭ": 7392,
      "æıĲä¾Ľä¼ĺäºİ": 7393,
      "æıĲä¾Ľå·²çŁ¥": 7394,
      "æıĲä¾Ľåħ¨å¤©åĢĻ": 7395,
      "æıĲä¾Ľæī©å±ķæ¨¡åĿĹ": 7396,
      "æıĲä¾Ľå¼¹æĢ§": 7397,
      "æıĲä¾Ľåľ°çĲĨç¼ĸçłģ": 7398,
      "ç¬¦åı·å¤§å°ı": 7399,
      "æ¸¸æłĩ": 7400,
      "ä½ĨWGS": 7401,
      "ä½Ĩéļ": 7402,
      "ä½Ĩä¼ļ": 7403,
      "ä½Ĩå¢¨åį¡æīĺæĬķå½±": 7404,
      "ä½Ĩä¸Ńå¤®ç»ıçº¿": 7405,
      "ä½ĨTIN": 7406,
      "ä½Ĩéĥ¨åĪĨ": 7407,
      "ä½Ĩç»ĵæŀľ": 7408,
      "ä½Ĩä»į": 7409,
      "ä½Ĩé«ĺåħīè°±": 7410,
      "ä½ĨåĿĲæłĩåĢ¼": 7411,
      "ä½Ĩé«ĺè´¨éĩı": 7412,
      "ä½Ĩå¤§æĸĩä»¶": 7413,
      "ä½Ĩä¸įåĩĨç¡®": 7414,
      "ä½Ĩä»ħåľ¨": 7415,
      "ä½Ĩå¯¹åĨħ": 7416,
      "ä½ĨéľĢè¦ģå¤§éĩı": 7417,
      "æķ°æį®çļĦæķ°æį®": 7418,
      "æķ°æį®çļĦæŃ¥éª¤": 7419,
      "æķ°æį®çļĦæľĢä¾¿æį·": 7420,
      "æķ°æį®çļĦå¸¸çĶ¨WebæľįåĬ¡": 7421,
      "å°Ħçī¹æĢ§": 7422,
      "å°Ħä¸ºCADåĽ¾å±Ĥ": 7423,
      "åŃ¦ä¸ĬçļĦ": 7424,
      "åŃ¦é¢ĨåŁŁ": 7425,
      "åŃ¦åĴĮæ°ĶåĢĻ": 7426,
      "åŃ¦çļĦæıĴåĢ¼æĸ¹æ³ķ": 7427,
      "å¯Ĩçłģ": 7428,
      "è§Ĵå·®å¼Ĥ": 7429,
      "éĿ¢ç§¯çļĦä½įç½®": 7430,
      "éĿ¢ç§¯æ¯Ķè¾ĥ": 7431,
      "éĿ¢ç§¯åĴĮè·Ŀç¦»æµĭéĩı": 7432,
      "å·¥ä½ľçļĦåŁºç¡Ģ": 7433,
      "é¡¹çĽ®çĽ®æłĩ": 7434,
      "é¡¹çĽ®éľĢæ±Ĥ": 7435,
      "é¡¹çĽ®çļĦå¤ļ": 7436,
      "é¡¹çĽ®å¹¶éĢīæĭ©åŃĺåĤ¨": 7437,
      "å¹³åı°ä¹ĭéĹ´": 7438,
      "å¹³åı°èİ·åıĸ": 7439,
      "å¹³åı°çļĦåĿĲæłĩç³»ç»Ł": 7440,
      "å¹³åı°ä½¿çĶ¨çļĦ": 7441,
      "å¹³åı°å¯¹æķĻèĤ": 7442,
      "è´¨å¿ĥ": 7443,
      "è´¨ä¸Ĭæľī": 7444,
      "è´¨åľ°åĽ¾éĢļè¿ĩ": 7445,
      "æĬĢæľ¯è¯¦è§£": 7446,
      "æĬĢæľ¯ä¸İGIS": 7447,
      "æĬĢæľ¯åı¯è¾¾åİĺç±³çº§": 7448,
      "æĬĢæľ¯åı¯æ£Ģæµĭ": 7449,
      "éķ¿åĬ¿": 7450,
      "éķ¿ä¸īè§Ĵå½¢": 7451,
      "éķ¿çļĦåľ°çĲĥ": 7452,
      "ç¦»åĬłæĿĥ": 7453,
      "æĺ¾èĳ": 7454,
      "å·²æŃ£ç¡®": 7455,
      "å·²å®īè£ħ": 7456,
      "å·²è¿ŀç»Ń": 7457,
      "å·²æİ¨èįĲ": 7458,
      "å·²æĪĲåĬŁ": 7459,
      "å·²åģľ": 7460,
      "å·²éĢĲæŃ¥æ·ĺæ±°": 7461,
      "å·²å½»åºķ": 7462,
      "å·²å®£å¸ĥ": 7463,
      "å·²ç»ıåıĳå±ķ": 7464,
      "åį«æĺŁå½±åĥı": 7465,
      "åį«æĺŁé¡¹çĽ®": 7466,
      "åį«æĺŁå¯¼èĪª": 7467,
      "åį«æĺŁä¿¡åı·": 7468,
      "åį«æĺŁåºĶçĶ¨ä¸Ń": 7469,
      "åį«æĺŁä»¥æĿ¥": 7470,
      "åį«æĺŁåĮħæĭ¬Landsat": 7471,
      "åį«æĺŁè®¡åĪĴ": 7472,
      "ç¼ĵæħ¢": 7473,
      "æĸ¹æ³ķæ±ĩæĢ»": 7474,
      "æĸ¹æ³ķä¸İå®ŀ": 7475,
      "æŃ¥åĪĨç±»": 7476,
      "å¿ĥåĿĲæłĩç³»ç»Ł": 7477,
      "å¿ĥç»ıçº¿": 7478,
      "å¿ĥåĪĨåıĳ": 7479,
      "è·¯åł": 7480,
      "è·Ŀç¦»åĬłæĿĥ": 7481,
      "andar": 7482,
      "andalone": 7483,
      "æ³¢æ®µæķ°": 7484,
      "æ³¢æ®µåŃĺåĤ¨": 7485,
      "æ³¢æ®µçļĦæķ°æį®": 7486,
      "æ³¢æ®µå½©èī²": 7487,
      "æ³¢æ®µå½±åĥıçļĦå·®åĢ¼": 7488,
      "æ¯Ķä¾ĭå°ºåľ°å½¢åĽ¾": 7489,
      "æ¯Ķä¾ĭå°ºç«ĭä½ĵ": 7490,
      "æ¯Ķä¾ĭå°ºåĴĮåĪĨè¾¨çİĩ": 7491,
      "æ¯Ķä¾ĭå°ºä¸İåĪĨè¾¨çİĩ": 7492,
      "EPSçŃī": 7493,
      "TION": 7494,
      "rise": 7495,
      "rigin": 7496,
      "ribut": 7497,
      "ripel": 7498,
      "å¸¦æ¸²æŁĵ": 7499,
      "å¸¦å¾ĹåĪ°": 7500,
      "å¸¦çļĦæĭ¼æİ¥": 7501,
      "å¸¦åĪ°ç¬¬": 7502,
      "æµģéĩıåĪĨæŀĲ": 7503,
      "æµģåŁŁåĪĨæŀĲåĴĮ": 7504,
      "åīįç«¯": 7505,
      "åīįçļĦåĮĹäº¬": 7506,
      "åħīè°±ä¿¡æģ¯": 7507,
      "åħīè°±ä»ª": 7508,
      "ç¦»å·²çŁ¥": 7509,
      "ç¼ĵåĨ²å¸¦": 7510,
      "åĪĨè¾¨çİĩæıĲé«ĺ": 7511,
      "åĪĨè¾¨çİĩéģ¥æĦŁæķ°æį®æºĲä¹ĭä¸Ģ": 7512,
      "SQLæķ°æį®åºĵ": 7513,
      "SQLè¿Ľè¡Įå¤įæĿĤ": 7514,
      "ogy": 7515,
      "ographic": 7516,
      "verse": 7517,
      "åı³ä¸ĭè§Ĵ": 7518,
      "è¾¹çº¿": 7519,
      "è¾¹æ¡Ĩ": 7520,
      "è¾¹ç¼ĺçļĦåıĺå½¢": 7521,
      "è¾¹æĪĸåħī": 7522,
      "åıĺåĮĸéĩı": 7523,
      "åıĺåĮĸä¿¡æģ¯": 7524,
      "åıĺåĮĸç±»åŀĭ": 7525,
      "åıĺåĮĸåĮºåŁŁ": 7526,
      "åıĺåĮĸèĩªåĬ¨": 7527,
      "åıĺåĮĸçļĦæĬĢæľ¯": 7528,
      "åıĺåĮĸçļĦæĸ¹åĲĳ": 7529,
      "åıĺåĮĸåĴĮéķ¿æľŁ": 7530,
      "åıĺåĮĸç±»åŀĭåĴĮ": 7531,
      "åıĺåĮĸçļĦçİ°è±¡": 7532,
      "åıĺåĮĸåī§çĥĪ": 7533,
      "å¯¼åĩºä¿ĿåŃĺä¸º": 7534,
      "å¯¼åĩºåĽ¾å±Ĥä¸º": 7535,
      "å¯¼åĩºåĴĮå¯¼åħ¥": 7536,
      "åľ¨QGISä¸ŃçĽ´æİ¥": 7537,
      "åľ¨QGISä¸Ńä¹Ł": 7538,
      "åľ¨QGISä¸Ńå¯¹åºĶ": 7539,
      "åľ¨QGISä¸Ńè¿ģç§»": 7540,
      "åľ¨QGISä¸Ńåı¯éĢļè¿ĩ": 7541,
      "åľ¨QGISä¸Ńä½¿çĶ¨å¤ĦçĲĨå·¥åħ·ç®±": 7542,
      "åľ¨QGISä¸Ńåı¯ä»¥éĢļè¿ĩ": 7543,
      "åľ¨QGISä¸ŃåĪĽå»ºçĥŃåĬĽåĽ¾": 7544,
      "åľ¨QGISä¸Ńå¤ĦçĲĨåĿĲæłĩç³»ç»Ł": 7545,
      "çĽ´æİ¥å½±åĵį": 7546,
      "çĽ´æİ¥è®¿éĹ®": 7547,
      "çĽ´æİ¥è¾ĵåĩºçļĦ": 7548,
      "çĽ´æİ¥æµıè§Īæĸĩä»¶": 7549,
      "çĽ´æİ¥å°Ĩæĸĩä»¶": 7550,
      "çĽ´æİ¥æİ¥è§¦çī©ä½ĵ": 7551,
      "çĽ´æİ¥è®¡ç®ĹæľĢçŁŃè·¯å¾Ħ": 7552,
      "çĽ´æİ¥ä»İArcGIS": 7553,
      "arpen": 7554,
      "arkup": 7555,
      "åģ¥åº": 7556,
      "éĺµåĪĹ": 7557,
      "éĺ»æŃ¢": 7558,
      "éĺĪåĢ¼": 7559,
      "å¤įçĶ¨": 7560,
      "å¤įå»ºè®®": 7561,
      "äºĳå±Ĥ": 7562,
      "äºĳéĽ¨å¤©": 7563,
      "åį³Bu": 7564,
      "åį³éĢļçĶ¨": 7565,
      "åį³æ¿Ģåħī": 7566,
      "åį³åľ°çĲĨä¿¡æģ¯ç³»ç»Ł": 7567,
      "åį³åľ°åĽ¾çªĹåı£": 7568,
      "åį³ä¸įè§ĦåĪĻä¸īè§Ĵç½ĳ": 7569,
      "åį³ä½¿åįĥä¸ĩçº§": 7570,
      "æīĢä½¿çĶ¨çļĦ": 7571,
      "æīĢè¯´": 7572,
      "æīĢéľĢæķ°æį®åĴĮåĪĨæŀĲ": 7573,
      "ç¼©å°ıç¨ĭåº¦": 7574,
      "éĢīé¡¹åĮħæĭ¬": 7575,
      "éĢīé¡¹å¼ĢåĲ¯": 7576,
      "å¤ļä¸ªUTM": 7577,
      "å¤ļä¸ªåľ°åĽ¾æ¡Ĩ": 7578,
      "å¤ļä¸ªçĵ¦çīĩ": 7579,
      "å¤ļä¸ªåĽłç´ł": 7580,
      "å¤ļä¸ªåľ°åĽ¾åĴĮå¸ĥå±Ģ": 7581,
      "å¤ļä¸ªåĲĮç±»åŀĭ": 7582,
      "å¤ļä¸ªæĸĩä»¶ç»ĦæĪĲ": 7583,
      "éĻĲç®¡çĲĨ": 7584,
      "éĻĲéĢŁ": 7585,
      "çªĹéĻĲåĪ¶": 7586,
      "æĺ¾ç¤ºæĹ¶": 7587,
      "æĺ¾ç¤ºæīĢæľī": 7588,
      "æĺ¾ç¤ºGISæķ°æį®": 7589,
      "æĺ¾ç¤ºçļĦåĽ¾å±Ĥ": 7590,
      "æĺ¾ç¤ºè¦ģç´łçļĦ": 7591,
      "æĺ¾ç¤ºèĮĥåĽ´åĴĮ": 7592,
      "æĺ¾ç¤ºçļĦä¿¡æģ¯": 7593,
      "æĺ¾ç¤ºåľ¨åľ°åĽ¾çĶ»å¸ĥ": 7594,
      "ShapefileçļĦ": 7595,
      "Shapefileä½¿çĶ¨": 7596,
      "ShapefileåĽ¾å±Ĥ": 7597,
      "ShapefileæĹ¶": 7598,
      "ShapefileçĶ±": 7599,
      "ShapefileçļĦæĬķå½±": 7600,
      "Shapefileæł¼å¼ıè¯¦è§£": 7601,
      "Shapefileä»į": 7602,
      "ShapefileéģĩåĪ°": 7603,
      "ShapefileçļĦä¸»è¦ģ": 7604,
      "ShapefileçļĦæĽ¿ä»£æĸ¹æ¡Ī": 7605,
      "ShapefileåıĬçĽ¸åħ³": 7606,
      "Shapefileæł¼å¼ıçļĦæĬĢæľ¯": 7607,
      "Shapefileè½¬GeoJSON": 7608,
      "Shapefileåı¯ä»¥ç»§": 7609,
      "CADå·¥åħ·": 7610,
      "CADä¹ĭéĹ´": 7611,
      "CADå¯¼åħ¥": 7612,
      "CADä¾§": 7613,
      "CADæĸĩä»¶éĢļå¸¸ä½¿çĶ¨": 7614,
      "ager": 7615,
      "è¢«è¶Ĭ": 7616,
      "è¢«è®¾è®¡": 7617,
      "è¢«åĬ¨ä¼łæĦŁåĻ¨": 7618,
      "ĠEND": 7619,
      "ĠEast": 7620,
      "ĠELS": 7621,
      "ĠEXTE": 7622,
      "ĠEnterp": 7623,
      "ĠExtent": 7624,
      "ĠEstim": 7625,
      "ĠElevation": 7626,
      "åĪ©åĻ¨": 7627,
      "åĪ©åº¦ç¡®å®ļ": 7628,
      "æľºåĪ¶æıĲä¾ĽäºĨ": 7629,
      "åĬ¡å¿ħ": 7630,
      "åĬ¡åĽŀ": 7631,
      "è¾ĥå°ı": 7632,
      "è¾ĥå®½": 7633,
      "è¾ĥæħ¢": 7634,
      "ç´¢å¤«æĸ¯": 7635,
      "çĤ¹åĩ»åĽ¾å±Ĥ": 7636,
      "çĤ¹åĩ»ç»ĺåĪ¶": 7637,
      "çĤ¹åĩ»åħ±äº«": 7638,
      "çĤ¹åĩ»å¯¹åºĶ": 7639,
      "çĤ¹åĩ»å®ĮæĪĲ": 7640,
      "çĤ¹åĩ»åĪĩæį¢": 7641,
      "çĤ¹åĩ»æ·»åĬłçĤ¹": 7642,
      "çĤ¹åĩ»Dow": 7643,
      "çĤ¹åĩ»åı³ä¸ĭè§Ĵ": 7644,
      "æĹłå®ŀéĻħ": 7645,
      "æĹłåĬłå¯Ĩ": 7646,
      "æĹłéķ¿åº¦": 7647,
      "æĹłåĪĨçº§": 7648,
      "æĹłç¼ĸçłģéĹ®é¢ĺ": 7649,
      "æĹłç¼Ŀ": 7650,
      "å¯¹äºİWeb": 7651,
      "å¯¹äºİæłħæł¼æķ°æį®": 7652,
      "å¯¹äºİçŁ¢éĩıæķ°æį®": 7653,
      "å¯¹äºİåı¯è§ĨåĮĸ": 7654,
      "å¯¹äºİæłħæł¼åĽ¾å±Ĥ": 7655,
      "å¯¹äºİçŁ¢éĩıåĽ¾å±Ĥ": 7656,
      "å¯¹äºİå¤§å¤ļæķ°": 7657,
      "å¯¹äºİæķ°æį®åħ±äº«": 7658,
      "å¯¹äºİå¤§æķ°æį®éĩı": 7659,
      "å¯¹äºİå¤§éĥ¨åĪĨ": 7660,
      "å¯¹äºİéĢļè¿ĩWeb": 7661,
      "ç½ĳç»ľæĬĢæľ¯": 7662,
      "ç½ĳç»ľæķ°æį®éĽĨ": 7663,
      "ç½ĳç»ľæĭĵæīĳåħ³ç³»": 7664,
      "ç½ĳç»ľçĵ¦çīĩ": 7665,
      "ç½ĳç»ľçŃīåĪĨæŀĲ": 7666,
      "ç½ĳç»ľåľ°åĽ¾å¹³åı°": 7667,
      "ç½ĳç»ľä¸Ńè®¡ç®Ĺ": 7668,
      "ç½ĳç»ľåľ°åĽ¾æłĩåĩĨæĬķå½±": 7669,
      "ç½ĳç»ľæĿ¥è¡¨ç¤ºè¿ŀç»Ńè¡¨éĿ¢": 7670,
      "å¸¸çĶ¨çļĦæıĴåĢ¼": 7671,
      "å¸¸çĶ¨çļĦå±ŀæĢ§è¡¨": 7672,
      "å¸¸çĶ¨çļĦåľ°çĲĨåĿĲæłĩç³»ç»Ł": 7673,
      "å¸¸çĶ¨çļĦEPSGä»£çłģ": 7674,
      "å¸¸çĶ¨çļĦæķ°æį®ç®¡çĲĨ": 7675,
      "å¸¸çĶ¨çļĦçĥŃçº¢å¤ĸä¼łæĦŁåĻ¨": 7676,
      "å¸¸çĶ¨çļĦçŁ¢éĩıåĪĨæŀĲå·¥åħ·åĮħæĭ¬": 7677,
      "å¸¸çĶ¨çļĦç¼ĸè¾ĳè¾ħåĬ©": 7678,
      "éĢĤåĲĪåĪĨå¸ĥ": 7679,
      "éĢĤåĲĪç©ºéĹ´åĪĨæŀĲ": 7680,
      "éĢĤåĲĪä¸įåĲĮçļĦ": 7681,
      "éĢĤåĲĪå¿«éĢŁ": 7682,
      "éĢĤåĲĪç®Ģåįķ": 7683,
      "éĢĤåĲĪåĨľä¸ļ": 7684,
      "éĢĤåĲĪå¹³æ»ĳ": 7685,
      "éĢĤåĲĪè¡¨ç¤ºè¿ŀç»Ń": 7686,
      "éĢĤåĲĪäººåı£å¯Ĩåº¦": 7687,
      "éĢĤåĲĪè¡¨ç¤ºè¾¹çķĮ": 7688,
      "éĢĤåĲĪåľ¨ç¼º": 7689,
      "éĢĤåĲĪæľ¬åĮºåŁŁ": 7690,
      "éĢĤåĲĪå½±åĥıåºķåĽ¾": 7691,
      "éĢĤåĲĪè¡¨ç¤ºé«ĺç¨ĭ": 7692,
      "éĢĤåĲĪç½ĳç»ľçĵ¦çīĩ": 7693,
      "çº¬åº¦èµ·": 7694,
      "çº¬åº¦ä¹ĺ": 7695,
      "çº¬åº¦åľ°åĮº": 7696,
      "çº¬åº¦ä»£è¡¨çļĦ": 7697,
      "çº¬åº¦åľ¨åĲİçļĦ": 7698,
      "çº¬åº¦åĿĲæłĩèĥ½": 7699,
      "çº¬åº¦è¡¨ç¤ºåįĹ": 7700,
      "åĩłä½ķå±ŀæĢ§": 7701,
      "åĩłä½ķåĽ¾å½¢": 7702,
      "åĩłä½ķåħĥç´ł": 7703,
      "åĩłä½ķç»ĵæŀĦ": 7704,
      "åĩłä½ķéĶĻè¯¯": 7705,
      "åĩłä½ķçī¹æĢ§": 7706,
      "UTMç¬¬": 7707,
      "UTMåĿĲæłĩä»¥": 7708,
      "UTMä½¿çĶ¨æ¨ªè½´å¢¨åį¡æīĺæĬķå½±": 7709,
      "UTMå°Ĩåľ°çĲĥ": 7710,
      "DEMæķ°æį®æºĲ": 7711,
      "DEMè¿Ľè¡ĮåĿ¡åº¦": 7712,
      "è·Ŀç¦»ä¸įåĲĮ": 7713,
      "è·Ŀç¦»ç¼ĵåĨ²åĮº": 7714,
      "è·Ŀç¦»åıĺå½¢": 7715,
      "è·Ŀç¦»æľĢçŁŃ": 7716,
      "è·Ŀç¦»èĮĥåĽ´åĨħ": 7717,
      "è·Ŀç¦»æĪĸæĸ¹åĲĳ": 7718,
      "è·Ŀç¦»ä¸İå®ŀåľ°": 7719,
      "è·Ŀç¦»ç²¾ç»Ĩ": 7720,
      "ç¼ĵåĨ²åĮºåĲĪå¹¶": 7721,
      "ç¼ĵåĨ²åĮºè·Ŀç¦»è®¡ç®Ĺ": 7722,
      "ç¼ĵåĨ²åĮºçļĦå¹³æ»ĳ": 7723,
      "åı³éĶ®æķ°æį®æĪĸ": 7724,
      "åı³éĶ®å·¥åħ·éĢīä½ľä¸º": 7725,
      "åı³éĶ®ShapefileåĽ¾å±Ĥ": 7726,
      "éĥ¨è¡¨æł¼": 7727,
      "éĥ¨è¦ģç´łå¯¼åĩºä¸º": 7728,
      "ĠTol": 7729,
      "ĠTex": 7730,
      "ĠTim": 7731,
      "ĠTom": 7732,
      "ĠTab": 7733,
      "ĠTru": 7734,
      "ĠTerm": 7735,
      "ĠTrans": 7736,
      "ĠTripel": 7737,
      "åľºä»½": 7738,
      "åĪĹåĪĨæŀĲæ³ķ": 7739,
      "åĪĹåĩºå·¥ä½ľç©ºéĹ´": 7740,
      "åħ¬ä¼Ĺ": 7741,
      "åħ¬çĶ¨è®¾æĸ½": 7742,
      "åħ¬å¼Ģæķ°æį®çŃī": 7743,
      "çĶ¨æĪ·ä¸ĭè½½": 7744,
      "çĶ¨æĪ·åı¯éĢļè¿ĩ": 7745,
      "çĶ¨æĪ·çĲĨè§£": 7746,
      "çĶ¨æĪ·åľ¨ä¸į": 7747,
      "çĶ¨æĪ·è®¸åı¯": 7748,
      "çĶ¨æĪ·æĹłéľĢ": 7749,
      "çĶ¨æĪ·åĲįåĴĮ": 7750,
      "çĶ¨æĪ·éĢļè¿ĩJavaScript": 7751,
      "çĶ¨æĪ·éĢīæĭ©QGIS": 7752,
      "çĶ¨æĪ·å¹¶åıĳç¼ĸè¾ĳ": 7753,
      "ç»ĵæĿŁ": 7754,
      "åľ°å½¢æ¨¡åŀĭ": 7755,
      "åľ°å½¢èµ·": 7756,
      "åľ°å½¢ç«ĭä½ĵ": 7757,
      "åľ°å½¢åĴĮä¸īç»´": 7758,
      "åľ°å½¢åīĸ": 7759,
      "åľ°å½¢æķ°æį®å¯¼åĩºä¸º": 7760,
      "åľ°å½¢åĴĮåĢ¾æĸľæĳĦå½±": 7761,
      "å®¹éĩıéĻĲåĪ¶": 7762,
      "åĬĽçº¿å·¡æ£Ģ": 7763,
      "å¸Ĥåľºä»½": 7764,
      "ä¼°äº§": 7765,
      "é«ĺç¨ĭèĮĥåĽ´": 7766,
      "é«ĺç¨ĭç±»åŀĭ": 7767,
      "é«ĺç¨ĭå¼Ĥå¸¸": 7768,
      "ArcGISä¸Ńå¸ĥå±Ģ": 7769,
      "ArcGISä¸ŃPythonèĦļæľ¬": 7770,
      "ArcGISä¸Ńç¬¦åı·åĮĸä¸İ": 7771,
      "ArcGISä¸ŃåĪĽå»ºè¦ģç´łç±»åĴĮç¼ĸè¾ĳ": 7772,
      "éĩįè¦ģåĮºåĪ«": 7773,
      "éĩįè¦ģç»ĦæĪĲéĥ¨åĪĨ": 7774,
      "éĩįè¦ģè½¯ä»¶è¿ĺåĮħæĭ¬": 7775,
      "åıĤèĢĥç½ĳæł¼": 7776,
      "åıĤèĢĥçĤ¹åĿĲæłĩåıį": 7777,
      "åıĤèĢĥæĮĩæłĩ": 7778,
      "è¿ŀæİ¥éħįç½®": 7779,
      "è¿ŀæİ¥èĢĮ": 7780,
      "è¿ŀæİ¥éªĮè¯ģ": 7781,
      "ä¹ĭéĹ´éĥ½": 7782,
      "ä¹ĭéĹ´ç²¾ç¡®": 7783,
      "ä¹ĭéĹ´è¿Ľè¡Įè½¬æį¢": 7784,
      "å¢¨åį¡æīĺåıĳæĺİ": 7785,
      "acle": 7786,
      "acing": 7787,
      "ç»ĺåĩºåľ°åĽ¾æ¡Ĩ": 7788,
      "æķ°æį®æł¼å¼ıè½¬æį¢å¸¸çĶ¨": 7789,
      "æľįåĬ¡æĪĸå¯¼åĩºä¸º": 7790,
      "æľįåĬ¡åĮºçŃīåĪĨæŀĲ": 7791,
      "åŁİåĮºä¸İéĥ": 7792,
      "å¹´çĶ±": 7793,
      "å¹´åıĳå°Ħ": 7794,
      "å¹´åİĨåı²": 7795,
      "å¹´åĲ¯åĬ¨": 7796,
      "å¹´ä»¥æĿ¥": 7797,
      "æĸ¹åĲĳä¹ĭä¸Ģ": 7798,
      "æĸ¹åĲĳçļĦä½įç½®": 7799,
      "æĸ¹åĲĳåıĳå±ķ": 7800,
      "æĸ¹åĲĳçļĦè·Ŀç¦»": 7801,
      "åıĺå½¢ä¸ĭä¿ĿæĮģ": 7802,
      "æµĭéĩıä¸Ń": 7803,
      "æµĭéĩıç³»ç»Ł": 7804,
      "æµĭéĩıåĢ¼": 7805,
      "æµĭéĩıåįķä½į": 7806,
      "æµĭéĩıåŃ¦å®¶": 7807,
      "å¼ĢæºĲç©ºéĹ´æķ°æį®åºĵ": 7808,
      "å¼ĢæºĲæĸ¹æ¡Ī": 7809,
      "å¼ĢæºĲä»£çłģ": 7810,
      "å¼ĢæºĲåľ°çĲĨç©ºéĹ´æķ°æį®æł¼å¼ı": 7811,
      "å¼ĢæºĲæĬĢæľ¯æłĪ": 7812,
      "å¼ĢæºĲå·¥åħ·åºĵ": 7813,
      "å¼ĢæºĲè½¯ä»¶ä¸¤": 7814,
      "å¸ĥå±Ģå¯¼åĩº": 7815,
      "å¸ĥå±Ģè§ĨåĽ¾": 7816,
      "å¸ĥå±Ģåı¯ä»¥ä¿ĿåŃĺä¸º": 7817,
      "å¸ĥå±Ģä¸Ńæ·»åĬł": 7818,
      "å¸ĥå±ĢçļĦç¾İ": 7819,
      "å¸ĥå±Ģåı¯ä»¥åĴĮé¡¹çĽ®": 7820,
      "è¾ĵåħ¥åĽ¾å±Ĥ": 7821,
      "è¾ĵåħ¥åıĤæķ°": 7822,
      "è¾ĵåħ¥éĿ¢æĿ¿": 7823,
      "è¾ĵåħ¥EPSGä»£çłģ": 7824,
      "è¾ĵåħ¥çĤ¹åĽ¾å±Ĥ": 7825,
      "è¾ĵåħ¥åħ¬å¼ı": 7826,
      "è¾ĵåħ¥çļĦåıĤæķ°": 7827,
      "è¾ĵåħ¥æłħæł¼çļĦ": 7828,
      "è¾ĵåħ¥åĴĮåıĤæķ°": 7829,
      "è¾ĵåħ¥æłħæł¼åħ·æľī": 7830,
      "æ°´åĪ©": 7831,
      "æ°´çĶµ": 7832,
      "æ°´æĸĩå»ºæ¨¡": 7833,
      "éħįéĢģ": 7834,
      "ASHçŃī": 7835,
      "æ¬¢è¿": 7836,
      "æ´Ĺ": 7837,
      "æ´ŀ": 7838,
      "æ´¼åľ°çĤ¹": 7839,
      "çļĦæķ°æį®æºĲ": 7840,
      "çļĦæķ°æį®ç»ĵæŀĦ": 7841,
      "çļĦæķ°æį®äº¤æį¢": 7842,
      "çļĦæķ°æį®è½¬æį¢æĺ¯å®ŀéĻħå·¥ä½ľä¸Ń": 7843,
      "åıįæ¼Ķ": 7844,
      "åıįä¹ĭåĪĻéľĢè¦ģ": 7845,
      "çĶ±ç®Ĺæ³ķ": 7846,
      "çĶ±OGC": 7847,
      "çĶ±è§Ĵåº¦": 7848,
      "çĶ±ä¸Ģç³»åĪĹ": 7849,
      "çĶ±å¤ļé¢Ĺ": 7850,
      "çĶ±IETF": 7851,
      "çĶ±éĹŃåĲĪ": 7852,
      "åĽłä¼łæĦŁåĻ¨": 7853,
      "åĽłä¸ºçĲĥ": 7854,
      "åĽłæĺ¯åĿĲæłĩç³»ç»Ł": 7855,
      "äºĴä¸įéĩįåıł": 7856,
      "äºĴæĵįä½ľæĢ§çļĦåŁºç¡Ģ": 7857,
      "åľ°çĲĥæ¤ŃçĲĥä½ĵ": 7858,
      "åľ°çĲĥæĽ²": 7859,
      "åľ°çĲĥæĺ¯ä¸Ģä¸ª": 7860,
      "åľ°çĲĥä¸ĬçļĦä½įç½®": 7861,
      "åľ°çĲĥçļĦå½¢çĬ¶": 7862,
      "åľ°çĲĥåĮĹæŀģ": 7863,
      "è¿ĲèĲ": 7864,
      "æī¹åĩĨçļĦåĿĲæłĩåĬłå¯Ĩ": 7865,
      "ç»Łè®¡æķ°æį®åħ³èģĶåĪ°": 7866,
      "å¸¸è§ģè§ĦåĪĻ": 7867,
      "å¸¸è§ģSARåį«æĺŁ": 7868,
      "ç¼ĸçłģæł¼å¼ı": 7869,
      "ç¼ĸçłģè®¾ç½®": 7870,
      "ç¼ĸçłģçļĦè½¯ä»¶": 7871,
      "ç¼ĸçłģä¸ĭæĭī": 7872,
      "åİŁåĽłæĺ¯åĿĲæłĩç³»ç»Ł": 7873,
      "åİĭç¼©åıĤæķ°": 7874,
      "åİĭç¼©éĢīé¡¹": 7875,
      "åİĭç¼©æĸ¹å¼ı": 7876,
      "åİĭç¼©çīĪæľ¬": 7877,
      "åİĭç¼©ä»¥åĩıå°ı": 7878,
      "å¯¼åħ¥çļĦåĽ¾å±Ĥ": 7879,
      "è°ĥåľ°çĲĨè¦ģç´ł": 7880,
      "æŃ£ç¡®åĿĲæłĩç³»": 7881,
      "æŃ£ç¡®éħįç½®": 7882,
      "æŃ£ç¡®æĢ§åĴĮ": 7883,
      "æŃ£ç¡®çĲĨè§£": 7884,
      "è§ĦåĪĻåĮħæĭ¬": 7885,
      "è§ĦåĪĻçļĦåľ°": 7886,
      "è§ĦåĪĻçļĦç½ĳæł¼": 7887,
      "è£ħé¥": 7888,
      "è£ħçļĦæıĴä»¶": 7889,
      "PostGISæķ°æį®åºĵ": 7890,
      "PostGISæī©å±ķ": 7891,
      "PostGISçļĦä¼ĺåĬ¿": 7892,
      "PostGISæĺ¯PostgreSQL": 7893,
      "PostGISä½¿çĶ¨GiSTç´¢å¼ķ": 7894,
      "PostGISçŃīä¹ĭéĹ´": 7895,
      "PostGISç©ºéĹ´è¡¨": 7896,
      "æŃ¥éª¤åĪĨæŀĲ": 7897,
      "æīĢæľīç¼ĸè¾ĳ": 7898,
      "æīĢæľīSentinel": 7899,
      "æīĢæľīåľ°åĽ¾æĬķå½±éĥ½": 7900,
      "æīĢæľīåĿĲæłĩä¸º": 7901,
      "æīĢæľīæłħæł¼æ³¢æ®µ": 7902,
      "æīĢæľīè¾ĵåħ¥æłħæł¼åħ·æľī": 7903,
      "åĪ©çĶ¨è¾Ĳå°Ħ": 7904,
      "åĪ©çĶ¨æĺ¼å¤ľ": 7905,
      "åĪ©çĶ¨OpenStreetMap": 7906,
      "åĪ©çĶ¨æ¬¡è¦ģ": 7907,
      "åĪ©çĶ¨åį·ç§¯": 7908,
      "åĪ©çĶ¨æķ°æį®åºĵçļĦæī¹éĩıå¤ĦçĲĨ": 7909,
      "åĪ©çĶ¨åħ¶ç©ºéĹ´ç´¢å¼ķåĴĮ": 7910,
      "åĪ©çĶ¨SQLè¿Ľè¡Įå¤įæĿĤ": 7911,
      "åĪ©çĶ¨DEMè¿Ľè¡ĮåĿ¡åº¦": 7912,
      "åŁİå¸Ĥæī©": 7913,
      "åŁİå¸Ĥäººåı£": 7914,
      "åŁİå¸Ĥè®¾è®¡": 7915,
      "åŁİå¸Ĥä¸īç»´æ¨¡åŀĭ": 7916,
      "olut": 7917,
      "olation": 7918,
      "ology": 7919,
      "çģ°åº¦": 7920,
      "ĠAND": 7921,
      "ĠAtt": 7922,
      "ĠAccess": 7923,
      "æķĪæĢ§": 7924,
      "æķĪåºĶçłĶç©¶": 7925,
      "GISè½¯ä»¶ä¼ļ": 7926,
      "GISè½¯ä»¶æıĲä¾ĽäºĨ": 7927,
      "GISè½¯ä»¶é»ĺè®¤": 7928,
      "GISè½¯ä»¶éĢļå¸¸ä½¿çĶ¨": 7929,
      "GISè½¯ä»¶éĹ´ä¼łè¾ĵ": 7930,
      "äººæľº": 7931,
      "å½ĵGISæķ°æį®": 7932,
      "å½ĵä½¿çĶ¨UTF": 7933,
      "å½ĵå¤ĦçĲĨè¶ħ": 7934,
      "å½ĵä»İå°ıæ¯Ķä¾ĭå°º": 7935,
      "è®¤çŁ¥": 7936,
      "å¹¿ä½¿çĶ¨çļĦ": 7937,
      "æĢģåĪĨå¸ĥ": 7938,
      "æĢģåĴĮè¦ĨçĽĸ": 7939,
      "ä¼ļéļı": 7940,
      "ä¼ļçĶŁæĪĲ": 7941,
      "ä¼ļæĪĲä¸º": 7942,
      "ä¼ļåľ¨éĿ¢ç§¯": 7943,
      "ä¼ļä»¥çº¢èī²": 7944,
      "ä¼ļçĽ´æİ¥å½±åĵį": 7945,
      "æĶ¶éĽĨ": 7946,
      "atabase": 7947,
      "ä¹ŁéĩĩçĶ¨": 7948,
      "ä¹Łå¼Ģå§ĭ": 7949,
      "ä¹Łæĺ¯ä¸ŃåĽ½": 7950,
      "ä¹Łåı¯ä»¥åľ¨": 7951,
      "ä¹Łæĺ¯æľĢå¸¸çĶ¨çļĦ": 7952,
      "ä¹Łæĺ¯æľĢéĩįè¦ģçļĦ": 7953,
      "ä¹Łåľ¨éĢĲæŃ¥åĲĳ": 7954,
      "ä¹Łæĺ¯OGC": 7955,
      "ä¹Łä¸įåŃĺåľ¨": 7956,
      "ingæī©å±ķ": 7957,
      "ç®Ĺæ³ķéĿ¢æĿ¿": 7958,
      "ç®Ĺæ³ķæ£Ģæµĭ": 7959,
      "ç®Ĺæ³ķåŃ¦ä¹ł": 7960,
      "ç®Ĺæ³ķçļĦè¾ĵåħ¥": 7961,
      "ç®Ĺæ³ķçļĦè¾ĵåĩº": 7962,
      "ç®Ĺæ³ķä»İçĥŃçº¢å¤ĸæ³¢æ®µ": 7963,
      "èĩ³LOD": 7964,
      "èĩ³ä»Ĭä»į": 7965,
      "æ¯ıæ¬¡": 7966,
      "å¿ħå¤ĩ": 7967,
      "å¿ħè¦ģå¼¯": 7968,
      "å¿ħè£ħçļĦæıĴä»¶": 7969,
      "è¾ĵåĩºåıĤæķ°": 7970,
      "è¾ĵåĩºå¯¹åºĶ": 7971,
      "è¾ĵåĩºè¿ŀæİ¥åĪ°": 7972,
      "è¾ĵåĩºæĸĩä»¶è·¯å¾Ħ": 7973,
      "ä¿ĿåŃĺæ¨¡åŀĭ": 7974,
      "ä¿ĿåŃĺæīĢæľīç¼ĸè¾ĳ": 7975,
      "æĽ´å°ı": 7976,
      "æĽ´å¿«": 7977,
      "æĽ´å¤įæĿĤ": 7978,
      "æĽ´å¤§æ¯Ķä¾ĭå°º": 7979,
      "æĽ´é«ĺåĪĨè¾¨çİĩ": 7980,
      "æĽ´é«ĺçº§åĪĨæŀĲ": 7981,
      "æĽ´å¤§èĮĥåĽ´": 7982,
      "æĽ´é«ĺçļĦåİĭç¼©": 7983,
      "ä¼łæĦŁåĻ¨æİ¥æĶ¶": 7984,
      "ä¼łæĦŁåĻ¨çļĦè½½": 7985,
      "ä¼łæĦŁåĻ¨æĮīå·¥ä½ľ": 7986,
      "è´¨éĩıçĽĳæµĭ": 7987,
      "è´¨éĩıåĲİå¯¼åĩº": 7988,
      "è´¨éĩıéĹ®é¢ĺåĮħæĭ¬": 7989,
      "åľºæĻ¯éĢīæĭ©": 7990,
      "åľºæĻ¯åĽ¾å±ĤæłĩåĩĨ": 7991,
      "æī¹éĩıæł¼å¼ıè½¬æį¢å·¥åħ·": 7992,
      "æī¹éĩıåĮĸå¤ĦçĲĨ": 7993,
      "æī¹éĩıè½¬æį¢åı¯ä½¿çĶ¨å¤ĦçĲĨå·¥åħ·ç®±çļĦ": 7994,
      "Index": 7995,
      "Inser": 7996,
      "Instan": 7997,
      "Info": 7998,
      "ses": 7999
    },
    "merges": [
      [
        "ï",
        "¼"
      ],
      [
        "ä",
        "¸"
      ],
      [
        "ã",
        "Ģ"
      ],
      [
        "ç",
        "ļ"
      ],
      [
        "çļ",
        "Ħ"
      ],
      [
        "å",
        "ľ"
      ],
      [
        "č",
        "Ċ"
      ],
      [
        "ï¼",
        "Į"
      ],
      [
        "å",
        "ı"
      ],
      [
        "æ",
        "ł"
      ],
      [
        "ãĢ",
        "ģ"
      ],
      [
        "å",
        "Ī"
      ],
      [
        "Ģ",
        "Ķ"
      ],
      [
        "â",
        "ĢĶ"
      ],
      [
        "ï¼",
        "Ī"
      ],
      [
        "ï¼",
        "ī"
      ],
      [
        "æ",
        "ķ"
      ],
      [
        "ç",
        "Ķ"
      ],
      [
        "å",
        "ħ"
      ],
      [
        "æ",
        "į"
      ],
      [
        "æķ",
        "°"
      ],
      [
        "å",
        "Ľ"
      ],
      [
        "ä",
        "½"
      ],
      [
        "çĶ",
        "¨"
      ],
      [
        "å",
        "¤"
      ],
      [
        "ç",
        "»"
      ],
      [
        "ä",
        "»"
      ],
      [
        "æį",
        "®"
      ],
      [
        "I",
        "S"
      ],
      [
        "G",
        "IS"
      ],
      [
        "ä",
        "º"
      ],
      [
        "åľ",
        "°"
      ],
      [
        "å",
        "º"
      ],
      [
        "æķ°",
        "æį®"
      ],
      [
        "å",
        "Ĳ"
      ],
      [
        "å",
        "½"
      ],
      [
        "åĽ",
        "¾"
      ],
      [
        "æ",
        "ľ"
      ],
      [
        "é",
        "Ģ"
      ],
      [
        "å",
        "Į"
      ],
      [
        "å",
        "¼"
      ],
      [
        "ç",
        "Ĳ"
      ],
      [
        "å",
        "Ĵ"
      ],
      [
        "æł",
        "ĩ"
      ],
      [
        "åĴ",
        "Į"
      ],
      [
        "âĢĶ",
        "âĢĶ"
      ],
      [
        "è",
        "¿"
      ],
      [
        "æ",
        "ĺ"
      ],
      [
        "é",
        "ĩ"
      ],
      [
        "åĪ",
        "Ĩ"
      ],
      [
        "ä¸",
        "Ń"
      ],
      [
        "ãĢ",
        "Ĥ"
      ],
      [
        "åľ",
        "¨"
      ],
      [
        "æ",
        "ĸ"
      ],
      [
        "å",
        "±"
      ],
      [
        "å",
        "®"
      ],
      [
        "å",
        "Ĭ"
      ],
      [
        "è",
        "¦"
      ],
      [
        "å",
        "¸"
      ],
      [
        "å",
        "Ŀ"
      ],
      [
        "çĲ",
        "Ĩ"
      ],
      [
        "è",
        "¡"
      ],
      [
        "è¦",
        "ģ"
      ],
      [
        "å",
        "·"
      ],
      [
        "æ",
        "ĭ"
      ],
      [
        "ç",
        "º"
      ],
      [
        "å",
        "ĩ"
      ],
      [
        "è",
        "®"
      ],
      [
        "é",
        "Ĺ"
      ],
      [
        "å½",
        "±"
      ],
      [
        "åı",
        "¯"
      ],
      [
        "æł",
        "¼"
      ],
      [
        "æ",
        "Ī"
      ],
      [
        "åº",
        "¦"
      ],
      [
        "æ",
        "³"
      ],
      [
        "è",
        "¾"
      ],
      [
        "å",
        "°"
      ],
      [
        "æ",
        "ŀ"
      ],
      [
        "æĺ",
        "¯"
      ],
      [
        "Ĳ",
        "æłĩ"
      ],
      [
        "åĿ",
        "Ĳæłĩ"
      ],
      [
        "å",
        "Ń"
      ],
      [
        "å",
        "¯"
      ],
      [
        "å",
        "į"
      ],
      [
        "é",
        "Ŀ"
      ],
      [
        "ç",
        "³"
      ],
      [
        "ä½",
        "¿"
      ],
      [
        "æ",
        "Ĭ"
      ],
      [
        "è",
        "§"
      ],
      [
        "ç³",
        "»"
      ],
      [
        "ä½¿",
        "çĶ¨"
      ],
      [
        "ï¼",
        "ļ"
      ],
      [
        "æ",
        "ī"
      ],
      [
        "å",
        "Ł"
      ],
      [
        "éĿ",
        "¢"
      ],
      [
        "ç",
        "Ľ"
      ],
      [
        "éĹ",
        "´"
      ],
      [
        "ç",
        "½"
      ],
      [
        "ç",
        "®"
      ],
      [
        "å¼",
        "ı"
      ],
      [
        "ï¼",
        "Ľ"
      ],
      [
        "å",
        "¹"
      ],
      [
        "ç",
        "Ń"
      ],
      [
        "äº",
        "İ"
      ],
      [
        "æ",
        "Į"
      ],
      [
        "è",
        "½"
      ],
      [
        "å·",
        "¥"
      ],
      [
        "æ",
        "Ģ"
      ],
      [
        "éĩ",
        "ı"
      ],
      [
        "ç",
        "©"
      ],
      [
        "ķ",
        "å½±"
      ],
      [
        "æĬ",
        "ķå½±"
      ],
      [
        "ç",
        "±"
      ],
      [
        "ä",
        "¼"
      ],
      [
        "ç©",
        "º"
      ],
      [
        "ç",
        "´"
      ],
      [
        "ï¼ī",
        "ãĢģ"
      ],
      [
        "çŃ",
        "ī"
      ],
      [
        "ç",
        "Ĥ"
      ],
      [
        "çĤ",
        "¹"
      ],
      [
        "«",
        "ĺ"
      ],
      [
        "é",
        "«ĺ"
      ],
      [
        "æ",
        "µ"
      ],
      [
        "ä»",
        "¶"
      ],
      [
        "ç",
        "§"
      ],
      [
        "ä¸",
        "Ģ"
      ],
      [
        "ç»",
        "Ł"
      ],
      [
        "æ",
        "Ĺ"
      ],
      [
        "åľ°",
        "åĽ¾"
      ],
      [
        "ç",
        "¼"
      ],
      [
        "åħ",
        "·"
      ],
      [
        "éĢ",
        "ļ"
      ],
      [
        "æĢ",
        "§"
      ],
      [
        "å¸",
        "¸"
      ],
      [
        "r",
        "c"
      ],
      [
        "ä¸",
        "º"
      ],
      [
        "ä»",
        "¥"
      ],
      [
        "ç©º",
        "éĹ´"
      ],
      [
        "è",
        "¯"
      ],
      [
        "å¤",
        "§"
      ],
      [
        "åĪĨ",
        "æŀ"
      ],
      [
        "åĪĨæŀ",
        "Ĳ"
      ],
      [
        "ä¸",
        "į"
      ],
      [
        "å",
        "Ĩ"
      ],
      [
        "éĢ",
        "ī"
      ],
      [
        "å",
        "»"
      ],
      [
        "å·¥",
        "åħ·"
      ],
      [
        "¦",
        "Ĥ"
      ],
      [
        "æ",
        "Ķ"
      ],
      [
        "å»",
        "º"
      ],
      [
        "ä",
        "¿"
      ],
      [
        "å±",
        "Ĥ"
      ],
      [
        "è¡",
        "¨"
      ],
      [
        "æĪ",
        "ĸ"
      ],
      [
        "å",
        "¦Ĥ"
      ],
      [
        "ç´",
        "ł"
      ],
      [
        "è¡",
        "Į"
      ],
      [
        "0",
        "0"
      ],
      [
        "A",
        "rc"
      ],
      [
        "a",
        "t"
      ],
      [
        "ĥ",
        "½"
      ],
      [
        "ä¸",
        "ª"
      ],
      [
        "åĽ¾",
        "å±Ĥ"
      ],
      [
        "ç½",
        "®"
      ],
      [
        "e",
        "r"
      ],
      [
        "ä",
        "¹"
      ],
      [
        "æ",
        "İ"
      ],
      [
        "çº",
        "¿"
      ],
      [
        "ç³»",
        "ç»Ł"
      ],
      [
        "Q",
        "GIS"
      ],
      [
        "æ",
        "ı"
      ],
      [
        "åŁ",
        "º"
      ],
      [
        "å¤",
        "Ħ"
      ],
      [
        "åĮ",
        "ħ"
      ],
      [
        "è¿",
        "ĩ"
[...]
