{
  "version": "1.0",
  "truncation": null,
  "padding": null,
  "added_tokens": [
    {
      "id": 0,
      "content": "[PAD]",
      "single_word": false,
      "lstrip": false,
      "rstrip": false,
      "normalized": false,
      "special": true
    },
    {
      "id": 1,
      "content": "[UNK]",
      "single_word": false,
      "lstrip": false,
      "rstrip": false,
      "normalized": false,
      "special": true
    },
    {
      "id": 2,
      "content": "[CLS]",
      "single_word": false,
      "lstrip": false,
      "rstrip": false,
      "normalized": false,
      "special": true
    },
    {
      "id": 3,
      "content": "[SEP]",
      "single_word": false,
      "lstrip": false,
      "rstrip": false,
      "normalized": false,
      "special": true
    },
    {
      "id": 4,
      "content": "[MASK]",
      "single_word": false,
      "lstrip": false,
      "rstrip": false,
      "normalized": false,
      "special": true
    },
    {
      "id": 5,
      "content": "<s>",
      "single_word": false,
      "lstrip": false,
      "rstrip": false,
      "normalized": false,
      "special": true
    },
    {
      "id": 6,
      "content": "</s>",
      "single_word": false,
      "lstrip": false,
      "rstrip": false,
      "normalized": false,
      "special": true
    }
  ],
  "normalizer": null,
  "pre_tokenizer": {
    "type": "Metaspace",
    "replacement": "▁",
    "prepend_scheme": "always",
    "split": true
  },
  "post_processor": null,
  "decoder": {
    "type": "Metaspace",
    "replacement": "▁",
    "prepend_scheme": "always",
    "split": true
  },
  "model": {
    "type": "Unigram",
    "unk_id": 1,
    "vocab": [
      [
        "[PAD]",
        0.0
      ],
      [
        "[UNK]",
        0.0
      ],
      [
        "[CLS]",
        0.0
      ],
      [
        "[SEP]",
        0.0
      ],
      [
        "[MASK]",
        0.0
      ],
      [
        "<s>",
        0.0
      ],
      [
        "</s>",
        0.0
      ],
      [
        "\n",
        -2.956576447381507
      ],
      [
        "\r",
        -2.956576447381507
      ],
      [
        "▁",
        -3.275362226858162
      ],
      [
        "；",
        -4.479507315347251
      ],
      [
        "。",
        -4.480570677406279
      ],
      [
        "（",
        -4.572269127381347
      ],
      [
        "，",
        -5.146886408627753
      ],
      [
        "的",
        -5.187235798786612
      ],
      [
        "、",
        -5.244935656194813
      ],
      [
        ".",
        -5.312956694272753
      ],
      [
        "：",
        -5.415882489680643
      ],
      [
        "1.",
        -5.438730165923654
      ],
      [
        "和",
        -5.475514827951391
      ],
      [
        "——",
        -5.506671031929416
      ],
      [
        "）、",
        -5.579929767345042
      ],
      [
        "）",
        -5.5851537665839945
      ],
      [
        "4.",
        -5.601306549598476
      ],
      [
        "使用",
        -5.770429936162909
      ],
      [
        "与",
        -5.798042100759703
      ],
      [
        "是",
        -5.865556177499144
      ],
      [
        "或",
        -5.988401029177664
      ],
      [
        "2.",
        -6.09904994857762
      ],
      [
        "▁2.",
        -6.133461728474121
      ],
      [
        "3.",
        -6.145707903506326
      ],
      [
        "在",
        -6.15300871113895
      ],
      [
        "-",
        -6.182263037773452
      ],
      [
        "/",
        -6.208558470409503
      ],
      [
        "▁3.",
        -6.217923273598701
      ],
      [
        "5",
        -6.298274728632829
      ],
      [
        "6",
        -6.3551939459424
      ],
      [
        "数据",
        -6.368285718938078
      ],
      [
        "将",
        -6.431864272174517
      ],
      [
        "（如",
        -6.461148225307992
      ],
      [
        "通过",
        -6.483016438516208
      ],
      [
        "包括：",
        -6.490314288784429
      ],
      [
        "等",
        -6.5044985378735305
      ],
      [
        "可以",
        -6.545961707946688
      ],
      [
        "l",
        -6.609704671665263
      ],
      [
        "▁5",
        -6.641181787271704
      ],
      [
        "ArcGIS",
        -6.642739187514023
      ],
      [
        "分析",
        -6.6470102202944
      ],
      [
        "坐标",
        -6.675806678870524
      ],
      [
        "处理",
        -6.6900430296370645
      ],
      [
        "为",
        -6.707567042349295
      ],
      [
        "工具",
        -6.7122487792583225
      ],
      [
        "对",
        -6.729164636067486
      ],
      [
        "▁Pro",
        -6.732033796287525
      ],
      [
        "解",
        -6.735778271990167
      ],
      [
        "中",
        -6.738147219363107
      ],
      [
        "▁QGIS",
        -6.7556636018903005
      ],
      [
        "功能",
        -6.756402814804346
      ],
      [
        "支持",
        -6.762339220388938
      ],
      [
        "点",
        -6.778724040209061
      ],
      [
        "文件",
        -6.792746794531425
      ],
      [
        "st",
        -6.799266673051539
      ],
      [
        "详",
        -6.819244415105558
      ],
      [
        "时",
        -6.861926513023643
      ],
      [
        "▁ArcGIS",
        -6.879949583725241
      ],
      [
        "通常",
        -6.897000357386535
      ],
      [
        "图层",
        -6.89939765145005
      ],
      [
        "包括",
        -6.9007905358174
      ],
      [
        "进行",
        -6.922257426126523
      ],
      [
        "▁在",
        -6.936145160369316
      ],
      [
        "属性",
        -6.942439986711902
      ],
      [
        "有",
        -6.943191638610294
      ],
      [
        "标注",
        -6.9480974792367185
      ],
      [
        "添加",
        -6.952372115988327
      ],
      [
        "b",
        -6.9565982282688665
      ],
      [
        "y",
        -6.958314517018908
      ],
      [
        "格式",
        -6.961023706187069
      ],
      [
        "选择",
        -6.979717174563863
      ],
      [
        "创建",
        -6.980998752107089
      ],
      [
        "）和",
        -6.985935785343296
      ],
      [
        "N",
        -7.006723149450918
      ],
      [
        "地图",
        -7.013741020526462
      ],
      [
        "GIS",
        -7.015042260682437
      ],
      [
        "了",
        -7.01513792769948
      ],
      [
        "表示",
        -7.020441610313419
      ],
      [
        "计算",
        -7.028857480675702
      ],
      [
        "要素",
        -7.029749354081462
      ],
      [
        "按",
        -7.037863600956242
      ],
      [
        "），",
        -7.057919219637194
      ],
      [
        "分",
        -7.062390558728249
      ],
      [
        "e",
        -7.066337189646733
      ],
      [
        "一个",
        -7.094999663628975
      ],
      [
        "P",
        -7.096643034595166
      ],
      [
        "Google",
        -7.11322962664521
      ],
      [
        ",",
        -7.113983403878027
      ],
      [
        "参数",
        -7.118358859283708
      ],
      [
        "坐标系统",
        -7.128397813302867
      ],
      [
        "al",
        -7.1434967020796964
      ],
      [
        "需要",
        -7.160458119798221
      ],
      [
        "，如",
        -7.160938616031549
      ],
      [
        "编辑",
        -7.182202189134735
      ],
      [
        "用户",
        -7.1826150919009235
      ],
      [
        "er",
        -7.198882162588203
      ],
      [
        "类型",
        -7.198938020119142
      ],
      [
        "软件",
        -7.200084299983562
      ],
      [
        "不",
        -7.212448488941363
      ],
      [
        "Shapefile",
        -7.21277280074832
      ],
      [
        "已",
        -7.22831189378385
      ],
      [
        "到",
        -7.229647538998473
      ],
      [
        "方式",
        -7.2320491829129425
      ],
      [
        "样式",
        -7.235330797217792
      ],
      [
        "7.",
        -7.238119962271979
      ],
      [
        "下",
        -7.249667383985553
      ],
      [
        "后",
        -7.249989425838734
      ],
      [
        "矢量",
        -7.2632105102585065
      ],
      [
        "m",
        -7.264370107689793
      ],
      [
        "投影",
        -7.265133350576086
      ],
      [
        "▁GIS",
        -7.267273396447764
      ],
      [
        "从",
        -7.268308155992208
      ],
      [
        "值",
        -7.27982034491314
      ],
      [
        "输入",
        -7.283267487018204
      ],
      [
        "城市",
        -7.283351852512293
      ],
      [
        "卫星",
        -7.307395315184188
      ],
      [
        "用",
        -7.308624784754893
      ],
      [
        "QGIS",
        -7.308936906646438
      ],
      [
        "以",
        -7.328181915448685
      ],
      [
        "安装",
        -7.333439035024692
      ],
      [
        "Python",
        -7.338075233153937
      ],
      [
        "B",
        -7.339091409424229
      ],
      [
        "地形",
        -7.346498775431544
      ],
      [
        "设置",
        -7.349199632321138
      ],
      [
        "个",
        -7.351387218356264
      ],
      [
        "位置",
        -7.3568969914401166
      ],
      [
        "技术",
        -7.36130398428678
      ],
      [
        "发布",
        -7.36502315454994
      ],
      [
        "算法",
        -7.368621258067584
      ],
      [
        "并",
        -7.370837313645682
      ],
      [
        "运行",
        -7.372608282052084
      ],
      [
        "+",
        -7.37340217138504
      ],
      [
        "=",
        -7.373402171385063
      ],
      [
        "Spatia",
        -7.373402903626481
      ],
      [
        "直接",
        -7.379967941991783
      ],
      [
        "区域",
        -7.384580872633678
      ],
      [
        "▁Earth",
        -7.389038489990856
      ],
      [
        "4",
        -7.395821818288886
      ],
      [
        "三维",
        -7.398619146365918
      ],
      [
        "高",
        -7.401372981021698
      ],
      [
        "拓扑",
        -7.408051727736417
      ],
      [
        "中央经线",
        -7.411991102652976
      ],
      [
        "字段",
        -7.4149252968771115
      ],
      [
        "系统",
        -7.418192920942058
      ],
      [
        "）是",
        -7.421427159484903
      ],
      [
        "GIS软件",
        -7.42237623363898
      ],
      [
        "G",
        -7.422389768748034
      ],
      [
        "▁T",
        -7.433103791619144
      ],
      [
        "）——",
        -7.434401468457255
      ],
      [
        "地",
        -7.447724141401794
      ],
      [
        "——在",
        -7.449660186958347
      ],
      [
        "主要",
        -7.4653741437712
      ],
      [
        "Web",
        -7.465897422682184
      ],
      [
        "——通过",
        -7.467136352144811
      ],
      [
        "r",
        -7.474968362549678
      ],
      [
        "de",
        -7.476366185034032
      ],
      [
        "CAD",
        -7.478930973201811
      ],
      [
        "用于",
        -7.48499337585517
      ],
      [
        "▁数据",
        -7.505271217361777
      ],
      [
        "线",
        -7.511764840107628
      ],
      [
        "的步骤：",
        -7.516058512169874
      ],
      [
        "。在",
        -7.522517384675315
      ],
      [
        "大",
        -7.5230783927657345
      ],
      [
        "下载",
        -7.523087453457654
      ],
      [
        "面积",
        -7.525094674992536
      ],
      [
        "几何",
        -7.52537296840214
      ],
      [
        "像素",
        -7.5254044920587395
      ],
      [
        "空间",
        -7.527401343906343
      ],
      [
        "S",
        -7.528488081910594
      ],
      [
        "操作",
        -7.529210411351378
      ],
      [
        "应用",
        -7.530301494183228
      ],
      [
        "向",
        -7.532420762067052
      ],
      [
        "会",
        -7.533383109523038
      ],
      [
        "|",
        -7.533658581641621
      ],
      [
        "*",
        -7.533658581641621
      ],
      [
        "包含",
        -7.533658581703114
      ],
      [
        "▁Not",
        -7.533671921735609
      ],
      [
        "生成",
        -7.53370784332723
      ],
      [
        "区别",
        -7.533716793438613
      ],
      [
        "多",
        -7.534816826414037
      ],
      [
        "▁Online",
        -7.535662689354721
      ],
      [
        "DEM",
        -7.53664517655917
      ],
      [
        "角度",
        -7.53831240845879
      ],
      [
        "网络",
        -7.538578537756669
      ],
      [
        "，由",
        -7.539712032409968
      ],
      [
        "分为",
        -7.542205159808677
      ],
      [
        "基本",
        -7.545532832188494
      ],
      [
        "处理工具箱",
        -7.547451282286676
      ],
      [
        "方",
        -7.547620428986854
      ],
      [
        "范围",
        -7.552314816040939
      ],
      [
        "模型",
        -7.553116700887751
      ],
      [
        "环境",
        -7.554892258201562
      ],
      [
        "测量",
        -7.555365820831337
      ],
      [
        "，在",
        -7.564726140069652
      ],
      [
        "M",
        -7.564958376112428
      ],
      [
        "等）",
        -7.575984935732098
      ],
      [
        "Landsat",
        -7.581727009408061
      ],
      [
        "中国",
        -7.582762407478526
      ],
      [
        "自",
        -7.585990729913217
      ],
      [
        "开源",
        -7.588418142756417
      ],
      [
        "▁G",
        -7.591242504874627
      ],
      [
        "U",
        -7.5912638798072205
      ],
      [
        "打开",
        -7.591605294324225
      ],
      [
        "（Ra",
        -7.594082618889658
      ],
      [
        "GeoPackage",
        -7.594871393084343
      ],
      [
        "加",
        -7.596899637435258
      ],
      [
        "or",
        -7.604997278981994
      ],
      [
        "采用",
        -7.605071182641828
      ],
      [
        "常用",
        -7.611503557869909
      ],
      [
        "——将",
        -7.625205382523822
      ],
      [
        "遥感影像",
        -7.629213138406374
      ],
      [
        "元素",
        -7.631022772334027
      ],
      [
        "法",
        -7.633296054836423
      ],
      [
        "s",
        -7.638877737382543
      ],
      [
        "其",
        -7.6592392034830254
      ],
      [
        "2",
        -7.659461355357501
      ],
      [
        "栅格",
        -7.660591042305331
      ],
      [
        "▁Data",
        -7.667476785181748
      ],
      [
        "每个",
        -7.672060391580062
      ],
      [
        "CGCS2000",
        -7.67257730351483
      ],
      [
        "ic",
        -7.673107590364323
      ],
      [
        "菜单",
        -7.673752328236129
      ],
      [
        "d",
        -7.677196458016882
      ],
      [
        "正",
        -7.684862932197655
      ],
      [
        "'",
        -7.687705488412499
      ],
      [
        "ed",
        -7.691578688016482
      ],
      [
        "I",
        -7.694776143457769
      ],
      [
        "数据库",
        -7.701438285697501
      ],
      [
        "地理",
        -7.702780888124176
      ],
      [
        "精度",
        -7.707068728006572
      ],
      [
        "PostgreSQL",
        -7.715042360969004
      ],
      [
        "规则",
        -7.715393583412109
      ],
      [
        "小",
        -7.717403159579792
      ],
      [
        "基于",
        -7.717694623283313
      ],
      [
        "波段",
        -7.718112748566785
      ],
      [
        "级",
        -7.718967128859286
      ],
      [
        "界面",
        -7.723637403662114
      ],
      [
        "扩展",
        -7.724367063699322
      ],
      [
        "端",
        -7.724378927861981
      ],
      [
        "所有",
        -7.724476526520055
      ],
      [
        "外",
        -7.724498299070033
      ],
      [
        "辐射",
        -7.7245676725517445
      ],
      [
        "▁>",
        -7.72456769778489
      ],
      [
        "WGS84",
        -7.729730350826468
      ],
      [
        "▁GeoJSON",
        -7.730543684930417
      ],
      [
        "不同",
        -7.733937049466145
      ],
      [
        "，ArcGIS",
        -7.736213305375083
      ],
      [
        "高精度",
        -7.736546466332124
      ],
      [
        "距离",
        -7.736887225563056
      ],
      [
        "网络分析",
        -7.737430974579787
      ],
      [
        "——利用",
        -7.738872480852947
      ],
      [
        "中，",
        -7.742891683674773
      ],
      [
        "提供",
        -7.746101536000968
      ],
      [
        "▁1",
        -7.750496992604048
      ],
      [
        "Feature",
        -7.751260790481688
      ],
      [
        "遥感",
        -7.756516354493643
      ],
      [
        "▁设置",
        -7.757112187055922
      ],
      [
        "E",
        -7.758921393923872
      ],
      [
        "导出为",
        -7.763291975714816
      ],
      [
        "数",
        -7.763562405867738
      ],
      [
        "化",
        -7.764481882336212
      ],
      [
        "PostGIS",
        -7.7649934359919595
      ],
      [
        "执行",
        -7.766209939899391
      ],
      [
        "▁QGIS的",
        -7.780400389135025
      ],
      [
        "D",
        -7.781311689529311
      ],
      [
        "▁中国",
        -7.784154623551808
      ],
      [
        "▁ArcGIS中",
        -7.787835569439563
      ],
      [
        "NDVI",
        -7.7909531417322535
      ],
      [
        "正确",
        -7.791569619866031
      ],
      [
        "GNSS",
        -7.792519539696659
      ],
      [
        "栅格计算器",
        -7.797901798698545
      ],
      [
        "要",
        -7.798793450517818
      ],
      [
        "，可以",
        -7.799021625986481
      ],
      [
        "，通过",
        -7.802279611064492
      ],
      [
        "布局",
        -7.807962923660831
      ],
      [
        "影像",
        -7.810992943654183
      ],
      [
        "管理",
        -7.811046232592252
      ],
      [
        "工具，",
        -7.822799894502857
      ],
      [
        "HE",
        -7.835729537452657
      ],
      [
        "tic",
        -7.839996723653924
      ],
      [
        "测",
        -7.8445176991205265
      ],
      [
        "坐标系",
        -7.8497394437745
      ],
      [
        "分类",
        -7.856313423548105
      ],
      [
        "于",
        -7.856671269530395
      ],
      [
        "区",
        -7.8573383688737914
      ],
      [
        "▁UTM",
        -7.860149999487046
      ],
      [
        "▁遥感",
        -7.86448253939216
      ],
      [
        "图",
        -7.879896474093103
      ],
      [
        "▁F",
        -7.880929209802105
      ],
      [
        "（Mu",
        -7.882097948155819
      ],
      [
        "类",
        -7.884274907471611
      ],
      [
        "上",
        -7.885615272017641
      ],
      [
        "A",
        -7.887057243005438
      ],
      [
        "C",
        -7.894803089970114
      ],
      [
        "标准",
        -7.897243878752497
      ],
      [
        "导入",
        -7.89770921007432
      ],
      [
        "3",
        -7.897916579852554
      ],
      [
        "f",
        -7.9009125791453325
      ],
      [
        "le",
        -7.903544885829325
      ],
      [
        "t",
        -7.904007838295571
      ],
      [
        "▁-",
        -7.909653740252898
      ],
      [
        "多光谱",
        -7.923004764375047
      ],
      [
        "▁Tool",
        -7.92600858149857
      ],
      [
        "(",
        -7.931046083580126
      ],
      [
        "可",
        -7.931274135235617
      ],
      [
        "步骤：",
        -7.93330309066389
      ],
      [
        "▁A",
        -7.934300982867751
      ],
      [
        "——选择",
        -7.935848483312091
      ],
      [
        "地球",
        -7.936123645597861
      ],
      [
        "TIFF",
        -7.946399432822564
      ],
      [
        "传感器",
        -7.952947533348677
      ],
      [
        "对象",
        -7.953589815681148
      ],
      [
        "广泛应用于",
        -7.953734748056879
      ],
      [
        "栅格数据",
        -7.954165205813577
      ],
      [
        "）即",
        -7.954302502399472
      ],
      [
        "内",
        -7.955259501540609
      ],
      [
        "选",
        -7.956519045602376
      ],
      [
        "程",
        -7.957779590664747
      ],
      [
        "定",
        -7.958396892575967
      ],
      [
        "X",
        -7.9585309423187685
      ],
      [
        "成",
        -7.958617839763884
      ],
      [
        "标",
        -7.959090271907304
      ],
      [
        "显示",
        -7.959350561549854
      ],
      [
        "更",
        -7.959988801450212
      ],
      [
        "提供了",
        -7.959994389068589
      ],
      [
        "接收",
        -7.960471210376747
      ],
      [
        "复杂",
        -7.960671027683429
      ],
      [
        "函数",
        -7.960678736209653
      ],
      [
        "再",
        -7.960678783674366
      ],
      [
        "次",
        -7.960678783674439
      ],
      [
        "世界",
        -7.9606787836744815
      ],
      [
        "▁System",
        -7.960678784319253
      ],
      [
        "ArcPy",
        -7.960679403033909
      ],
      [
        "？——",
        -7.960679470169706
      ],
      [
        "Network",
        -7.96069460365878
      ],
      [
        "▁(NIR",
        -7.960696478607598
      ],
      [
        "_band",
        -7.960705514053586
      ],
      [
        "激光",
        -7.960714541776448
      ],
      [
        "识别",
        -7.960718118558633
      ],
      [
        "行业",
        -7.960803560390032
      ],
      [
        "box",
        -7.960845774843729
      ],
      [
        "指定",
        -7.960870335798944
      ],
      [
        "集成",
        -7.960872880554255
      ],
      [
        "地球表面",
        -7.96088524848142
      ],
      [
        "加权",
        -7.961070710818854
      ],
      [
        "会自动",
        -7.961100964638877
      ],
      [
        "百度地图",
        -7.96130697632959
      ],
      [
        "然",
        -7.961699555362973
      ],
      [
        "常见问题",
        -7.961809174754648
      ],
      [
        "高程",
        -7.9628128009601875
      ],
      [
        "拓扑规则",
        -7.96305673820426
      ],
      [
        "拓扑关系",
        -7.96433168377085
      ],
      [
        "批量处理",
        -7.964819019800057
      ],
      [
        "用途",
        -7.966681965895134
      ],
      [
        "区分",
        -7.967671465353462
      ],
      [
        "法（",
        -7.971148681377653
      ],
      [
        "（基于",
        -7.973120864680827
      ],
      [
        "需要注意",
        -7.975758107468453
      ],
      [
        "具有",
        -7.97718768433183
      ],
      [
        "利用",
        -7.977553880870308
      ],
      [
        "▁3D",
        -7.979006877187529
      ],
      [
        "的核心",
        -7.981032305517789
      ],
      [
        "都",
        -7.9810333703443135
      ],
      [
        "），ArcGIS",
        -7.982298052097541
      ],
      [
        "问题",
        -7.982852652136795
      ],
      [
        "▁E",
        -7.983698415964346
      ],
      [
        "Geograph",
        -7.983718082603929
      ],
      [
        "Multi",
        -7.983728822569766
      ],
      [
        "▁对于",
        -7.990590244842998
      ],
      [
        "测绘",
        -7.994070041950158
      ],
      [
        "变形",
        -7.996443562335642
      ],
      [
        "如",
        -7.997412654230784
      ],
      [
        "描述",
        -7.998265967835483
      ],
      [
        "8.",
        -8.00087378527571
      ],
      [
        "pu",
        -8.000996265956022
      ],
      [
        "点击",
        -8.004395510774483
      ],
      [
        "纬度",
        -8.010351648979519
      ],
      [
        "保持",
        -8.012544646136993
      ],
      [
        "地面",
        -8.015564301841302
      ],
      [
        "▁添加",
        -8.018686590396694
      ],
      [
        "el",
        -8.029629877618428
      ],
      [
        "可通过",
        -8.031858581136207
      ],
      [
        "▁CAD",
        -8.035981063387265
      ],
      [
        "（S",
        -8.037356646122532
      ],
      [
        "——基于",
        -8.044079995663225
      ],
      [
        "▁使用",
        -8.059514534552177
      ],
      [
        "性",
        -8.061539603362057
      ],
      [
        "批量",
        -8.062841683794312
      ],
      [
        "数值",
        -8.067042703502665
      ],
      [
        "信息",
        -8.078799190076612
      ],
      [
        "经",
        -8.079155616842232
      ],
      [
        "发射",
        -8.080835093580099
      ],
      [
        "最",
        -8.085051483708252
      ],
      [
        "ust",
        -8.097829115411036
      ],
      [
        "支持的",
        -8.099117490058036
      ],
      [
        "平台",
        -8.103709498992309
      ],
      [
        "。它",
        -8.107267164806178
      ],
      [
        "▁它",
        -8.115923999870763
      ],
      [
        "米",
        -8.122139877162523
      ],
      [
        "。主要",
        -8.122732241758172
      ],
      [
        "的坐标系统",
        -8.125007123794628
      ],
      [
        "，QGIS",
        -8.127936295741108
      ],
      [
        "i",
        -8.128635626594285
      ],
      [
        "矢量图层",
        -8.130804965168823
      ],
      [
        "基准面",
        -8.133268329331766
      ],
      [
        "▁地理坐标系统",
        -8.13332646212167
      ],
      [
        "共享",
        -8.133534362345273
      ],
      [
        "▁常用",
        -8.1350337788181
      ],
      [
        "Leaflet",
        -8.142925051528522
      ],
      [
        "a",
        -8.146748553833236
      ],
      [
        "在不",
        -8.14928142889936
      ],
      [
        "方法",
        -8.152237919544863
      ],
      [
        "▁CGCS2000",
        -8.152562884304459
      ],
      [
        "网",
        -8.153240620913223
      ],
      [
        "▁C",
        -8.163113740169972
      ],
      [
        "Esri",
        -8.166479498941428
      ],
      [
        "▁主要",
        -8.168357830944672
      ],
      [
        "▁在QGIS中",
        -8.17049189817094
      ],
      [
        "ne",
        -8.172070120207783
      ],
      [
        "而",
        -8.176710378881166
      ],
      [
        "▁空间数据的",
        -8.184678659820598
      ],
      [
        "▁遥感影像",
        -8.185058457726534
      ],
      [
        "T",
        -8.18943955213449
      ],
      [
        "存在",
        -8.189558237984285
      ],
      [
        "制图",
        -8.197540003243416
      ],
      [
        "限制",
        -8.19833759589538
      ],
      [
        "p",
        -8.19976107899752
      ],
      [
        "点、线、面",
        -8.201182753886311
      ],
      [
        "模式",
        -8.208350550208142
      ],
      [
        "R",
        -8.216217386170966
      ],
      [
        "F",
        -8.217640068418746
      ],
      [
        "n",
        -8.217974970199524
      ],
      [
        "支持多",
        -8.220121737308837
      ],
      [
        "经纬度",
        -8.220141157256199
      ],
      [
        "合",
        -8.223040740237929
      ],
      [
        "重叠",
        -8.224455428923545
      ],
      [
        "ctor",
        -8.225422507942291
      ],
      [
        "表达式",
        -8.227442273195193
      ],
      [
        "中的",
        -8.228985885132536
      ],
      [
        "开发的",
        -8.232326555675005
      ],
      [
        "Map",
        -8.234959560102386
      ],
      [
        "▁TIN",
        -8.236422864943373
      ],
      [
        "操作包括：",
        -8.238288983593815
      ],
      [
        "先",
        -8.245052882153768
      ],
      [
        "ter",
        -8.247900481554701
      ],
      [
        "列",
        -8.249121164651596
      ],
      [
        "）——基于",
        -8.249961032128102
      ],
      [
        "▁Shapefile",
        -8.252233940779416
      ],
      [
        "分辨率",
        -8.252581748160145
      ],
      [
        "网格",
        -8.252878875102779
      ],
      [
        "转换",
        -8.254031952234762
      ],
      [
        "编码",
        -8.254748396334742
      ],
      [
        "在不同",
        -8.259041055887806
      ],
      [
        "单位",
        -8.259224800190534
      ],
      [
        "精确",
        -8.25970884017153
      ],
      [
        "发",
        -8.260359836817958
      ],
      [
        "7",
        -8.260582947476388
      ],
      [
        "V",
        -8.261397740468302
      ],
      [
        "压缩",
        -8.261735255241017
      ],
      [
        "主",
        -8.263971809140264
      ],
      [
        "定义",
        -8.26461417614964
      ],
      [
        "特征",
        -8.264853499659004
      ],
      [
        "之间",
        -8.264929934473178
      ],
      [
        "新",
        -8.265957356414692
      ],
      [
        "局限",
        -8.266178507809673
      ],
      [
        "内容",
        -8.26635639402093
      ],
      [
        "前",
        -8.267096193864612
      ],
      [
        "要求",
        -8.267122210815472
      ],
      [
        "理",
        -8.267414508970079
      ],
      [
        "可视化",
        -8.268155065429893
      ],
      [
        "质",
        -8.268248377020845
      ],
      [
        "结果",
        -8.268670457915938
      ],
      [
        "组",
        -8.268852108246687
      ],
      [
        "来",
        -8.26891883880673
      ],
      [
        "制",
        -8.269000701727373
      ],
      [
        ")",
        -8.269008191347524
      ],
      [
        "自动",
        -8.269043083640316
      ],
      [
        "能力",
        -8.269106660587767
      ],
      [
        "▁在ArcGIS",
        -8.269116545843579
      ],
      [
        "迁移",
        -8.26923250999203
      ],
      [
        "受",
        -8.269259132861164
      ],
      [
        "获取",
        -8.269281273817562
      ],
      [
        "资源",
        -8.269289241037361
      ],
      [
        "权",
        -8.269451872589789
      ],
      [
        "简",
        -8.269568770762572
      ],
      [
        "项",
        -8.269811812500283
      ],
      [
        "这些",
        -8.26982148130873
      ],
      [
        "平",
        -8.269837361295693
      ],
      [
        "行",
        -8.269903306255973
      ],
      [
        "差异",
        -8.26992430830456
      ],
      [
        "管",
        -8.269938586096005
      ],
      [
        "非",
        -8.26998611351687
      ],
      [
        "二",
        -8.270007557247865
      ],
      [
        "可能",
        -8.270052825557036
      ],
      [
        "天",
        -8.270093250647855
      ],
      [
        "宽",
        -8.270125356834308
      ],
      [
        "全球",
        -8.270140208506323
      ],
      [
        "及",
        -8.2701522172979
      ],
      [
        "被",
        -8.270202589926908
      ],
      [
        "文字",
        -8.27020259096286
      ],
      [
        "OpenStreetMap",
        -8.270202593198256
      ],
      [
        "好",
        -8.270202593198258
      ],
      [
        "DWG/DXF",
        -8.270202593198258
      ],
      [
        "模板",
        -8.270202593198258
      ],
      [
        "渲染",
        -8.270202593198263
      ],
      [
        "幅",
        -8.270202593198267
      ],
      [
        "Y",
        -8.270202593198274
      ],
      [
        "几乎所有",
        -8.27020259319829
      ],
      [
        "Python脚本",
        -8.270202593198348
      ],
      [
        "修改",
        -8.270202593235656
      ],
      [
        "起",
        -8.270202593238178
      ],
      [
        "研究",
        -8.270202593238183
      ],
      [
        "备",
        -8.270202593238194
      ],
      [
        "山体阴影",
        -8.270202593238194
      ],
      [
        "逻辑",
        -8.270202593238205
      ],
      [
        "▁什么是",
        -8.270202593238212
      ],
      [
        "越",
        -8.270202593238213
      ],
      [
        "▁Calculator）",
        -8.270202593238213
      ],
      [
        "两期",
        -8.270202593243434
      ],
      [
        "移动",
        -8.27020259326455
      ],
      [
        "坡度",
        -8.270202593283837
      ],
      [
        "策略",
        -8.270202593288582
      ],
      [
        "配置",
        -8.270202593288683
      ],
      [
        "吸收",
        -8.270202593288715
      ],
      [
        "搭载",
        -8.270202593288808
      ],
      [
        "空隙",
        -8.270202593290907
      ],
      [
        "轨道",
        -8.270202593299631
      ],
      [
        "反射",
        -8.27020259334664
      ],
      [
        "启动",
        -8.270202593375712
      ],
      [
        "携带",
        -8.270202593388513
      ],
      [
        "维护",
        -8.270202593413735
      ],
      [
        "注记",
        -8.270202593432952
      ],
      [
        "唯一",
        -8.270202593548149
      ],
      [
        "一般",
        -8.27020259354902
      ],
      [
        "统一",
        -8.270202593550245
      ],
      [
        "许可",
        -8.2702025937306
      ],
      [
        "自身",
        -8.270202593773782
      ],
      [
        "详细",
        -8.27020259458925
      ],
      [
        "电磁波",
        -8.270202594805653
      ],
      [
        "必须被覆盖（",
        -8.270202596169149
      ],
      [
        "设计",
        -8.270202600386511
      ],
      [
        "glTF",
        -8.270202658440638
      ],
      [
        "World",
        -8.27020266438949
      ],
      [
        "▁1000",
        -8.27020287932489
      ],
      [
        "0年代，",
        -8.270202979758533
      ],
      [
        "取决于",
        -8.27020312530047
      ],
      [
        "的情况下",
        -8.270203695216656
      ],
      [
        "▁po",
        -8.270208157211009
      ],
      [
        "传输",
        -8.270211571124436
      ],
      [
        "文本",
        -8.270221028883563
      ],
      [
        "生态",
        -8.270224255773003
      ],
      [
        "建立",
        -8.27022481230325
      ],
      [
        "验证",
        -8.270252293859354
      ],
      [
        "概念",
        -8.270252296874533
      ],
      [
        "热红外传感器",
        -8.270268182922543
      ],
      [
        "平移",
        -8.270268503332039
      ],
      [
        "地理信息系统",
        -8.270348407137767
      ],
      [
        "本地",
        -8.270364956262522
      ],
      [
        "数据库管理器",
        -8.270390995220874
      ],
      [
        "定位",
        -8.270402205862192
      ],
      [
        "部分",
        -8.270449880646256
      ],
      [
        "中文",
        -8.27049615691727
      ],
      [
        "服务器端",
        -8.270528101620187
      ],
      [
        "接收机",
        -8.270534150170393
      ],
      [
        "lope",
        -8.270535781118193
      ],
      [
        "选项",
        -8.270593466558363
      ],
      [
        "lation",
        -8.270620103486845
      ],
      [
        "LAS",
        -8.270732704743093
      ],
      [
        "。常用的",
        -8.270866473372307
      ],
      [
        "线性",
        -8.270910803545313
      ],
      [
        "Polygon",
        -8.270955985095734
      ],
      [
        "（Re",
        -8.27096414803087
      ],
      [
        "ID",
        -8.27108815283484
      ],
      [
        "地图视图",
        -8.271112676388396
      ],
      [
        "大气",
        -8.271182382126847
      ],
      [
        "▁Ve",
        -8.27181174210206
      ],
      [
        "已有",
        -8.272261074902035
      ],
      [
        "▁GIS中的",
        -8.272457901969851
      ],
      [
        "默认",
        -8.272528766514627
      ],
      [
        "监测",
        -8.273295833138036
      ],
      [
        "Sentinel-2",
        -8.273456344784128
      ],
      [
        "插件",
        -8.273507954151546
      ],
      [
        "视图",
        -8.273690828238944
      ],
      [
        "大小",
        -8.274388547703639
      ],
      [
        "光谱特征",
        -8.275580375894346
      ],
      [
        "▁地图投影",
        -8.276300120358458
      ],
      [
        "集",
        -8.276455220097068
      ],
      [
        "、Map",
        -8.276625587156408
      ],
      [
        "无损压缩",
        -8.27761816157877
      ],
      [
        "旋转",
        -8.277644246221879
      ],
      [
        "强",
        -8.277828577357358
      ],
      [
        "-选择",
        -8.277975753212331
      ],
      [
        "，它",
        -8.278275926299496
      ],
      [
        "GPS",
        -8.278610969485126
      ],
      [
        "、形状、",
        -8.279105348543663
      ],
      [
        "路径",
        -8.280045675791706
      ],
      [
        "（H",
        -8.280052422636224
      ],
      [
        "遥感技术",
        -8.281433835422845
      ],
      [
        "▁Pro使用",
        -8.284124302687653
      ],
      [
        "▁通过",
        -8.285431077349857
      ],
      [
        "，从",
        -8.28642832357835
      ],
      [
        "，主要",
        -8.286532109220392
      ],
      [
        "▁Analyst（",
        -8.28690045196191
      ],
      [
        "▁矢量数据",
        -8.28857052958935
      ],
      [
        "，选择",
        -8.288686158187598
      ],
      [
        "的主要",
        -8.290184002836895
      ],
      [
        "OSM",
        -8.290434797384895
      ],
      [
        "（C",
        -8.290639758663449
      ],
      [
        "age",
        -8.292189501493992
      ],
      [
        "高分辨率",
        -8.293443496371113
      ],
      [
        "完成后",
        -8.293484463413026
      ],
      [
        "）、支持",
        -8.293490960889583
      ],
      [
        "注",
        -8.293801698210425
      ],
      [
        "切换",
        -8.293882906518117
      ],
      [
        "以下",
        -8.2942769534463
      ],
      [
        "IM",
        -8.295969677529978
      ],
      [
        "法——",
        -8.298369176635369
      ],
      [
        "现代",
        -8.302191190113444
      ],
      [
        "Be",
        -8.30547571528827
      ],
      [
        "浏览器面板中",
        -8.305928922436905
      ],
      [
        "▁H",
        -8.306022696072242
      ],
      [
        "地理要素",
        -8.30880298799108
      ],
      [
        "——按",
        -8.310419290877965
      ],
      [
        "▁常用的",
        -8.313852909916307
      ],
      [
        "之间的",
        -8.315486991719483
      ],
      [
        "在QGIS中使用",
        -8.319255701287828
      ],
      [
        "L",
        -8.324073052699136
      ],
      [
        "数据：",
        -8.326763688491901
      ],
      [
        "一",
        -8.329790692879538
      ],
      [
        "的三维",
        -8.333452103795617
      ],
      [
        "构建",
        -8.334100981563656
      ],
      [
        "、建筑",
        -8.334146526493079
      ],
      [
        "▁影像",
        -8.334454277430646
      ],
      [
        "ity",
        -8.335686051080742
      ],
      [
        "金字塔",
        -8.341647736746928
      ],
      [
        "▁Geod",
        -8.346234794127719
      ],
      [
        "，建议",
        -8.34894812735169
      ],
      [
        "重要",
        -8.351515088394216
      ],
      [
        "连接",
        -8.354594815805443
      ],
      [
        "，使用",
        -8.35784513171637
      ],
      [
        "丰富的",
        -8.359720853092178
      ],
      [
        "条件",
        -8.362151847985338
      ],
      [
        "▁Coordinate",
        -8.366233264361927
      ],
      [
        "时，",
        -8.36838674541245
      ],
      [
        "on",
        -8.368618280274527
      ],
      [
        "▁从",
        -8.369943414129963
      ],
      [
        "GL",
        -8.371364719559573
      ],
      [
        "地理空间数据格式",
        -8.374522571278135
      ],
      [
        "是GIS",
        -8.375214504788124
      ],
      [
        "c",
        -8.375268103356222
      ],
      [
        "空间数据库",
        -8.377119053030762
      ],
      [
        "。常见的",
        -8.382836133084446
      ],
      [
        "图形",
        -8.382983328493353
      ],
      [
        "完整的",
        -8.385807306687145
      ],
      [
        "K",
        -8.386892939146659
      ],
      [
        "（T",
        -8.38780498964443
      ],
      [
        "深度",
        -8.388379504149839
      ],
      [
        "、不支持",
        -8.390544674444302
      ],
      [
        "▁常见的",
        -8.392499454569627
      ],
      [
        "sha",
        -8.395374023604253
      ],
      [
        "控制",
        -8.398359169366515
      ],
      [
        "数据处理",
        -8.400112919065176
      ],
      [
        "▁LiDAR",
        -8.400683249376025
      ],
      [
        "大数据",
        -8.400735347651793
      ],
      [
        "1",
        -8.402398809433782
      ],
      [
        "后，",
        -8.403310407525879
      ],
      [
        "将影像",
        -8.403560028603902
      ],
      [
        "▁Pro中",
        -8.40377530677174
      ],
      [
        "第一",
        -8.40652923096442
      ],
      [
        "采集",
        -8.409429793035143
      ],
      [
        "投影坐标",
        -8.413567829681842
      ],
      [
        "错误",
        -8.419523432252344
      ],
      [
        "，用",
        -8.420124314216883
      ],
      [
        "展",
        -8.420753293776368
      ],
      [
        "2000",
        -8.423309920976449
      ],
      [
        "文件）",
        -8.427455792342057
      ],
      [
        "坐标转换",
        -8.428231487016683
      ],
      [
        "Ext",
        -8.4284065329053
      ],
      [
        "te",
        -8.42924664010711
      ],
      [
        "H",
        -8.435034698652531
      ],
      [
        "数据量",
        -8.435385059071665
      ],
      [
        "但",
        -8.437006183933583
      ],
      [
        "管理、",
        -8.440878636590273
      ],
      [
        "re",
        -8.443270531382339
      ],
      [
        "，按",
        -8.448123307845407
      ],
      [
        "数据转换",
        -8.454804726017475
      ],
      [
        "统计（",
        -8.455903023680222
      ],
      [
        "ch",
        -8.465043349229243
      ],
      [
        "——如果",
        -8.471153080912782
      ],
      [
        "rac",
        -8.481115158403684
      ],
      [
        "▁地理坐标",
        -8.482314814343102
      ],
      [
        "）是一种",
        -8.486323128248193
      ],
      [
        "▁GeoTIFF",
        -8.491024987934999
      ],
      [
        "在线地图",
        -8.492205057151791
      ],
      [
        "▁NetCDF",
        -8.492794239450799
      ],
      [
        "对于",
        -8.502972776769502
      ],
      [
        "。常用",
        -8.503174010901057
      ],
      [
        "北京54",
        -8.512751666148406
      ],
      [
        "（A",
        -8.51491160653281
      ],
      [
        "雷达",
        -8.515333555320284
      ],
      [
        "类型包括",
        -8.515480682748116
      ],
      [
        "横轴墨卡托投影",
        -8.517388277246136
      ],
      [
        "O",
        -8.518653686740333
      ],
      [
        "的局限在于：",
        -8.52016802303513
      ],
      [
        "展示",
        -8.52168555945284
      ],
      [
        "右",
        -8.522392423185753
      ],
      [
        "错误（",
        -8.523576562467209
      ],
      [
        "顶点、",
        -8.524272099258997
      ],
      [
        "地理处理工具",
        -8.532341094452892
      ],
      [
        "坐标系统，",
        -8.532690759707373
      ],
      [
        "图层坐标系",
        -8.53367759010732
      ],
      [
        "，适合",
        -8.537910323110488
      ],
      [
        "2GB",
        -8.542453871670237
      ],
      [
        "WKT",
        -8.545284837887799
      ],
      [
        "，支持",
        -8.546243323916608
      ],
      [
        "字符",
        -8.552060817254711
      ],
      [
        "空间索引",
        -8.553136154464156
      ],
      [
        "全色",
        -8.557502520076888
      ],
      [
        "▁Landsat",
        -8.557652156053697
      ],
      [
        "使用WGS84坐标",
        -8.557988362028134
      ],
      [
        "ing",
        -8.560392330686721
      ],
      [
        "商业",
        -8.562944769258033
      ],
      [
        "mo",
        -8.56552538959361
      ],
      [
        "侧",
        -8.56571189007861
      ],
      [
        "ll",
        -8.572349020045364
      ],
      [
        "over",
        -8.574112193461675
      ],
      [
        "（ArcGIS",
        -8.574430294682738
      ],
      [
        "us",
        -8.580775934025045
      ],
      [
        "▁空间分析",
        -8.583078526427846
      ],
      [
        "——使用",
        -8.591045156981641
      ],
      [
        "化（",
        -8.599076822965198
      ],
      [
        "建议",
        -8.599895321744375
      ],
      [
        "h",
        -8.599979806830648
      ],
      [
        "每",
        -8.60397943447709
      ],
      [
        "EPSG:3857",
        -8.605330817588673
      ],
      [
        "▁空间数据",
        -8.605575813491834
      ],
      [
        "10",
        -8.606270008135258
      ],
      [
        "像元",
        -8.612786401413802
      ],
      [
        "项目",
        -8.613746222521378
      ],
      [
        "也",
        -8.621339417270393
      ],
      [
        "▁CAD中的",
        -8.624448986068334
      ],
      [
        "▁计算",
        -8.624486223751694
      ],
      [
        "机",
        -8.628805417425465
      ],
      [
        "——ArcMap使用",
        -8.629429115354212
      ],
      [
        "lo",
        -8.631336231002255
      ],
      [
        "ps",
        -8.631607322394427
      ],
      [
        "-新建",
        -8.632101494919581
      ],
      [
        "应",
        -8.640294547203844
      ],
      [
        "、需要",
        -8.640844442136768
      ],
      [
        "考虑",
        -8.641356503319338
      ],
      [
        "乘",
        -8.645421872093191
      ],
      [
        "8",
        -8.649056073811398
      ],
      [
        "Fa",
        -8.650100469574017
      ],
      [
        "es",
        -8.650921052558235
      ],
      [
        "捕捉",
        -8.651008971244268
      ],
      [
        "▁19",
        -8.65106063374587
      ],
      [
        "▁O",
        -8.65801982846855
      ],
      [
        "其他",
        -8.663432651772284
      ],
      [
        "ArcMap",
        -8.663921361908844
      ],
      [
        "GIS数据",
        -8.66648124516576
      ],
      [
        "存储",
        -8.666682560542679
      ],
      [
        "当",
        -8.66757525169835
      ],
      [
        "Me",
        -8.667780324915153
      ],
      [
        "墨卡托投影",
        -8.669585800646672
      ],
      [
        "GF-",
        -8.67265095689108
      ],
      [
        "一致",
        -8.673374255393323
      ],
      [
        "3D",
        -8.67337916569963
      ],
      [
        "核心",
        -8.674209006176334
      ],
      [
        "现",
        -8.6748487452115
      ],
      [
        "最大",
        -8.674987018740746
      ],
      [
        "分布",
        -8.675375745201036
      ],
      [
        "开发",
        -8.6803457561852
      ],
      [
        "SV",
        -8.681169991884547
      ],
      [
        "处",
        -8.68132641582214
      ],
      [
        "字段计算器",
        -8.681685501463868
      ],
      [
        "▁8",
        -8.685845376473269
      ],
      [
        "▁To",
        -8.686090674581683
      ],
      [
        "是一个",
        -8.686128417772592
      ],
      [
        "南",
        -8.688186433216277
      ],
      [
        "连续",
        -8.688361077266002
      ],
      [
        "50",
        -8.690165874243503
      ],
      [
        "光谱",
        -8.691361571733237
      ],
      [
        "ve",
        -8.693001352417824
      ],
      [
        "▁比例尺",
        -8.693951101629354
      ],
      [
        "还",
        -8.6946034163892
      ],
      [
        "q",
        -8.695644708591914
      ],
      [
        "达",
        -8.696844238121098
      ],
      [
        "系列（",
        -8.699184559915539
      ],
      [
        "▁W",
        -8.700148569994731
      ],
      [
        "角",
        -8.702710784238693
      ],
      [
        "在ArcGIS中，使用",
        -8.70375693491714
      ],
      [
        "x",
        -8.70629984021599
      ],
      [
        "无",
        -8.707117074516828
      ],
      [
        "▁Analyst",
        -8.707160665996202
      ],
      [
        "植被",
        -8.707561447372454
      ],
      [
        ":",
        -8.707679697115053
      ],
      [
        "元数据",
        -8.707955320325604
      ],
      [
        "由",
        -8.708597050332992
      ],
      [
        "叠加",
        -8.709724115928134
      ],
      [
        "确认",
        -8.710691919932007
      ],
      [
        "影响",
        -8.710938562512643
      ],
      [
        "▁属性表",
        -8.711244946330343
      ],
      [
        "三",
        -8.712764272118736
      ],
      [
        "GDAL",
        -8.713089565507993
      ],
      [
        "相机",
        -8.713314437827533
      ],
      [
        "landuse",
        -8.713359540917194
      ],
      [
        "式",
        -8.714442792085555
      ],
      [
        "ML",
        -8.71444648131285
      ],
      [
        "同一",
        -8.714933469419826
      ],
      [
        "指",
        -8.71501099524717
      ],
      [
        "查询",
        -8.715557428591362
      ],
      [
        "合并",
        -8.715635651107718
      ],
      [
        "空间分辨率",
        -8.71633751486823
      ],
      [
        "实际",
        -8.717142201336447
      ],
      [
        "重投影",
        -8.717245619449027
      ],
      [
        "SQL",
        -8.717532752185814
      ],
      [
        "重",
        -8.718002652750833
      ],
      [
        "较",
        -8.718170649138838
      ],
      [
        "代",
        -8.718171590439631
      ],
      [
        "多个",
        -8.718279727059835
      ],
      [
        "因",
        -8.718285217325306
      ],
      [
        "系",
        -8.718292340522513
      ],
      [
        "设",
        -8.718339438526451
      ],
      [
        "面板",
        -8.718547521916284
      ],
      [
        "气",
        -8.71867085463894
      ],
      [
        "分割",
        -8.718688534661595
      ],
      [
        "差",
        -8.71874555779326
      ],
      [
        "是指",
        -8.718746671185572
      ],
      [
        "比",
        -8.71879748538149
      ],
      [
        "an",
        -8.718815108920156
      ],
      [
        "检测",
        -8.718930540155107
      ],
      [
        "EPSG:4326",
        -8.718944722696863
      ],
      [
        "查看",
        -8.718996737053212
      ],
      [
        "层",
        -8.71917813323246
      ],
      [
        "出",
        -8.719243306760108
      ],
      [
        "边界",
        -8.719246750997636
      ],
      [
        "常见的",
        -8.719273061703824
      ],
      [
        "得",
        -8.719346521207532
      ],
      [
        "▁Model",
        -8.71944115084519
      ],
      [
        "业",
        -8.71948084167336
      ],
      [
        "知",
        -8.719500591044255
      ],
      [
        "容",
        -8.719587495234325
      ],
      [
        "代码",
        -8.719608591897352
      ],
      [
        "规",
        -8.719670006722282
      ],
      [
        "地物",
        -8.719715651602503
      ],
      [
        "服务器",
        -8.719737820349156
      ],
      [
        "▁空间数据库",
        -8.719833928687654
      ],
      [
        "▁RED",
        -8.719912018151877
      ],
      [
        "接",
        -8.7199292495567
      ],
      [
        "地图框",
        -8.719939537444455
      ],
      [
        "色",
        -8.719943817591863
      ],
      [
        "光",
        -8.719954137792069
      ],
      [
        "入",
        -8.719973788045555
      ],
      [
        "土地利用",
        -8.720006578419628
      ],
      [
        "商",
        -8.720015069843374
      ],
      [
        "日",
        -8.720054349707436
      ],
      [
        "检查",
        -8.720062153338535
      ],
      [
        "在GIS中",
        -8.72009763138822
      ],
      [
        "各",
        -8.720108687306858
      ],
      [
        "述",
        -8.720109875516073
      ],
      [
        "：右键图层-",
        -8.720118345257584
      ],
      [
        "识",
        -8.720118743838249
      ],
      [
        "形变",
        -8.720122492131411
      ],
      [
        "概",
        -8.72012479752051
      ],
      [
        "验",
        -8.720124802239528
      ],
      [
        "预处理",
        -8.720125231230238
      ],
      [
        "的基本原",
        -8.720141512253957
      ],
      [
        "ur",
        -8.72015481502136
      ],
      [
        "运算",
        -8.720157364962827
      ],
      [
        "组织",
        -8.720165735710378
      ],
      [
        "装",
        -8.720172823032353
      ],
      [
        "三种",
        -8.720183007058601
      ],
      [
        "方案",
        -8.72018701676531
      ],
      [
        "四",
        -8.720202016682506
      ],
      [
        "观",
        -8.720202253685908
      ],
      [
        "GCJ-02",
        -8.720202503137045
      ],
      [
        "w",
        -8.72020251538613
      ],
      [
        "▁Engine",
        -8.720202522649402
      ],
      [
        "针",
        -8.720202567934923
      ],
      [
        "温",
        -8.720202581701248
      ],
      [
        "裁剪",
        -8.720202590505998
      ],
      [
        "电",
        -8.720202590722234
      ],
      [
        "编",
        -8.720202592161707
      ],
      [
        "历",
        -8.720202592580279
      ],
      [
        "透",
        -8.7202025928469
      ],
      [
        "写",
        -8.720202592846944
      ],
      [
        "边",
        -8.72020259294315
      ],
      [
        "景",
        -8.720202593078909
      ],
      [
        "在GCJ-02基础上的二次加密",
        -8.720202593198257
      ],
      [
        "双击",
        -8.720202593198257
      ],
      [
        "记录",
        -8.720202593198257
      ],
      [
        "均",
        -8.72020259319826
      ],
      [
        "尝试",
        -8.72020259319826
      ],
      [
        "归",
        -8.720202593198263
      ],
      [
        "ouglas-Peucker算法",
        -8.720202593198263
      ],
      [
        "主要有以下几种",
        -8.720202593198263
      ],
      [
        "椭球体的参心坐标系，是",
        -8.720202593198266
      ],
      [
        "LZW、DEFLATE",
        -8.720202593198266
      ],
      [
        "逐步淘汰",
        -8.720202593198266
      ],
      [
        "站",
        -8.72020259319827
      ],
      [
        "LineString、",
        -8.72020259319827
      ],
      [
        "位置的参考框架，",
        -8.72020259319827
      ],
      [
        "计划",
        -8.72020259319827
      ],
      [
        "停",
        -8.720202593198277
      ],
      [
        "盘",
        -8.720202593198286
      ],
      [
        "斯",
        -8.720202593198286
      ],
      [
        "拉",
        -8.720202593198286
      ],
      [
        "Dijkstra",
        -8.720202593198286
      ],
      [
        "矢量瓦片",
        -8.720202593198291
      ],
      [
        "Copernicus",
        -8.720202593198294
      ],
      [
        "使用$length",
        -8.720202593198312
      ],
      [
        "Cursor用于",
        -8.720202593198326
      ],
      [
        "首",
        -8.720202593198346
      ],
      [
        "成像仪",
        -8.720202593198346
      ],
      [
        "缓冲距离",
        -8.720202593198351
      ],
      [
        "止",
        -8.720202593198355
      ],
      [
        "（Heatmap",
        -8.720202593198358
      ],
      [
        "Desktop",
        -8.72020259319837
      ],
      [
        "突",
        -8.720202593198374
      ],
      [
        "GDAL/OGR",
        -8.720202593198383
      ],
      [
        "打印布局",
        -8.720202593198488
      ],
      [
        "BD-09",
        -8.72020259319854
      ],
      [
        "ModelBuilder",
        -8.720202593198609
      ],
      [
        "不能重叠",
        -8.720202593198714
      ],
      [
        "▁Release）",
        -8.720202593198731
      ],
      [
        "中国法律",
        -8.720202593198753
      ],
      [
        "加拿大",
        -8.720202593198831
      ],
      [
        "人员使用",
        -8.72020259319898
      ],
      [
        "CAD至地理数据库工具可以",
        -8.720202593199447
      ],
      [
        "某个地图",
        -8.72020259319958
      ],
      [
        "不同时期",
        -8.72020259319958
      ],
      [
        "属性字段的不同值使用不同",
        -8.720202593200176
      ],
      [
        "▁Quick",
        -8.720202593200197
      ],
      [
        "的对应像元进行",
        -8.720202593200787
      ],
      [
        "▁Detection",
        -8.720202593202375
      ],
      [
        "（火星坐标",
        -8.720202593203037
      ],
      [
        "点/线/面",
        -8.720202593216612
      ],
      [
        "选择开源GIS还是商业GIS",
        -8.72020259321929
      ],
      [
        "arcpy.env.",
        -8.720202593228096
      ],
      [
        "▁如何",
        -8.720202593231768
      ],
      [
        "火",
        -8.720202593233445
      ],
      [
        "烈",
        -8.720202593238053
      ],
      [
        "断",
        -8.720202593238053
      ],
      [
        "裂",
        -8.720202593238085
      ],
      [
        "监督分类——",
        -8.720202593238142
      ],
      [
        "）、融合（Dissolve",
        -8.720202593238145
      ],
      [
        "读取",
        -8.720202593238147
      ],
      [
        "自2008年起全",
        -8.720202593238149
      ],
      [
        "暗",
        -8.720202593238167
      ],
      [
        "）、重分类（Reclassify",
        -8.720202593238183
      ],
      [
        "秒",
        -8.72020259323819
      ],
      [
        "6378137",
        -8.72020259323819
      ],
      [
        "很",
        -8.720202593238193
      ],
      [
        "美国国防部",
        -8.720202593238193
      ],
      [
        "继",
        -8.720202593238199
      ],
      [
        "互联网地图服务",
        -8.720202593238199
      ],
      [
        "子午线收敛角",
        -8.720202593238199
      ],
      [
        "损失",
        -8.720202593238199
      ],
      [
        "客户端",
        -8.720202593238199
      ],
      [
        "拟",
        -8.720202593238202
      ],
      [
        "领域",
        -8.720202593238206
      ],
      [
        "Windows",
        -8.720202593238206
      ],
      [
        "散射",
        -8.72020259323821
      ],
      [
        "单一符号——所有要素使用相同符号",
        -8.720202593238213
      ],
      [
        "<",
        -8.720202593238215
      ],
      [
        "介",
        -8.720202593238215
      ],
      [
        "评估",
        -8.720202593238215
      ],
      [
        "GiST索引",
        -8.720202593238215
      ],
      [
        "_analysis('",
        -8.720202593238215
      ],
      [
        "条件赋值——使用",
        -8.720202593238215
      ],
      [
        "昼夜",
        -8.720202593238215
      ],
      [
        "腾讯",
        -8.720202593238215
      ],
      [
        "微波",
        -8.720202593240286
      ],
      [
        "不规则三角网",
        -8.720202593243163
      ],
      [
        "公共",
        -8.720202593244448
      ],
      [
        "▁在目录窗格中右键",
        -8.720202593290486
      ],
      [
        "json",
        -8.720202593299286
      ],
      [
        "文档",
        -8.720202593313829
      ],
      [
        "协作",
        -8.72020259331998
      ],
      [
        "中低精度应用",
        -8.720202593334319
      ],
      [
        "灾害",
        -8.720202593346063
      ],
      [
        "太阳",
        -8.720202593346091
      ],
      [
        "欧洲",
        -8.720202593346109
      ],
      [
        "矿产",
        -8.720202593346125
      ],
      [
        "乱码",
        -8.720202593346173
      ],
      [
        "说明",
        -8.720202593346176
      ],
      [
        "能够",
        -8.72020259334623
      ],
      [
        "学习",
        -8.720202593346277
      ],
      [
        "垂直",
        -8.72020259334633
      ],
      [
        "学家",
        -8.720202593346366
      ],
      [
        "全天候",
        -8.720202593346613
      ],
      [
        "保护",
        -8.720202593346938
      ],
      [
        "部门",
        -8.720202593347084
      ],
      [
        "部署",
        -8.72020259334716
      ],
      [
        "排序",
        -8.720202593347393
      ],
      [
        "航空",
        -8.720202593349626
      ],
      [
        "传统",
        -8.720202593353157
      ],
      [
        "长期",
        -8.720202593356893
      ],
      [
        "擅长",
        -8.720202593357765
      ],
      [
        "赤道",
        -8.720202593364045
      ],
      [
        "完全",
        -8.72020259336949
      ],
      [
        "亚米级",
        -8.720202593376552
      ],
      [
        "架构",
        -8.720202593426905
      ],
      [
        "核密度",
        -8.720202593473026
      ],
      [
        "变换",
        -8.720202593483647
      ],
      [
        "遍历",
        -8.720202593538419
      ],
      [
        "气象",
        -8.720202593540467
      ],
      [
        "填入",
        -8.720202593542016
      ],
      [
        "冠层",
        -8.720202593546237
      ],
      [
        "全球导航卫星系统",
        -8.720202593553612
      ],
      [
        "公式",
        -8.7202025935539
      ],
      [
        "也称",
        -8.72020259356687
      ],
      [
        "字符串",
        -8.720202593589844
      ],
      [
        "能量",
        -8.720202593660057
      ],
      [
        "oundary",
        -8.72020259366217
      ],
      [
        "——通过图层-添加图层-添加",
        -8.720202593690017
      ],
      [
        "Meridian",
        -8.720202593798481
      ],
      [
        "▁数字高程模型",
        -8.720202593817895
      ],
      [
        ".aprx",
        -8.720202593846007
      ],
      [
        "USGS",
        -8.720202593882048
      ],
      [
        "固定",
        -8.72020259393018
      ],
      [
        "内置",
        -8.720202593943958
      ],
      [
        "连接线将输入",
        -8.720202594100808
      ],
      [
        "官方",
        -8.720202594166777
      ],
      [
        "图像",
        -8.720202594207453
      ],
      [
        "增加",
        -8.720202594232287
      ],
      [
        "划分为",
        -8.720202594241686
      ],
      [
        "存储矢量和栅格数据",
        -8.720202594256003
      ],
      [
        "陆地",
        -8.720202594328395
      ],
      [
        "地址",
        -8.720202594329567
      ],
      [
        "节点",
        -8.720202595413403
      ],
      [
        "▁input.",
        -8.720202595908473
      ],
      [
        "）、裁剪（Clip",
        -8.720202595930328
      ],
      [
        "▁Sensing）",
        -8.720202596505372
      ],
      [
        "插入选项卡",
        -8.720202597880618
      ],
      [
        "支持完整的SQL查询",
        -8.720202598766495
      ],
      [
        "代国家坐标系，",
        -8.720202600884107
      ],
      [
        "）、相交（Intersect",
        -8.720202601715945
      ],
      [
        "生物量",
        -8.720202601860553
      ],
      [
        "产生变形",
        -8.720202602926742
      ],
      [
        "地表温度",
        -8.720202604735174
      ],
      [
        "至关重要",
        -8.720202607033439
      ],
      [
        "、ALOS",
        -8.720202609230284
      ],
      [
        "Standa",
        -8.720202612869295
      ],
      [
        "原生支持",
        -8.720202616943583
      ],
      [
        "到二维平面，",
        -8.72020262424411
      ],
      [
        "）、联合（Union",
        -8.720202632249201
      ],
      [
        "的模型构建器",
        -8.720202633562613
      ],
      [
        "Auto",
        -8.720202634630382
      ],
      [
        "数据处理工作流程",
        -8.72020263955438
      ],
      [
        "的所有操作都",
        -8.720202641146194
      ],
      [
        "30米分辨率",
        -8.720202641946084
      ],
      [
        "解决方案：",
        -8.720202642700727
      ],
      [
        "▁开源GIS生态系统",
        -8.720202650743808
      ],
      [
        "PROJ",
        -8.720202664421542
      ],
      [
        "北京54、西安80",
        -8.720202665496657
      ],
      [
        "单位为度，",
        -8.720202681463219
      ],
      [
        "植被指数",
        -8.720202698080499
      ],
      [
        "要素类和编辑数据",
        -8.720202698557134
      ],
      [
        "C波段SAR",
        -8.720202709183768
      ],
      [
        "Index",
        -8.720202712219493
      ],
      [
        "（Merge",
        -8.720202723353754
      ],
      [
        "长半轴",
        -8.72020273160193
      ],
      [
        "▁三维GIS数据格式",
        -8.720202735173789
      ],
      [
        "Excel",
        -8.720202744386611
      ],
      [
        "inson",
        -8.720202813016801
      ],
      [
        "spectral）",
        -8.720202832726285
      ],
      [
        "Topo",
        -8.720202849486892
      ],
      [
        "标准纬线",
        -8.720202884822235
      ],
      [
        "（Normal",
        -8.720202888398266
      ],
      [
        "地理数据格式，",
        -8.720202893713559
      ],
      [
        "是Esri提供的",
        -8.720202982099902
      ],
      [
        "坐标加密",
        -8.720203026479458
      ],
      [
        "Cloud",
        -8.720203052831002
      ],
      [
        "是GIS中最",
        -8.72020309105479
      ],
      [
        "TIRS",
        -8.720203186882586
      ],
      [
        "主成分",
        -8.720203190890878
      ],
      [
        "，在GIS中用于描述",
        -8.720203234805318
      ],
      [
        "系统通常由",
        -8.720203293177107
      ],
      [
        "的三角形网",
        -8.72020340489021
      ],
      [
        "▁output.",
        -8.720203447572683
      ],
      [
        "▁API",
        -8.720203458327248
      ],
      [
        "QGIS2threejs插件",
        -8.720203720182447
      ],
      [
        "编辑——开启",
        -8.720203958178782
      ],
      [
        "属性、arcpy.da.",
        -8.72020451506756
      ],
      [
        "最短路径",
        -8.720205865471902
      ],
      [
        "▁热红外遥感",
        -8.720206088734354
      ],
      [
        "▁单波段",
        -8.720206262597053
      ],
      [
        "DC等",
        -8.720207179486275
      ],
      [
        "▁Inf",
        -8.720207427768257
      ],
      [
        "通常小于1",
        -8.720208823195716
      ],
      [
        "spect",
        -8.720209296933367
      ],
      [
        "使用UTF-8编码",
        -8.720209981181716
      ],
      [
        "桌面GIS软件，",
        -8.720211204259442
      ],
      [
        "▁高斯-克吕格投影",
        -8.720212061183044
      ],
      [
        "数据，Geo",
        -8.720212430464331
      ],
      [
        "波长",
        -8.720213821287537
      ],
      [
        "地理坐标与投影坐标",
        -8.720214747931738
      ],
      [
        "ation）是根据",
        -8.720214793015735
      ],
      [
        "对多个栅格",
        -8.720215008411767
      ],
      [
        "▁使用QGIS的",
        -8.720215118963324
      ],
      [
        "两种",
        -8.720220582049937
      ],
      [
        "坐标系统、投影",
        -8.72022200637132
      ],
      [
        "米，扁率",
        -8.720223997790313
      ],
      [
        "来源",
        -8.720226773893016
      ],
      [
        "GBK",
        -8.720231941010363
      ],
      [
        "CASE",
        -8.720235357531363
      ],
      [
        "内存",
        -8.72023561616353
      ],
      [
        "超过",
        -8.720237289862062
      ],
      [
        "半径",
        -8.720238031382028
      ],
      [
        "东西",
        -8.720238320878034
      ],
      [
        "2010年",
        -8.720238549569855
      ],
      [
        "相对较",
        -8.720242440073203
      ],
      [
        "近红外",
        -8.720243766257484
      ],
      [
        "建模器",
        -8.720244278188334
      ],
      [
        "Nodata",
        -8.720244871247967
      ],
      [
        "物流",
        -8.720245065617801
      ],
      [
        "▁高程系统",
        -8.720250359714067
      ],
      [
        "阿尔伯斯投影）",
        -8.720259381598561
      ],
      [
        "绘制",
        -8.720259628305941
      ],
      [
        "红色",
        -8.72026027843733
      ],
      [
        "117度",
        -8.72026127712209
      ],
      [
        "gula",
        -8.720264725372308
      ],
      [
        "地表物体",
        -8.720275763592968
      ],
      [
        "企业级地理数据库",
        -8.720276948700814
      ],
      [
        "预处理流程",
        -8.720279978838287
      ],
      [
        "Sentinel-1",
        -8.720282882773313
      ],
      [
        "表达",
        -8.720283380511411
      ],
      [
        "单位（度",
        -8.72028343004333
      ],
      [
        "地图投影都",
        -8.720285732582719
      ],
      [
        "▁North）——指",
        -8.720288674797402
      ],
      [
        "进制",
        -8.72029142609512
      ],
      [
        "单文件可",
        -8.720291887439537
      ],
      [
        "嵌入",
        -8.720292589567858
      ],
      [
        "扫描仪",
        -8.720293126038362
      ],
      [
        "pg",
        -8.720293436332296
      ],
      [
        "热红外波段",
        -8.720294861837287
      ],
      [
        "的位置，坐标",
        -8.720298741004571
      ],
      [
        "基于项目的",
        -8.720300826374917
      ],
      [
        "——ArcMap是单",
        -8.720305432936067
      ],
      [
        "DAT",
        -8.720306414778896
      ],
      [
        "▁分级符号",
        -8.720311568023734
      ],
      [
        "随机",
        -8.720312179300096
      ],
      [
        "三维模型格式，",
        -8.720319429878149
      ],
      [
        "方面，",
        -8.720321429328845
      ],
      [
        "监测、森林",
        -8.720321548389949
      ],
      [
        "宽度",
        -8.720323502464993
      ],
      [
        "以来，",
        -8.720328291092523
      ],
      [
        "前确保",
        -8.720330671362758
      ],
      [
        "Insta",
        -8.720342842876583
      ],
      [
        "数据质量检查",
        -8.7203430526978
      ],
      [
        "大比例尺",
        -8.720350800365653
      ],
      [
        "经过",
        -8.72035538151419
      ],
      [
        "基础上",
        -8.720374048542448
      ],
      [
        "成功",
        -8.720376236621437
      ],
      [
        "程序",
        -8.720378033747142
      ],
      [
        "内部",
        -8.720378295401028
      ],
      [
        "ISO",
        -8.720378385119067
      ],
      [
        "每带",
        -8.720384806300542
      ],
      [
        "Zon",
        -8.72039059995949
      ],
      [
        "关于",
        -8.720394345442982
      ],
      [
        "可靠",
        -8.72041096126657
      ],
      [
        "影像进行分类，",
        -8.720415772831199
      ],
      [
        "扩展模块",
        -8.720422723426438
      ],
      [
        "GEE",
        -8.720428173112001
      ],
      [
        "无需",
        -8.720434206507907
      ],
      [
        "，可能是",
        -8.720437068658889
      ],
      [
        "工作空间",
        -8.720445985384934
      ],
      [
        "所有要素类",
        -8.720448573367356
      ],
      [
        "高度",
        -8.72045421996907
      ],
      [
        "of",
        -8.720460653988658
      ],
      [
        "多个图层的几何",
        -8.720463022564896
      ],
      [
        "框",
        -8.720465717337406
      ],
      [
        "面积比例",
        -8.720483470623872
      ],
      [
        "一系列",
        -8.720485806451224
      ],
      [
        "▁RED)",
        -8.720495814021875
      ],
      [
        "比例因子（",
        -8.720495828627914
      ],
      [
        "二维",
        -8.720506953246598
      ],
      [
        "▁Height）——以",
        -8.720511627007115
      ],
      [
        "当地标准",
        -8.72051599927392
      ],
      [
        "数十",
        -8.720521849542871
      ],
      [
        "Buffer",
        -8.720525933532599
      ],
      [
        "大多数",
        -8.720547936169623
      ],
      [
        "高分系列卫星",
        -8.720563882492822
      ],
      [
        "转",
        -8.720565217567604
      ],
      [
        "▁Viewer",
        -8.720579600944944
      ],
      [
        "最优路径分析",
        -8.720596589726055
      ],
      [
        "发展",
        -8.720603421187475
      ],
      [
        "椭球体参数",
        -8.720610396958799
      ],
      [
        "InSAR",
        -8.72061920778398
      ],
      [
        "应用场景包括：",
        -8.720624199343426
      ],
      [
        "面积统计",
        -8.720627336751868
      ],
      [
        "▁栅格数据模型",
        -8.720627466598817
      ],
      [
        "时序",
        -8.720658937887277
      ],
      [
        "科学数据格式",
        -8.720664586176513
      ],
      [
        "（Ch",
        -8.720669351652592
      ],
      [
        "分别",
        -8.720682897657634
      ],
      [
        "没有",
        -8.720694488223861
      ],
      [
        "有序",
        -8.720698350638026
      ],
      [
        "范围提取（",
        -8.720700329312407
      ],
      [
        "地图综合",
        -8.720704153745864
      ],
      [
        "数字化",
        -8.72072164741289
      ],
      [
        "几何类型",
        -8.720742700164665
      ],
      [
        "最新",
        -8.720773400978345
      ],
      [
        "更新",
        -8.720778856255196
      ],
      [
        "缺点",
        -8.72083406313111
      ],
      [
        "有不同的",
        -8.72083840660759
      ],
      [
        "，两者",
        -8.720884654699102
      ],
      [
        "不变",
        -8.720888435565827
      ],
      [
        "已知",
        -8.720905084994284
      ],
      [
        "（如山",
        -8.720911042905731
      ],
      [
        "制定",
        -8.720913111011281
      ],
      [
        "地表",
        -8.720914357336483
      ],
      [
        "um",
        -8.720915184319745
      ],
      [
        "地物类型",
        -8.720932232295795
      ],
      [
        "时相",
        -8.720942094208526
      ],
      [
        "▁Model）是",
        -8.720964641893373
      ],
      [
        "组成：",
        -8.720980135012573
      ],
      [
        "的3度带高斯-克吕格投影",
        -8.721012771293422
      ],
      [
        "向量",
        -8.721045342012546
      ],
      [
        "▁矢量数据模型",
        -8.721053485041477
      ],
      [
        "得到",
        -8.721059393604104
      ],
      [
        "▁遥感平台",
        -8.721111008289693
      ],
      [
        "重叠面",
        -8.72113996164159
      ],
      [
        "等多种",
        -8.721153787350335
      ],
      [
        "经纬度坐标下的",
        -8.721158412635669
      ],
      [
        ".0",
        -8.721162450490908
      ],
      [
        "、日期",
        -8.721186661016354
      ],
      [
        "（Point",
        -8.721188721280715
      ],
      [
        "▁在地图上",
        -8.721236024078607
      ],
      [
        "面积变形",
        -8.72127849540213
      ],
      [
        "这些参数",
        -8.721328359428025
      ],
      [
        "制图输出",
        -8.72137728507582
      ],
      [
        "项目属性",
        -8.721402656170552
      ],
      [
        "包括以下",
        -8.721402767065323
      ],
      [
        "GeoJSON或",
        -8.721415258026571
      ],
      [
        "对比",
        -8.721444846706028
      ],
      [
        "优势：",
        -8.721452863393228
      ],
      [
        "（EPSG:4326）",
        -8.721462038721329
      ],
      [
        "变化检测",
        -8.721476256857224
      ],
      [
        "的核心功能，",
        -8.721483860374601
      ],
      [
        "WKT格式",
        -8.721550078876929
      ],
      [
        "与真北",
        -8.721561364337926
      ],
      [
        "启用",
        -8.72156333110038
      ],
      [
        "如果需要进行",
        -8.721596108132008
      ],
      [
        "▁Projection）是",
        -8.721624324624075
      ],
      [
        "导入PostGIS",
        -8.721667954978841
      ],
      [
        "的长度变形",
        -8.72169578248637
      ],
      [
        "提取（",
        -8.721741193195683
      ],
      [
        "▁调整地图",
        -8.721757912872217
      ],
      [
        "原始数据",
        -8.721795005711556
      ],
      [
        "项目文件",
        -8.721796856417116
      ],
      [
        "vey",
        -8.721823064215608
      ],
      [
        "6度",
        -8.72184533297901
      ],
      [
        "数据源",
        -8.721854217713815
      ],
      [
        "因素",
        -8.721861789090783
      ],
      [
        "文件大小",
        -8.721973693684248
      ],
      [
        "TB级）、",
        -8.722006435704817
      ],
      [
        "符号化与",
        -8.72207336045473
      ],
      [
        "（像元大小）、",
        -8.722340814391586
      ],
      [
        "不可",
        -8.722346479758537
      ],
      [
        "输入栅格",
        -8.722349194662758
      ],
      [
        "面向",
        -8.722379854662352
      ],
      [
        "使用$area",
        -8.72240712278488
      ],
      [
        "距离计算",
        -8.722516039121071
      ],
      [
        "上有",
        -8.722588599344824
      ],
      [
        "ES",
        -8.722621423082353
      ],
      [
        "图标",
        -8.722625858182434
      ],
      [
        "重投影图层",
        -8.722644695719648
      ],
      [
        "分析）、",
        -8.722644788468575
      ],
      [
        "ArcGIS和QGIS",
        -8.722647831912665
      ],
      [
        "格式转换工具",
        -8.722705550237897
      ],
      [
        "、字段名",
        -8.722707164811247
      ],
      [
        "在ArcGIS中",
        -8.72272021145757
      ],
      [
        "▁添加地图",
        -8.722766281155433
      ],
      [
        "表面",
        -8.723009739767999
      ],
      [
        "显示为",
        -8.723039984770555
      ],
      [
        "选中",
        -8.723062046267726
      ],
      [
        "美国的",
        -8.72323253756813
      ],
      [
        "ger",
        -8.72323796264691
      ],
      [
        "每个点",
        -8.723328883860052
      ],
      [
        "空间关系",
        -8.723332004786167
      ],
      [
        "运行后",
        -8.723374671327797
      ],
      [
        "高光谱遥感",
        -8.72363454846262
      ],
      [
        "后比较",
        -8.723651271507084
      ],
      [
        ".prj文件",
        -8.72369605226236
      ],
      [
        "特定",
        -8.723696191369545
      ],
      [
        "模型）和",
        -8.723904958149344
      ],
      [
        "完整性",
        -8.7240144587525
      ],
      [
        "CRS",
        -8.724034029891143
      ],
      [
        "基本几何",
        -8.724070645237566
      ],
      [
        "线程",
        -8.7241424968964
      ],
      [
        "lse",
        -8.724144420020563
      ],
      [
        "密集",
        -8.724197883429078
      ],
      [
        "的综合",
        -8.724231542819217
      ],
      [
        "，是一种用",
        -8.724239134698893
      ],
      [
        "）、合并",
        -8.724295089309349
      ],
      [
        "WMS",
        -8.724396181283101
      ],
      [
        "▁QGIS常用",
        -8.724549503022125
      ],
      [
        "空间参考信息（",
        -8.724552705814524
      ],
      [
        "、GeoServer",
        -8.724562455701946
      ],
      [
        "添加到",
        -8.724572562088003
      ],
      [
        "（不受",
        -8.724792740866702
      ],
      [
        "X/",
        -8.724796768201934
      ],
      [
        "GIS数据时",
        -8.724803040625147
      ],
      [
        "LOD",
        -8.72484892116905
      ],
      [
        "查询和",
        -8.72486855035431
      ],
      [
        "自然资源",
        -8.725011069618484
      ],
      [
        "多点",
        -8.725087873332217
      ],
      [
        "ram",
        -8.725096701269432
      ],
      [
        "特别适合",
        -8.725164425923083
      ],
      [
        "从文件",
        -8.725231478235738
      ],
      [
        "——同一",
        -8.725599528009438
      ],
      [
        "信息（",
        -8.72570420546475
      ],
      [
        "创建新",
        -8.725729494836543
      ],
      [
        "（.shp",
        -8.72578069426696
      ],
      [
        "-K",
        -8.725866888288557
      ],
      [
        "，即",
        -8.725898114906158
      ],
      [
        "导入时",
        -8.72591374327792
      ],
      [
        "、植被",
        -8.726021850756203
      ],
      [
        "兼容性",
        -8.726131311873536
      ],
      [
        "）是Google",
        -8.726426259897885
      ],
      [
        "ri",
        -8.726507955307282
      ],
      [
        "5至",
        -8.726614440410014
      ],
      [
        "▁Class",
        -8.7266201243585
      ],
      [
        "直接将",
        -8.72678894147873
      ],
      [
        "用户可以",
        -8.72689883842813
      ],
      [
        "采集、",
        -8.72699728906486
      ],
      [
        "投影转换",
        -8.727018912815796
      ],
      [
        "（是否",
        -8.727126641998133
      ],
      [
        "存储、",
        -8.727137450160509
      ],
      [
        "直接拖入",
        -8.727237373578529
      ],
      [
        "（Cat",
        -8.727303668869553
      ],
      [
        "平台——",
        -8.727800735475693
      ],
      [
        "即",
        -8.728190946086414
      ],
      [
        "图层可以",
        -8.728200472165952
      ],
      [
        "定义的",
        -8.728221874252911
      ],
      [
        "地图、",
        -8.72824332866352
      ],
      [
        "ly",
        -8.728490196830776
      ],
      [
        "圆锥投影",
        -8.728783069458391
      ],
      [
        "，推荐",
        -8.728855327718568
      ],
      [
        "窗口（",
        -8.728885233241515
      ],
      [
        "（如阿尔伯斯等面积圆锥投影）",
        -8.729037259216994
      ],
      [
        "主动传感器",
        -8.729192720492962
      ],
      [
        "QGIS中创建热力图",
        -8.729247940370936
      ],
      [
        "Thre",
        -8.729376064588926
      ],
      [
        "）、内容",
        -8.7297858248102
      ],
      [
        "参数包括：",
        -8.729866206405324
      ],
      [
        "需考虑",
        -8.729998582935407
      ],
      [
        "DSM",
        -8.730243955157988
      ],
      [
        "WGS84到",
        -8.730703990543628
      ],
      [
        "——一键",
        -8.730787522343622
      ],
      [
        "对话框中",
        -8.730838336900732
      ],
      [
        "——WGS84",
        -8.731119810152563
      ],
      [
        "和PostGIS",
        -8.731322321789435
      ],
      [
        "SAR影像",
        -8.731533150278976
      ],
      [
        "默认使用",
        -8.731726428962421
      ],
      [
        "多波段",
        -8.73175335300776
      ],
      [
        "A和",
        -8.731887416106463
      ],
      [
        "▁在布局",
        -8.732153920823917
      ],
      [
        "A）",
        -8.732459804593937
      ],
      [
        "CGCS2000坐标系",
        -8.732559000661267
      ],
      [
        "通常在",
        -8.733042914756565
      ],
      [
        "的优势在于：",
        -8.733068549030584
      ],
      [
        "▁Overlap）",
        -8.73321476708248
      ],
      [
        "EPSG:45",
        -8.733523128264894
      ],
      [
        "▁中国常用的",
        -8.733579734308034
      ],
      [
        "是Esri公司",
        -8.733749519358803
      ],
      [
        "act",
        -8.734035489797268
      ],
      [
        "的空间扩展",
        -8.734230360948299
      ],
      [
        ".prj",
        -8.734313567913265
      ],
      [
        "▁DEM）",
        -8.734549603242304
      ],
      [
        "GIS元数据",
        -8.734705054211757
      ],
      [
        "▁影像融合",
        -8.734895389728257
      ],
      [
        "K（",
        -8.735088281317507
      ],
      [
        "Sentinel系列",
        -8.73518910317582
      ],
      [
        "分发",
        -8.735252504262833
      ],
      [
        "Com",
        -8.735413751132864
      ],
      [
        "年后",
        -8.735423271617575
      ],
      [
        "管理——",
        -8.735467597571935
      ],
      [
        "Lon",
        -8.735597395823962
      ],
      [
        "地理数据库",
        -8.73592878135073
      ],
      [
        "后使用",
        -8.735996197389834
      ],
      [
        "▁对于需要",
        -8.736791504772405
      ],
      [
        "▁Scene",
        -8.737033153532966
      ],
      [
        "年，",
        -8.737260132137592
      ],
      [
        "数百个空间",
        -8.737388172264232
      ],
      [
        "▁Mercator",
        -8.737645052921188
      ],
      [
        "单位（",
        -8.737879582218795
      ],
      [
        "▁空间插值",
        -8.737895973692373
      ],
      [
        "▁QGIS的图形建模器",
        -8.738046718570839
      ],
      [
        "▁时间",
        -8.738779972974312
      ],
      [
        "的替代方案",
        -8.739530819403418
      ],
      [
        "▁缓冲区分析",
        -8.740092252505692
      ],
      [
        "右键PostgreSQL",
        -8.740126552989443
      ],
      [
        "在浏览器中",
        -8.740140048424754
      ],
      [
        "至",
        -8.740269787634759
      ],
      [
        "Geo",
        -8.740445435619629
      ],
      [
        "▁GIS应用",
        -8.7407107302477
      ],
      [
        "系列",
        -8.740966576816572
      ],
      [
        "算法，",
        -8.741919156534028
      ],
      [
        "类似，",
        -8.742091509036113
      ],
      [
        "PNG、",
        -8.742554032616269
      ],
      [
        "9",
        -8.743015851196875
      ],
      [
        "的技术",
        -8.743027153188057
      ],
      [
        "arcpy.",
        -8.743656715397954
      ],
      [
        "与WGS84",
        -8.74396283299648
      ],
      [
        "变化的",
        -8.74428772627164
      ],
      [
        "11个波段",
        -8.744596249916691
      ],
      [
        "qgis",
        -8.745374723782557
      ],
      [
        "，已",
        -8.746090140216051
      ],
      [
        "还包括",
        -8.746469921748584
      ],
      [
        "方式，",
        -8.746711276533624
      ],
      [
        "EPSG:326",
        -8.747129581095145
      ],
      [
        "的基准面",
        -8.747748390234229
      ],
      [
        "的高程基准",
        -8.747755056820008
      ],
      [
        "CM",
        -8.74817798783879
      ],
      [
        "下的",
        -8.748378459483014
      ],
      [
        "属性字段",
        -8.748728084162005
      ],
      [
        "路径分析",
        -8.750083961934754
      ],
      [
        "eoPackage（.gpkg）",
        -8.750099254479386
      ],
      [
        "调",
        -8.75050991850756
      ],
      [
        "原点",
        -8.751535287388503
      ],
      [
        "仪",
        -8.752124573501392
      ],
      [
        "Shapefile格式",
        -8.75236118905988
      ],
      [
        "坐标系统选择",
        -8.752408441809772
      ],
      [
        "line）",
        -8.752412334145365
      ],
      [
        ".sbn/.sbx",
        -8.752891495378377
      ],
      [
        "南北",
        -8.75327076785383
      ],
      [
        "、ASTER",
        -8.753277621038414
      ],
      [
        "的选择",
        -8.753380611828579
      ],
      [
        "的基本原则：",
        -8.756463860376314
      ],
      [
        "技巧",
        -8.756840050421783
      ],
      [
        "PostGIS的",
        -8.757150719656899
      ],
      [
        "对于Web",
        -8.758080585998117
      ],
      [
        "投影信息",
        -8.759052099035177
      ],
      [
        "坐标北",
        -8.759716396903396
      ],
      [
        "（G",
        -8.75974505574645
      ],
      [
        "大地高",
        -8.760055332666266
      ],
      [
        "▁字段计算器",
        -8.760252952075167
      ],
      [
        "是在",
        -8.76035459713185
      ],
      [
        "▁当",
        -8.760364235423669
      ],
      [
        "na",
        -8.760658595625518
      ],
      [
        "需要先",
        -8.760877618488818
      ],
      [
        "，是目前",
        -8.760957664807421
      ],
      [
        "。中国",
        -8.761133971594933
      ],
      [
        "分析中",
        -8.76115448208842
      ],
      [
        "CSV",
        -8.761211456902561
      ],
      [
        "道路",
        -8.76288502374173
      ],
      [
        "地图窗口",
        -8.763623616028417
      ],
      [
        "编辑、",
        -8.764034658988077
      ],
      [
        "中心",
        -8.76457928409775
      ],
      [
        "Web墨卡托投影",
        -8.764988376628498
      ],
      [
        "用于Web",
        -8.76544652543223
      ],
      [
        "ate",
        -8.765924093949149
      ],
      [
        "▁WGS84",
        -8.76658267272133
      ],
      [
        "组成，",
        -8.766694746927088
      ],
      [
        "的矢量数据",
        -8.766811248445277
      ],
      [
        "ke",
        -8.767622499532177
      ],
      [
        "（O",
        -8.768063724054494
      ],
      [
        "高、",
        -8.769661965387284
      ],
      [
        "在国",
        -8.770302510778784
      ],
      [
        "栅格数据格式",
        -8.770411387906814
      ],
      [
        "偏移",
        -8.77077811875724
      ],
      [
        "制图，",
        -8.770817606126702
      ],
      [
        "可以保存为",
        -8.771284746539921
      ],
      [
        "要素的",
        -8.772011194947492
      ],
      [
        "在一个",
        -8.772069289987463
      ],
      [
        "支持多种",
        -8.773796732769453
      ],
      [
        "▁GPS",
        -8.774221116439332
      ],
      [
        "将地球",
        -8.77452964306374
      ],
      [
        "Of",
        -8.774948784263785
      ],
      [
        "高程基准",
        -8.77519503086923
      ],
      [
        "id",
        -8.775405812152203
      ],
      [
        "单元（",
        -8.776071418406788
      ],
      [
        "，如果",
        -8.776567716817915
      ],
      [
        "the",
        -8.77660114090801
      ],
      [
        "可以使用",
        -8.776703625407668
      ],
      [
        "属性表操作",
        -8.77762959371398
      ],
      [
        "Point、",
        -8.778536235947003
      ],
      [
        "（通常",
        -8.779657269240344
      ],
      [
        "（B",
        -8.780118931896958
      ],
      [
        "▁Pl",
        -8.780254011577483
      ],
      [
        "人",
        -8.780312018988985
      ],
      [
        "vers",
        -8.782721752873053
      ],
      [
        "的历史",
        -8.78288943492948
      ],
      [
        "选用",
        -8.783641974069536
      ],
      [
        "拖入",
        -8.784089075990654
      ],
      [
        "、GR",
        -8.784998208019385
      ],
      [
        "u",
        -8.785079653769666
      ],
      [
        "3度带高斯-克吕格",
        -8.785316443792672
      ],
      [
        "选择正确的",
        -8.785505568769162
      ],
      [
        "程度",
        -8.787538236183217
      ],
      [
        "ing）",
        -8.789155601220191
      ],
      [
        "基于表达式",
        -8.79121228500614
      ],
      [
        "调用",
        -8.791972216755068
      ],
      [
        "实现",
        -8.79227208513767
      ],
      [
        "▁SAR",
        -8.793088245233893
      ],
      [
        "pa",
        -8.793218710967237
      ],
      [
        "（可选",
        -8.793395969675466
      ],
      [
        "功能包括：捕捉",
        -8.794506701574381
      ],
      [
        "云",
        -8.798468815049587
      ],
      [
        "数据采集",
        -8.798557608398177
      ],
      [
        "器（",
        -8.79906708537364
      ],
      [
        "优势包括",
        -8.800075723761916
      ],
      [
        "▁分类",
        -8.800515476264376
      ],
      [
        "，管理",
        -8.801159792309555
      ],
      [
        "oad",
        -8.802406939794366
      ],
      [
        "常",
        -8.80360685730717
      ],
      [
        "，许多组织",
        -8.8058892581459
      ],
      [
        "长度",
        -8.806523794539373
      ],
      [
        "，必须",
        -8.806726888353328
      ],
      [
        "▁P",
        -8.807151141269484
      ],
      [
        "免费",
        -8.808221845110046
      ],
      [
        "右键",
        -8.808266378097374
      ],
      [
        "访问",
        -8.808534255208986
      ],
      [
        "缓冲区",
        -8.808820061115558
      ],
      [
        "邻域",
        -8.809282342006808
      ],
      [
        "空间数据库，",
        -8.809396276706973
      ],
      [
        "ag",
        -8.809509848799621
      ],
      [
        "▁'",
        -8.812756178577509
      ],
      [
        "15",
        -8.813074087291326
      ],
      [
        "）可",
        -8.813454767415331
      ],
      [
        "新建连接",
        -8.816762057240892
      ],
      [
        "ArcSDE",
        -8.817468963564524
      ],
      [
        "机（",
        -8.819843831502064
      ],
      [
        "▁栅格",
        -8.820933566049359
      ],
      [
        "Web发布",
        -8.824079853040157
      ],
      [
        "的应用",
        -8.825978050166322
      ],
      [
        "包括Landsat",
        -8.825986646551012
      ],
      [
        "格式（如",
        -8.826234717537387
      ],
      [
        "▁GIS开发",
        -8.826721008775921
      ],
      [
        "KML的",
        -8.82717574343128
      ],
      [
        "数据导入方",
        -8.827594043958447
      ],
      [
        "gdal",
        -8.828394673464846
      ],
      [
        "。通过",
        -8.828469540104805
      ],
      [
        "在中国",
        -8.828975142974418
      ],
      [
        "校正",
        -8.830856557111415
      ],
      [
        "WGS84坐标",
        -8.831015085001964
      ],
      [
        "丰富，",
        -8.83149398522405
      ],
      [
        "测量和",
        -8.833644327951317
      ],
      [
        "▁I",
        -8.834831917890597
      ],
      [
        "实地",
        -8.835694083204707
      ],
      [
        "Web墨卡托（",
        -8.835837762804449
      ],
      [
        "▁GIS与CAD",
        -8.837245016627813
      ],
      [
        "与GIS",
        -8.839512227603215
      ],
      [
        "Or",
        -8.84517151872423
      ],
      [
        "▁Web",
        -8.846321377397095
      ],
      [
        "的开放",
        -8.846538007480476
      ],
      [
        "面",
        -8.847508671068649
      ],
      [
        "标准（如",
        -8.849719302003537
      ],
      [
        "处理的",
        -8.850512612148076
      ],
      [
        "密度",
        -8.850587163471547
      ],
      [
        "为EPSG:3857或",
        -8.852574167550081
      ],
      [
        "后的",
        -8.852589764862282
      ],
      [
        "▁拓扑",
        -8.853318396937823
      ],
      [
        "数据质量",
        -8.854795919719875
      ],
      [
        "字段值",
        -8.856241739064131
      ],
      [
        "au",
        -8.857055633229667
      ],
      [
        "输出",
        -8.859429643906434
      ],
      [
        "GIS数据的",
        -8.860111864087381
      ],
      [
        "（需",
        -8.860918469777625
      ],
      [
        "Se",
        -8.862319905524195
      ],
      [
        "导入——",
        -8.862676210242304
      ],
      [
        "可设置",
        -8.862989925047314
      ],
      [
        "点图层",
        -8.866044649869751
      ],
      [
        "out",
        -8.866646710099364
      ],
      [
        "限制、",
        -8.87097931303752
      ],
      [
        "图例",
        -8.871531300858074
      ],
      [
        "▁QGIS支持",
        -8.872299968462656
      ],
      [
        "使用处理工具箱",
        -8.873287275320305
      ],
      [
        "CAD数据",
        -8.876489357999086
      ],
      [
        "，其",
        -8.878196231134323
      ],
      [
        "选项卡-",
        -8.883258807817638
      ],
      [
        "地图上",
        -8.885018916098726
      ],
      [
        "own",
        -8.885027861243064
      ],
      [
        "，而",
        -8.886605382590677
      ],
      [
        "高分",
        -8.887279955240302
      ],
      [
        "TIN的",
        -8.887533368674672
      ],
      [
        "生态）的场景——",
        -8.889229039099169
      ],
      [
        "g",
        -8.889722005505256
      ],
      [
        "atabase）",
        -8.893669451766643
      ],
      [
        "ac",
        -8.895591389683505
      ],
      [
        "尽",
        -8.89688301525359
      ],
      [
        "虚",
        -8.896907754346328
      ],
      [
        "mg",
        -8.899265215549004
      ],
      [
        "文件的",
        -8.901491577402004
      ],
      [
        "用于存储和可视化",
        -8.902245011697577
      ],
      [
        "侧重",
        -8.902780453750207
      ],
      [
        "高空间分辨率",
        -8.904334917757815
      ],
      [
        "▁Sentinel",
        -8.90436609958614
      ],
      [
        "专门",
        -8.9070674395577
      ],
      [
        "——Esri",
        -8.90766700730028
      ],
      [
        "▁Pro是",
        -8.907848596987705
      ],
      [
        "混合",
        -8.908834387516384
      ],
      [
        "云GIS平台",
        -8.90918474635528
      ],
      [
        "主流的",
        -8.910046857054843
      ],
      [
        "窗口",
        -8.910131738908207
      ],
      [
        "▁Co",
        -8.91034634044803
      ],
      [
        "已有要素的",
        -8.910995483223772
      ],
      [
        "▁Maps",
        -8.912922149537778
      ],
      [
        "地图比例尺",
        -8.91405596604785
      ],
      [
        "的全色",
        -8.914460324933437
      ],
      [
        "nd",
        -8.919580682792935
      ],
      [
        "的基本步骤：右键图层-属性-",
        -8.91981751792665
      ],
      [
        "字符编码",
        -8.92217572007498
      ],
      [
        "data",
        -8.925393037523492
      ],
      [
        "，其中",
        -8.928803099081973
      ],
      [
        "关系",
        -8.930642706605932
      ],
      [
        "▁空间数据质量",
        -8.930813689487575
      ],
      [
        "等面积",
        -8.931332378458874
      ],
      [
        "per",
        -8.931809791116912
      ],
      [
        "数据集",
        -8.933012821482913
      ],
      [
        "GB限制",
        -8.936216940781275
      ],
      [
        "导出",
        -8.93699875857377
      ],
      [
        "EPS",
        -8.940448337735047
      ],
      [
        "code",
        -8.940575839754317
      ],
      [
        "-1",
        -8.941294266561286
      ],
      [
        "、OpenLayers",
        -8.942981926290738
      ],
      [
        "效",
        -8.944950609875328
      ],
      [
        "ar",
        -8.949439157334275
      ],
      [
        "（可",
        -8.951033271500076
      ],
      [
        "▁Fi",
        -8.95139279899045
      ],
      [
        "顶点",
        -8.963713873372653
      ],
      [
        "相",
        -8.964465985555714
      ],
      [
        "如果需要在",
        -8.965321176873779
      ],
      [
        "Q",
        -8.966807389637628
      ],
      [
        "北",
        -8.966913051144084
      ],
      [
        "▁Pro的",
        -8.967620712621107
      ],
      [
        "▁商业",
        -8.968590132966812
      ],
      [
        "创建交互式Web",
        -8.97085029386038
      ],
      [
        "EPSG代码",
        -8.975508894610337
      ],
      [
        "云计算平台",
        -8.975982292324137
      ],
      [
        "▁By",
        -8.978473887912521
      ],
      [
        "范围——",
        -8.984169766525865
      ],
      [
        "示例：",
        -8.985254738562805
      ],
      [
        "WGS84坐标系统",
        -8.985349141774616
      ],
      [
        "不一致",
        -8.985415938373302
      ],
      [
        "red",
        -8.986149409969952
      ],
      [
        "表格",
        -8.986397889000926
      ],
      [
        "彩",
        -8.986470960099764
      ],
      [
        "——如",
        -8.987192682203826
      ],
      [
        "。在QGIS中",
        -8.987491597750406
      ],
      [
        "与GIS数据",
        -8.987905464593885
      ],
      [
        "位",
        -8.989167629291208
      ],
      [
        "、农业",
        -8.990205623345494
      ],
      [
        "插值",
        -8.992910428818908
      ],
      [
        "空间数据",
        -8.99307214612478
      ],
      [
        "▁投影",
        -8.993163879824541
      ],
      [
        "分析法（",
        -8.993293267124344
      ],
      [
        "高德",
        -8.994576253973722
      ],
      [
        "、可",
        -8.996996404501404
      ],
      [
        "颗卫星",
        -8.998060146143722
      ],
      [
        "数据管理",
        -8.998511546491812
      ],
      [
        "个经度带",
        -9.00012557726917
      ],
      [
        "Li",
        -9.000412172212743
      ],
      [
        "▁遥感影像分类",
        -9.001508479442816
      ],
      [
        "——从",
        -9.002181033697171
      ],
      [
        "的插值方法",
        -9.003590926119829
      ],
      [
        "带",
        -9.003830467650747
      ],
      [
        "根据",
        -9.006517465824055
      ],
      [
        "元",
        -9.0103594256222
      ],
      [
        "90",
        -9.011128305900012
      ],
      [
        "交通",
        -9.012188912414098
      ],
      [
        "法、",
        -9.012479565631928
      ],
      [
        "il",
        -9.012943271283737
      ],
      [
        "，但",
        -9.014117734930998
      ],
      [
        "当前",
        -9.01434322632525
      ],
      [
        "NetCDF",
        -9.014438268390267
      ],
      [
        "▁KML",
        -9.017887737869092
      ],
      [
        "共享——",
        -9.019979117598648
      ],
      [
        "磁",
        -9.021680735243923
      ],
      [
        "197",
        -9.021896302143727
      ],
      [
        "、JPEG",
        -9.024146265406086
      ],
      [
        "oi",
        -9.02759785349332
      ],
      [
        "ging）",
        -9.029724024994888
      ],
      [
        "；GF-",
        -9.03059742801991
      ],
      [
        "JSON",
        -9.03621202885022
      ],
      [
        "、坡向",
        -9.036470806742264
      ],
      [
        "国家大地坐标系",
        -9.037037417527891
      ],
      [
        "▁在QGIS",
        -9.038928355212065
      ],
      [
        "可以进行",
        -9.039131193649016
      ],
      [
        "log",
        -9.03939542122586
      ],
      [
        "ed）——根据",
        -9.041346761207798
      ],
      [
        "大数据量",
        -9.041505437865537
      ],
      [
        "（M",
        -9.041684329841553
      ],
      [
        "等角",
        -9.045078369373064
      ],
      [
        "在线",
        -9.04834646949478
      ],
      [
        "（P",
        -9.04837788787288
      ],
      [
        "存储和",
        -9.052648171515173
      ],
      [
        "。常用方法包括",
        -9.053582014537984
      ],
      [
        "▁常用方法包括",
        -9.053601601568841
      ],
      [
        "EN",
        -9.0542007396006
      ],
      [
        "的点",
        -9.05432683737714
      ],
      [
        "▁在GIS软件中",
        -9.05721997156268
      ],
      [
        "GeoTIFF",
        -9.059441125332594
      ],
      [
        "▁在实际GIS工作中，",
        -9.060308091899142
      ],
      [
        "（E",
        -9.060633175868062
      ],
      [
        "▁创建拓扑",
        -9.061995906118161
      ],
      [
        "。UTM",
        -9.062402118790933
      ],
      [
        "▁空间统计",
        -9.06255086813523
      ],
      [
        "▁KML/KMZ",
        -9.062663407556736
      ],
      [
        "▁一个典型的",
        -9.062760675361513
      ],
      [
        "▁任何",
        -9.063070068438911
      ],
      [
        "▁了解",
        -9.063622084911575
      ],
      [
        "▁日期",
        -9.063629179611894
      ],
      [
        "▁提取",
        -9.064973832364489
      ],
      [
        "ized",
        -9.066268982987534
      ],
      [
        "J",
        -9.067151082803818
      ],
      [
        "Ro",
        -9.067786844632337
      ],
      [
        "对于大",
        -9.068078264994227
      ],
      [
        "。其他",
        -9.071614020975968
      ],
      [
        "设置图层CRS",
        -9.080091004332594
      ],
      [
        "mi",
        -9.084494913094034
      ],
      [
        "格式）",
        -9.084671392438885
      ],
      [
        "库——将数据",
        -9.084908519537763
      ],
      [
        "磁北",
        -9.086426438526289
      ],
      [
        "表",
        -9.087134223898891
      ],
      [
        "ler",
        -9.090025684315025
      ],
      [
        "JPEG、",
        -9.090134077293778
      ],
      [
        "QGIS项目",
        -9.091165531299792
      ],
      [
        "。栅格数据",
        -9.091967782573613
      ],
      [
        "——将数据",
        -9.092604288945001
      ],
      [
        "连",
        -9.095311519705072
      ],
      [
        "▁GF-",
        -9.09549924607665
      ],
      [
        "▁197",
        -9.095703777602282
      ],
      [
        "▁当前",
        -9.09607888113878
      ],
      [
        "▁交通",
        -9.096717420582783
      ],
      [
        "ole",
        -9.097734743804352
      ],
      [
        "维",
        -9.097742694763957
      ],
      [
        "▁根据",
        -9.098920147960982
      ],
      [
        "地图与",
        -9.10119286729618
      ],
      [
        "精",
        -9.101646874973584
      ],
      [
        "带，",
        -9.105412225068774
      ],
      [
        "。不同",
        -9.105676613268269
      ],
      [
        "插值方法",
        -9.106433773650107
      ],
      [
        "规划、",
        -9.10883970813515
      ],
      [
        "▁9",
        -9.11168528117501
      ],
      [
        "土",
        -9.112370893777033
      ],
      [
        "量",
        -9.112593186103219
      ],
      [
        "发射的",
        -9.112604206016135
      ],
      [
        "▁其他",
        -9.113360157739338
      ],
      [
        "多颗",
        -9.113496088273425
      ],
      [
        "多维",
        -9.114760925348135
      ],
      [
        "▁M",
        -9.115234311946221
      ],
      [
        "分类方法",
        -9.115762572744638
      ],
      [
        "OGC标准",
        -9.116139397922819
      ],
      [
        "（通过",
        -9.116292280205005
      ],
      [
        "国家",
        -9.117256019346865
      ],
      [
        "表面，适合",
        -9.117410076317523
      ],
      [
        "农业",
        -9.12127508730695
      ],
      [
        "示例",
        -9.12675908397833
      ],
      [
        "）进行",
        -9.12776334175045
      ],
      [
        "▁GeoPackage",
        -9.130855956975488
      ],
      [
        "分析法",
        -9.13170514459219
      ],
      [
        "▁2000",
        -9.135084401161256
      ],
      [
        "ho",
        -9.135276894610737
      ],
      [
        "raphic",
        -9.136325762839578
      ],
      [
        "、10",
        -9.137171062420364
      ],
      [
        "的EPSG代码",
        -9.13816831782707
      ],
      [
        "云计算",
        -9.13900149127679
      ],
      [
        "Ex",
        -9.139347891847585
      ],
      [
        "。选择",
        -9.140005177981958
      ],
      [
        "。但",
        -9.140009987001676
      ],
      [
        "tent",
        -9.140897593793861
      ],
      [
        "GIS——提供",
        -9.141648721854514
      ],
      [
        "平台——如",
        -9.142666498783594
      ],
      [
        "交互式Web地图",
        -9.143600140674366
      ],
      [
        "▁连接",
        -9.144290392010326
      ],
      [
        "ans",
        -9.145490295060874
      ],
      [
        "多用户",
        -9.145708246187091
      ],
      [
        "表格数据",
        -9.148104453102516
      ],
      [
        "商业GIS",
        -9.1507544291775
      ],
      [
        "▁在GIS",
        -9.155001248190363
      ],
      [
        "场景，",
        -9.156090909040707
      ],
      [
        "、支持",
        -9.157997277851253
      ],
      [
        "On",
        -9.158196415653636
      ],
      [
        "▁多",
        -9.159366262956041
      ],
      [
        "（PostGIS",
        -9.161365549861653
      ],
      [
        "经度",
        -9.163559770461339
      ],
      [
        "——输入",
        -9.164644621119884
      ],
      [
        "ist",
        -9.166693970087424
      ],
      [
        "变",
        -9.16830450251177
      ],
      [
        "采样点",
        -9.169274587648708
      ],
      [
        "设置图层",
        -9.171618700463522
      ],
      [
        "▁栅格数据",
        -9.17310465502068
      ],
      [
        "效果",
        -9.173640733096134
      ],
      [
        "ge",
        -9.17549894359503
      ],
      [
        "加O",
        -9.175896122631153
      ],
      [
        "）、按",
        -9.177528646936219
      ],
      [
        "第",
        -9.178202932449032
      ],
      [
        "数据存储",
        -9.179357395601459
      ],
      [
        "数据、",
        -9.179848032783646
      ],
      [
        "co",
        -9.181134222001818
      ],
      [
        "。ArcGIS",
        -9.182806111352566
      ],
      [
        "▁栅格计算器",
        -9.191963971854081
      ],
      [
        "▁NDVI",
        -9.194075511067497
      ],
      [
        "ion）",
        -9.195475906075382
      ],
      [
        "简化",
        -9.195484097931807
      ],
      [
        "▁198",
        -9.196508226082111
      ],
      [
        "基",
        -9.1987936269964
      ],
      [
        "（Tr",
        -9.20090723029
      ],
      [
        "▁坐标转换",
        -9.201136649882137
      ],
      [
        "项目中",
        -9.204660155746833
      ],
      [
        "矢量数据编辑",
        -9.204688295202935
      ],
      [
        "编码问题",
        -9.205729935153446
      ],
      [
        "点击添加",
        -9.205745459816905
      ],
      [
        "设置标注的",
        -9.211037339866506
      ],
      [
        "ut",
        -9.215309511371581
      ],
      [
        "and",
        -9.215934702625791
      ],
      [
        "▁GIS的",
        -9.216797184309614
      ],
      [
        "▁Maps、",
        -9.217561615041829
      ],
      [
        "深",
        -9.218366235281165
      ],
      [
        "主流",
        -9.22099617282463
      ],
      [
        "混",
        -9.222428083412817
      ],
      [
        "ent",
        -9.222762057921242
      ],
      [
        "中创建",
        -9.222924526119002
      ],
      [
        "属性——",
        -9.225552232348877
      ],
      [
        "和属性",
        -9.226075606148623
      ],
      [
        "最常用的",
        -9.227026679868565
      ],
      [
        "布局中",
        -9.229828944533203
      ],
      [
        "不同的",
        -9.230828252310026
      ],
      [
        "重图形",
        -9.231573039047461
      ],
      [
        "▁不同",
        -9.235841221133857
      ],
      [
        "、Leaflet",
        -9.24404508836404
      ],
      [
        "。使用",
        -9.247458940069215
      ],
      [
        "▁大",
        -9.253292663604011
      ],
      [
        "ogr2ogr",
        -9.25514089443951
      ],
      [
        "符号化",
        -9.256096104901237
      ],
      [
        "（L",
        -9.258766599505522
      ],
      [
        "三维数据",
        -9.259515793301048
      ],
      [
        "，不同",
        -9.26210561511563
      ],
      [
        "▁多光谱",
        -9.264242070851765
      ],
      [
        "中央经线（",
        -9.26765464228331
      ],
      [
        "（K",
        -9.267666139659863
      ],
      [
        "▁Coordinates）",
        -9.270692854153133
      ],
      [
        "反",
        -9.272231533604248
      ],
      [
        "tatistic",
        -9.27842202913948
      ],
      [
        "条",
        -9.280768333319417
      ],
      [
        "近",
        -9.283449857669357
      ],
      [
        "（R",
        -9.288444696539646
      ],
      [
        "ver",
        -9.288453905266564
      ],
      [
        "需",
        -9.289430434837488
      ],
      [
        "密",
        -9.291165758786992
      ],
      [
        "ject",
        -9.302447815779763
      ],
      [
        "pro",
        -9.302897688639097
      ],
      [
        "似",
        -9.302970601381668
      ],
      [
        "CAD文件",
        -9.304227131083845
      ],
      [
        "me",
        -9.309361186439382
      ],
      [
        "▁创建",
        -9.309383532925139
      ],
      [
        "创建缓冲",
        -9.309705077609763
      ],
      [
        "图层属性",
        -9.31004001024957
      ],
      [
        "图层-导出-要素另存为",
        -9.313332278106909
      ],
      [
        "▁选择",
        -9.313968506984281
      ],
      [
        "保存为",
        -9.314101133545561
      ],
      [
        "方法：",
        -9.31620576805056
      ],
      [
        "变化",
        -9.32058058378018
      ],
      [
        "），其",
        -9.320855763645785
      ],
      [
        "▁但",
        -9.321513140584198
      ],
      [
        "图层（",
        -9.323779759907858
      ],
      [
        "交",
        -9.328841608865535
      ],
      [
        "文件，",
        -9.329454485610789
      ],
      [
        "、U",
        -9.333070394725294
      ],
      [
        "地理空间数据",
        -9.333085288287752
      ],
      [
        "与实",
        -9.333816160629434
      ],
      [
        "投影（保持",
        -9.333955603972546
      ],
      [
        "，Shapefile",
        -9.337753037785639
      ],
      [
        "be",
        -9.338125032209259
      ],
      [
        "，可",
        -9.338228013715135
      ],
      [
        "校正——",
        -9.339354508898733
      ],
      [
        "▁在QGIS中，",
        -9.339488824515186
      ],
      [
        "纬",
        -9.340833509343154
      ],
      [
        "in",
        -9.342984710511756
      ],
      [
        "gdalwarp",
        -9.343669849043266
      ],
      [
        "数、像素",
        -9.348075259178138
      ],
      [
        "ab",
        -9.350827395507537
      ],
      [
        "，用于",
        -9.351505038586646
      ],
      [
        "构",
        -9.353940636763905
      ],
      [
        "▁墨卡托投影",
        -9.35625561052357
      ],
      [
        "大地测量",
        -9.357138971199813
      ],
      [
        "的属性信息",
        -9.360311993043045
      ],
      [
        "GPS、",
        -9.361784889189224
      ],
      [
        "GNSS与",
        -9.36264281897956
      ],
      [
        "选择合适",
        -9.363870956673253
      ],
      [
        "通过Web",
        -9.365402985894583
      ],
      [
        "可选",
        -9.367387395991612
      ],
      [
        "格式（如A",
        -9.368111817684946
      ],
      [
        "的投影坐标系",
        -9.37061080763737
      ],
      [
        "▁GNSS",
        -9.376613685793055
      ],
      [
        "在QGIS中",
        -9.377207242448103
      ],
      [
        "分布的",
        -9.379183082625199
      ],
      [
        "ub",
        -9.380484761563224
      ],
      [
        "在ArcGIS中使用",
        -9.38382110650603
      ],
      [
        "▁GIS与",
        -9.385350348221605
      ],
      [
        "选项卡",
        -9.386199285548651
      ],
      [
        "将QGIS",
        -9.38742975905102
      ],
      [
        "形",
        -9.387798724627064
      ],
      [
        "SAR",
        -9.391028277501134
      ],
      [
        "。TIN",
        -9.393889136200213
      ],
      [
        "结合",
        -9.395313551438866
      ],
      [
        "高德、",
        -9.399126558956342
      ],
      [
        "编辑功能包括：",
        -9.4037495279026
      ],
      [
        "转换为",
        -9.403853187076239
      ],
      [
        "格式转换的",
        -9.405504408803498
      ],
      [
        "器",
        -9.410509044384625
      ],
      [
        "li",
        -9.411714405760302
      ],
      [
        "比例尺和",
        -9.412552198891369
      ],
      [
        "建筑",
        -9.417158094529519
      ],
      [
        "RI",
        -9.422954489848639
      ],
      [
        "历史",
        -9.423793713865042
      ],
      [
        "地图，",
        -9.424772578732002
      ],
      [
        "ation",
        -9.42731111671615
      ],
      [
        "人工",
        -9.427403085521167
      ],
      [
        "例",
        -9.428431842378856
      ],
      [
        "or）——",
        -9.431173835598187
      ],
      [
        "不同GIS",
        -9.431359595650084
      ],
      [
        "地理要素，",
        -9.43145577872375
      ],
      [
        "▁投影坐标",
        -9.431812203308134
      ],
      [
        "融合，",
        -9.432991449537734
      ],
      [
        "用横轴墨卡托投影",
        -9.433019965794221
      ],
      [
        "可将",
        -9.43517798119387
      ],
      [
        "ig",
        -9.43643581980459
      ],
      [
        "nt",
        -9.436555592768325
      ],
      [
        "替",
        -9.438707678820057
      ],
      [
        "、分",
        -9.439623775313438
      ],
      [
        "多种",
        -9.440236802503392
      ],
      [
        "的全球",
        -9.44070106024609
      ],
      [
        "代数",
        -9.441035646545595
      ],
      [
        "度）",
        -9.442328611839764
      ],
      [
        "he",
        -9.443795681035542
      ],
      [
        "se",
        -9.444750992479186
      ],
      [
        "（存储",
        -9.44571624599208
      ],
      [
        "国",
        -9.446292955284491
      ],
      [
        "表示一",
        -9.44639531289181
      ],
      [
        "——为",
        -9.446443661390472
      ],
      [
        "浏览器面板",
        -9.449190975853224
      ],
      [
        "空间分析",
        -9.44976881210274
      ],
      [
        "▁——",
        -9.450095897399807
      ],
      [
        "它",
        -9.453788989514877
      ],
      [
        "、G",
        -9.455091121012018
      ],
      [
        "个文件",
        -9.45594791379544
      ],
      [
        "地理空间",
        -9.456751410516237
      ],
      [
        "统计",
        -9.457512258071601
      ],
      [
        "其中",
        -9.459716857888308
      ],
      [
        "都提供了",
        -9.460118786871613
      ],
      [
        "▁Ra",
        -9.460625766637868
      ],
      [
        "表示连续",
        -9.461148111850825
      ],
      [
        "格式转换",
        -9.461627512835761
      ],
      [
        "道",
        -9.462709612172132
      ],
      [
        "ra",
        -9.463151852658953
      ],
      [
        "路线",
        -9.463343350620825
      ],
      [
        "则",
        -9.464122442991265
      ],
      [
        "坐标系——基于",
        -9.464727499433025
      ],
      [
        "代表",
        -9.468036342844611
      ],
      [
        "UTM投影",
        -9.468311286662175
      ],
      [
        "选择参",
        -9.470045669635951
      ],
      [
        "完成",
        -9.474775947156159
      ],
      [
        "版本（L",
        -9.476693177931322
      ],
      [
        "城市规划",
        -9.476821984033961
      ],
      [
        "尺度",
        -9.478077385113155
      ],
      [
        "Sentinel",
        -9.47819469199621
      ],
      [
        "图片",
        -9.479629797193459
      ],
      [
        "QGIS中",
        -9.47991423325596
      ],
      [
        "工具——",
        -9.479949212260754
      ],
      [
        "数据格式转换",
        -9.481709755521495
      ],
      [
        "北方向",
        -9.482531521670598
      ],
      [
        "使用导出",
        -9.482571772591362
      ],
      [
        "49",
        -9.482679526293033
      ],
      [
        "信息）、.s",
        -9.48293243481418
      ],
      [
        "（I",
        -9.483264475557895
      ],
      [
        "im",
        -9.483895685487328
      ],
      [
        "心",
        -9.484270744275817
      ],
      [
        "云GIS",
        -9.484442095053558
      ],
      [
        "城",
        -9.485424732578148
      ],
      [
        "字段（",
        -9.492599361926455
      ],
      [
        "int",
        -9.492788465643628
      ],
      [
        "（点",
        -9.493484331513038
      ],
      [
        "TM（",
        -9.493630760278414
      ],
      [
        "。QGIS",
        -9.49449132726639
      ],
      [
        "▁Layer",
        -9.49462335597368
      ],
      [
        "UTM",
        -9.494957666987228
      ],
      [
        "gdal_translate",
        -9.495127944544535
      ],
      [
        "关键",
        -9.495845711597621
      ],
      [
        "Web墨卡托",
        -9.496228655531002
      ],
      [
        "和Geo",
        -9.496265910405198
      ],
      [
        "较高",
        -9.49856741676742
      ],
      [
        "比例尺",
        -9.498769483775886
      ],
      [
        "用地理处理工具",
        -9.49913761022763
      ],
      [
        "19",
        -9.499770263879178
      ],
      [
        "TIN",
        -9.50043059713734
      ],
      [
        "，提供1",
        -9.500564806040094
      ],
      [
        "理解",
        -9.500648539851229
      ],
      [
        "果",
        -9.500782154558085
      ],
      [
        "、W",
        -9.500898266517224
      ],
      [
        "点数据",
        -9.501079578104385
      ],
      [
        "KML",
        -9.501177825107854
      ],
      [
        "型",
        -9.504682700521236
      ],
      [
        "类似",
        -9.505880022854196
      ],
      [
        "arcpy",
        -9.506418621047846
      ],
      [
        "GeoJSON",
        -9.50649820993726
      ],
      [
        "。19",
        -9.507277083973618
      ],
      [
        "投影坐标系",
        -9.507761832639925
      ],
      [
        "比例",
        -9.508323322160297
      ],
      [
        "、Multi",
        -9.510970727557023
      ],
      [
        "CAD中的",
        -9.511152429736079
      ],
      [
        "是否",
        -9.511792373980784
      ],
      [
        "时，需要",
        -9.512045147624931
      ],
      [
        "年",
        -9.513740997312773
      ],
      [
        "QGIS的图形建模器",
        -9.514111335446785
      ],
      [
        "在高",
        -9.514144846645765
      ],
      [
        "时间",
        -9.514210795791765
      ],
      [
        "Mercator",
        -9.514974590634301
      ],
      [
        "空间插值",
        -9.515564330323782
      ],
      [
        "分级",
        -9.51609653304533
      ],
      [
        "Scene",
        -9.516292245105799
      ],
      [
        "GI",
        -9.51645501809834
      ],
      [
        "缓冲区分析",
        -9.516536875613522
      ],
      [
        "up",
        -9.518233070609067
      ],
      [
        "的DEM",
        -9.51882996132454
      ],
      [
        "自然",
        -9.519783846590556
      ],
      [
        "墨卡托",
        -9.5198721036636
      ],
      [
        "数，",
        -9.520065755038036
      ],
      [
        "ro",
        -9.521357041847667
      ],
      [
        "工具包括：缓冲区（Buffer",
        -9.521617436377182
      ],
      [
        "GIS应用",
        -9.521760717665199
      ],
      [
        "数据格式）",
        -9.522120407148428
      ],
      [
        "ou",
        -9.522315211146381
      ],
      [
        "（D",
        -9.522320506958106
      ],
      [
        "0年",
        -9.52338865888464
      ],
      [
        "▁Overlap",
        -9.524570147926397
      ],
      [
        "中国常用的",
        -9.525217415983583
      ],
      [
        "▁arcpy",
        -9.525752550168756
      ],
      [
        "OGC",
        -9.526517516268093
      ],
      [
        "Arc",
        -9.52848762552396
      ],
      [
        "tif",
        -9.528726270504615
      ],
      [
        "云平台",
        -9.528879368386255
      ],
      [
        "值，",
        -9.529686546896038
      ],
      [
        "符号",
        -9.530181696865844
      ],
      [
        "一键",
        -9.53022304687294
      ],
      [
        "水体",
        -9.531485957880307
      ],
      [
        "能有",
        -9.531807525633326
      ],
      [
        "，右键",
        -9.533398364884214
      ],
      [
        "间",
        -9.533425583759204
      ],
      [
        "推荐",
        -9.53376171829337
      ],
      [
        "动传感器（",
        -9.533827578660125
      ],
      [
        "▁ArcMap",
        -9.533837118181353
      ],
      [
        "格（C",
        -9.533900092988866
      ],
      [
        "文件体积通常较大，",
        -9.536856670701654
      ],
      [
        "Z",
        -9.537233550815113
      ],
      [
        "式：",
        -9.537923032833332
      ],
      [
        "可以直接",
        -9.53808981864042
      ],
      [
        "▁Ea",
        -9.538509323303803
      ],
      [
        "长",
        -9.538919559155742
      ],
      [
        "在QGIS和ArcGIS中都",
        -9.539228451193884
      ],
      [
        "兼容",
        -9.54019054545167
      ],
      [
        "水",
        -9.540232537548878
      ],
      [
        "限",
        -9.540686634950609
      ],
      [
        "N）",
        -9.540987370216497
      ],
      [
        "JavaScript",
        -9.541716364966563
      ],
      [
        "Uni",
        -9.54180645609013
      ],
      [
        "GeoServer",
        -9.542024308869129
      ],
      [
        "是一种",
        -9.542086135535055
      ],
      [
        "常用算法包括",
        -9.54226435675524
      ],
      [
        "面板中",
        -9.542352213710476
      ],
      [
        "特别",
        -9.542380273848549
      ],
      [
        "at",
        -9.542672462446596
      ],
      [
        "准",
        -9.542788416223047
      ],
      [
        "Scale",
        -9.54281778680322
      ],
      [
        "综合",
        -9.543310750593944
      ],
      [
        "JPEG",
        -9.54358403161707
      ],
      [
        "空间参考信息",
        -9.543719416969681
      ],
      [
        "om",
        -9.543725061556241
      ],
      [
        "WM",
        -9.544486320455995
      ],
      [
        "pen",
        -9.544608051416391
      ],
      [
        "简单",
        -9.5448175909592
      ],
      [
        "与Web",
        -9.545191079463594
      ],
      [
        "OD",
        -9.545257789359157
      ],
      [
        "导",
        -9.545264051658446
      ],
      [
        "山",
        -9.54543917403895
      ],
      [
        "避免",
        -9.545766839971874
      ],
      [
        "服务",
        -9.545994480610732
      ],
      [
        "的光谱",
        -9.546061651104472
      ],
      [
        "算",
        -9.546378804884942
      ],
      [
        "不受",
        -9.546510766302255
      ],
      [
        "内容窗格",
        -9.546571071810874
      ],
      [
        "：单个",
        -9.5466416463187
      ],
      [
        "的符号",
        -9.54665933089625
      ],
      [
        "工具箱中",
        -9.546721578950724
      ],
      [
        "种",
        -9.54675245305097
      ],
      [
        "因此",
        -9.546757616566495
      ],
      [
        "美国",
        -9.54681244597041
      ],
      [
        "ools",
        -9.546838095189768
      ],
      [
        "森林",
        -9.547046970093144
      ],
      [
        "ST_",
        -9.547065898465776
      ],
      [
        "dbf",
        -9.547180992936136
      ],
      [
        "iff",
        -9.54733172128277
      ],
      [
        "步骤",
        -9.547401592960554
      ],
      [
        "差值",
        -9.547449644398867
      ],
      [
        "dm",
        -9.547472270300094
      ],
      [
        "CS、",
        -9.547739136103639
      ],
      [
        "shp（",
        -9.547751337578017
      ],
      [
        "数学运算",
        -9.547758724654507
      ],
      [
        "；Sentinel-",
        -9.547800087716082
      ],
      [
        "视",
        -9.547851451400549
      ],
      [
        "、Sentinel",
        -9.54801457547331
      ],
      [
        "圆柱投影",
        -9.54801967651359
      ],
      [
        "的优势在于",
        -9.548074473642924
      ],
      [
        "高级分析",
        -9.548093543124542
      ],
      [
        "件包括：",
        -9.548150105631608
      ],
      [
        "cpg",
        -9.54819260311985
      ],
      [
        "问题一：",
        -9.548470243428502
      ],
      [
        "目的",
        -9.54851931333371
      ],
      [
        "字段名",
        -9.548642119213092
      ],
      [
        "通",
        -9.548645864480802
      ],
      [
        "area",
        -9.548835166933706
      ],
      [
        "。如果",
        -9.548844821557847
      ],
      [
        "由于",
        -9.548946660912616
      ],
      [
        "（使用$",
        -9.549011524406918
      ],
      [
        "它通过",
        -9.549164758460842
      ],
      [
        "实",
        -9.549172193461455
      ],
      [
        "roads",
        -9.549223503810264
      ],
      [
        "比例尺地形图",
        -9.549278033407994
      ],
      [
        "正确的坐标系",
        -9.549425214392029
      ],
      [
        "组件",
        -9.549428307790848
      ],
      [
        "三维模型",
        -9.549430281236544
      ],
      [
        "可以通过",
        -9.549513627733294
      ],
      [
        "60",
        -9.549547985651252
      ],
      [
        "高斯-克吕格",
        -9.549687814120539
      ],
      [
        "库——",
        -9.549719139199517
      ],
      [
        "全",
        -9.549805847032705
      ],
      [
        "TB级",
        -9.549848796445511
      ],
      [
        "原始",
        -9.549926667099871
      ],
      [
        "团队",
        -9.549953899667507
      ],
      [
        "RT",
        -9.549995525451628
      ],
      [
        "平台上",
        -9.550126495130678
      ],
      [
        "end",
        -9.55021084324922
      ],
      [
        "变形因子为",
        -9.550241890270895
      ],
      [
        "▁Projection）",
        -9.550316112611617
      ],
      [
        "仅",
        -9.55040032369891
      ],
      [
        "工作",
        -9.550401591456001
      ],
      [
        "真北",
        -9.550455094414309
      ],
      [
        "版本",
        -9.55075659544913
      ],
      [
        "资",
        -9.550795122234161
      ],
      [
        "v",
        -9.550848305513195
      ],
      [
        "性——",
        -9.550874281901011
      ],
      [
        "序",
        -9.550977528055132
      ],
      [
        "件",
        -9.550978655074143
      ],
      [
        "优于",
        -9.551024714518695
      ],
      [
        "结构",
        -9.551182740582162
      ],
      [
        "法定",
        -9.551190015282957
      ],
      [
        "海量",
        -9.551205000068357
      ],
      [
        "同",
        -9.551464399091262
      ],
      [
        "9年",
        -9.551554954692428
      ],
      [
        "颗",
        -9.551587473151923
      ],
      [
        "要素类",
        -9.551610715418802
      ],
      [
        "别",
        -9.551792937058005
      ],
      [
        "格",
        -9.551902246054478
      ],
      [
        "nce",
        -9.551904046418768
      ],
      [
        "空",
        -9.551909595452175
      ],
      [
        "Geodata",
        -9.551988085542686
      ],
      [
        "1/298.257223563",
        -9.55203342474141
      ],
      [
        "本",
        -9.552091014226274
      ],
      [
        "包",
        -9.552101602597245
      ],
      [
        "缺",
        -9.552102479114746
      ],
      [
        "过",
        -9.55220986729898
      ],
      [
        "部",
        -9.552221236484487
      ],
      [
        "布",
        -9.552307871182753
      ],
      [
        "ope",
        -9.552359367471299
      ],
      [
        "作",
        -9.552380614497217
      ],
      [
        "更高",
        -9.552416818607387
      ],
      [
        "没",
        -9.552419067304628
      ],
      [
        "球",
        -9.552439110328876
      ],
      [
        "科学数据",
        -9.552486910449364
      ],
      [
        "物",
        -9.55253244892831
      ],
      [
        "流",
        -9.552546155713982
      ],
      [
        "关联",
        -9.552578202137813
      ],
      [
        "椭球体",
        -9.552635827633592
      ],
      [
        "（We",
        -9.552646250764125
      ],
      [
        "波段的数据，",
        -9.552651811044912
      ],
      [
        "名",
        -9.552665180777495
      ],
      [
        "▁View",
        -9.552679771170848
      ],
      [
        "MapServ",
        -9.552713393538916
      ],
      [
        "▁North",
        -9.55272362456876
      ],
      [
        "的基础，",
        -9.552746954050903
      ],
      [
        "便",
        -9.552752369032458
      ],
      [
        "路",
        -9.552763088398734
      ],
      [
        "载",
        -9.552795137630337
      ],
      [
        "十",
        -9.552810847327777
      ],
      [
        "模块",
        -9.552812096160086
      ],
      [
        "tal",
        -9.552817761498547
      ],
      [
        "Server",
        -9.552823910681642
      ],
      [
        "▁Height）——",
        -9.552834112825478
      ],
      [
        "uffer",
        -9.552847518490946
      ],
      [
        "键",
        -9.552855276821642
      ],
      [
        "在ArcGIS",
        -9.552868710324312
      ],
      [
        "、线、面、",
        -9.552869958768543
      ],
      [
        "版本——",
        -9.5529149742798
      ],
      [
        "体系",
        -9.552923335722188
      ],
      [
        "复",
        -9.552954877461076
      ],
      [
        "准确",
        -9.55296143870611
      ],
      [
        "红",
        -9.552979555843073
      ],
      [
        "多个图层的",
        -9.553005155281658
      ],
      [
        "东",
        -9.553008121555067
      ],
      [
        "企业",
        -9.553014466956236
      ],
      [
        "相同",
        -9.5530272861881
      ],
      [
        "有损",
        -9.553049571119145
      ],
      [
        "靠",
        -9.553062607344575
      ],
      [
        "$",
        -9.553066500303599
      ],
      [
        "决",
        -9.55307254495097
      ],
      [
        "生",
        -9.553093164128203
      ],
      [
        "基础",
        -9.55309463569229
      ],
      [
        "主动",
        -9.55309692533599
      ],
      [
        "学",
        -9.553116951268708
      ],
      [
        "基准",
        -9.55313608833262
      ],
      [
        "▁0.",
        -9.553144326935238
      ],
      [
        "运",
        -9.553154768924315
      ],
      [
        "样",
        -9.553160322609006
      ],
      [
        "▁3.x",
        -9.553174571281323
      ],
      [
        "子",
        -9.553176757553459
      ],
      [
        "浏览器",
        -9.553196393178162
      ],
      [
        "专",
        -9.553200842119471
      ],
      [
        "尺",
        -9.553231827512919
      ],
      [
        "确保",
        -9.553244953169884
      ],
      [
        "建",
        -9.55325751270425
      ],
      [
        "农",
        -9.553261018917697
      ],
      [
        "97",
        -9.553261539208801
      ],
      [
        "ox",
        -9.553263614385203
      ],
      [
        "窗",
        -9.553265098469868
      ],
      [
        "标准投影（如",
        -9.55326634390785
      ],
      [
        "批",
        -9.553267693858153
      ],
      [
        "移",
        -9.553278505330509
      ],
      [
        "随",
        -9.553286956134516
      ],
      [
        "重复",
        -9.553289756997152
      ],
      [
        "调查数据",
        -9.553294763497137
      ],
      [
        "野外",
        -9.553294766035794
      ],
      [
        "此",
        -9.553301260863629
      ],
      [
        "扩",
        -9.553310485477024
      ],
      [
        "积",
        -9.553316255620748
      ],
      [
        "源（",
        -9.553318540668883
      ],
      [
        "低",
        -9.553322422583875
      ],
      [
        "描",
        -9.553325254571071
      ],
      [
        "参考椭球",
        -9.553328764952267
      ],
      [
        "扫描",
        -9.553330237939555
      ],
      [
        "嵌",
        -9.553331455860697
      ],
      [
        "20",
        -9.553341861919517
      ],
      [
        "异",
        -9.55334655693919
      ],
      [
        "直",
        -9.55335142825499
      ],
      [
        "谱",
        -9.553357959226545
      ],
      [
        "念",
        -9.553359158842637
      ],
      [
        "证",
        -9.553359169564382
      ],
      [
        "收",
        -9.55336246351707
      ],
      [
        "激",
        -9.553362727058373
      ],
      [
        "径",
        -9.55337440228639
      ],
      [
        "立",
        -9.55337679053906
      ],
      [
        "互",
        -9.553385056984402
      ],
      [
        "组成部分，",
        -9.553392512081908
      ],
      [
        "造",
        -9.553393010932098
      ],
      [
        "续",
        -9.55339319990268
      ],
      [
        "_d",
        -9.553397391367161
      ],
      [
        "（空间索引）、.",
        -9.553399051309894
      ],
      [
        "物体",
        -9.553400703041026
      ],
      [
        "美",
        -9.553406132605078
      ],
      [
        "_b",
        -9.553406455557383
      ],
      [
        "浏览",
        -9.553426576010402
      ],
      [
        "管理器",
        -9.55343214018306
      ],
      [
        "Grid",
        -9.553432880572007
      ],
      [
        "硬",
        -9.553439135124876
      ],
      [
        "建模",
        -9.553440977011743
      ],
      [
        "命",
        -9.553443446173087
      ],
      [
        "滤",
        -9.553445301345361
      ],
      [
        "许多",
        -9.553452177938544
      ],
      [
        "西",
        -9.553454746808793
      ],
      [
        "半",
        -9.553455052554895
      ],
      [
        "口（",
        -9.553456277805168
      ],
      [
        "超",
        -9.553457089333833
      ],
      [
        "态",
        -9.55345874948357
      ],
      [
        "work",
        -9.553459352691323
      ],
      [
        "整",
        -9.553467824091118
      ],
      [
        "要注意",
        -9.553475180563378
      ],
      [
        "境",
        -9.553479561471319
      ],
      [
        "离",
        -9.55347989162017
      ],
      [
        "者",
        -9.553499530722476
      ],
      [
        "问",
        -9.553500949881453
      ],
      [
        "传",
        -9.55350398774636
      ],
      [
        "万",
        -9.553504142726565
      ],
      [
        "必",
        -9.553504150042338
      ],
      [
        "须",
        -9.55350415042926
      ],
      [
        "率",
        -9.553507527398809
      ],
      [
        "交互式",
        -9.553509364857952
      ],
      [
        "椭球",
        -9.553509950719846
      ],
      [
        "保",
        -9.553511731550131
      ],
      [
        "索",
        -9.553514593703806
      ],
      [
        "桌面GIS",
        -9.553516359832098
      ],
      [
        "UTF-8",
        -9.553519139135545
      ],
      [
        "势",
        -9.553519447863062
      ],
      [
        "感",
        -9.553525975313189
      ],
      [
        "情况",
        -9.553532006894564
      ],
      [
        "arcpy.da.",
        -9.553532371971464
      ],
      [
        "开启",
        -9.553532824917857
      ],
      [
        "，取",
        -9.553534063775043
      ],
      [
        "utput",
        -9.55353416267521
      ],
      [
        "（Poly",
        -9.553534711515523
      ],
      [
        "符",
        -9.553535112185248
      ],
      [
        "号）",
        -9.553535132726038
      ],
      [
        "平台地图服务器）",
        -9.553535511703254
      ],
      [
        "轴",
        -9.553535612075297
      ],
      [
        "引",
        -9.553535659551034
      ],
      [
        "飞机",
        -9.553535699241374
      ],
      [
        "命令行工具",
        -9.553535731141045
      ],
      [
        "细节",
        -9.553535777062756
      ],
      [
        "添加图例、比例尺、指北针",
        -9.553535803101333
      ],
      [
        "裸",
        -9.553535825438173
      ],
      [
        "卫",
        -9.553535828930729
      ],
      [
        "UTM或高斯-克吕格",
        -9.55353583051604
      ],
      [
        "星组",
        -9.55353583067824
      ],
      [
        "联合",
        -9.553535839280894
      ],
      [
        "）、海",
        -9.553535840338986
      ],
      [
        "捷",
        -9.553535891720289
      ],
      [
        "产",
        -9.55353590412987
      ],
      [
        "最便捷",
        -9.553535906304147
      ],
      [
        "手动",
        -9.553535910307598
      ],
      [
        "右键图层-属性-符号化",
        -9.553535913505574
      ],
      [
        "覆盖",
        -9.553535916391072
      ],
      [
        "标题",
        -9.553535920183563
      ],
      [
        "周期",
        -9.553535921350033
      ],
      [
        "助",
        -9.553535924047475
      ],
      [
        "除",
        -9.553535925766003
      ],
      [
        "明",
        -9.553535925848609
      ],
      [
        "缩",
        -9.553535925862274
      ],
      [
        "任",
        -9.553535926044265
      ],
      [
        "导航",
        -9.553535926092376
      ],
      [
        "费",
        -9.553535926111742
      ],
      [
        "负",
        -9.553535926169888
      ],
      [
        "林",
        -9.553535926184153
      ],
      [
        "块",
        -9.553535926184667
      ],
      [
        "手",
        -9.553535926185035
      ],
      [
        "快",
        -9.55353592618506
      ],
      [
        "附",
        -9.553535926185099
      ],
      [
        "盖",
        -9.55353592618518
      ],
      [
        "够",
        -9.55353592623535
      ],
      [
        "洲",
        -9.553535926235643
      ],
      [
        "乱",
        -9.553535926235657
      ],
      [
        "太",
        -9.55353592623567
      ],
      [
        "灾",
        -9.553535926235744
      ],
      [
        "打",
        -9.553535926243224
      ],
      [
        "力",
        -9.553535926249817
      ],
      [
        "配",
        -9.553535926249854
      ],
      [
        "策",
        -9.553535926250268
      ],
      [
        "显",
        -9.553535926256934
      ],
      [
        "术",
        -9.55353592626116
      ],
      [
        ".js",
        -9.553535926358206
      ],
      [
        "目录窗格",
        -9.553535926362008
      ],
      [
        "/GB2312",
        -9.55353592653098
      ],
      [
        "▁Dataset）-新建-拓扑",
        -9.553535926531588
      ],
      [
        "▁True（允许覆盖输出）",
        -9.553535926531588
      ],
      [
        "执行缓冲区、叠加、网络等分析操作",
        -9.55353592653159
      ],
      [
        "元素的参数（双击打开配置对话框）",
        -9.55353592653159
      ],
      [
        "▁南北延伸的区域——选择横轴投影",
        -9.55353592653159
      ],
      [
        "兴",
        -9.553535926531591
      ],
      [
        "延伸的区域——选择",
        -9.553535926531591
      ],
      [
        "遵循拓扑规则和数据结构规范的程度",
        -9.553535926531591
      ],
      [
        "类并设置每个要素类的坐标精度等级",
        -9.553535926531591
      ],
      [
        "的布局视图用于制作专业的打印地图",
        -9.553535926531591
      ],
      [
        "所使用的大地基准面（Datum）",
        -9.553535926531591
      ],
      [
        "定必须使用UTF-8，无编码问题",
        -9.553535926531591
      ],
      [
        "——检查分析结果的准确性和合理性",
        -9.553535926531591
      ],
      [
        "DEM进行坡度、坡向、视域等分析",
        -9.553535926531591
      ],
      [
        "编辑模式后可直接修改单元格内容",
        -9.553535926531591
      ],
      [
        "aps）——面之间不允许出现缝隙",
        -9.553535926531595
      ],
      [
        "声",
        -9.553535926531596
      ],
      [
        "争",
        -9.553535926531596
      ],
      [
        "竞",
        -9.553535926531596
      ],
      [
        "左",
        -9.553535926531596
      ],
      [
        "噪",
        -9.553535926531596
      ],
      [
        "疾",
        -9.553535926531596
      ],
      [
        "病",
        -9.553535926531596
      ],
      [
        "宣",
        -9.553535926531596
      ],
      [
        "哪",
        -9.553535926531596
      ],
      [
        "，对地理要素进行简化和取舍的过程",
        -9.553535926531596
      ],
      [
        "预处理步骤，以消除各种误差和畸变",
        -9.553535926531596
      ],
      [
        "项目需求、预算、技术栈和团队技能",
        -9.553535926531596
      ],
      [
        "进行地图创建、数据共享和空间分析",
        -9.553535926531596
      ],
      [
        "转换）、PDAL（点云数据处理）",
        -9.553535926531596
      ],
      [
        "趣区域（AOI）边界提取影像子集",
        -9.553535926531596
      ],
      [
        "计、地质分析等场景中具有独特价值",
        -9.553535926531596
      ],
      [
        "能量，将电磁波信号转换为数字图像",
        -9.553535926531596
      ],
      [
        "能力，即使千万级要素也能快速检索",
        -9.553535926531596
      ],
      [
        "目标法、6S模型、FLAASH等",
        -9.553535926531596
      ],
      [
        "用，也可以在样式库中保存常用样式",
        -9.553535926531596
      ],
      [
        "物信号的影响，获取地表真实反射率",
        -9.553535926531596
      ],
      [
        "温异常点检测识别火点和热异常区域",
        -9.553535926531596
      ],
      [
        "温度、降水量、污染浓度和遥感影像",
        -9.553535926531596
      ],
      [
        "极大（格陵兰岛看起来比非洲还大）",
        -9.553535926531596
      ],
      [
        "是Landsat的重要补充和替代",
        -9.553535926531596
      ],
      [
        "是GIS日常工作中非常常见的需求",
        -9.553535926531596
      ],
      [
        "方法适合不同的精度要求和应用场景",
        -9.553535926531596
      ],
      [
        "整体趋势，简单但难以捕捉局部变化",
        -9.553535926531596
      ],
      [
        "插件和内置工具进行三维地图可视化",
        -9.553535926531596
      ],
      [
        "执行SQL查询并将结果加载为图层",
        -9.553535926531596
      ],
      [
        "微米），反映的是地物表面温度信息",
        -9.553535926531596
      ],
      [
        "异常转换为正常高才能用于工程建设",
        -9.553535926531596
      ],
      [
        "度，是选择数据源时的重要参考指标",
        -9.553535926531596
      ],
      [
        "布、是否存在空间趋势）和应用目的",
        -9.553535926531596
      ],
      [
        "差减少节点数量，可大幅降低数据量",
        -9.553535926531596
      ],
      [
        "展历程可以追溯到20世纪60年代",
        -9.553535926531596
      ],
      [
        "导完成安装，建议使用默认安装路径",
        -9.553535926531596
      ],
      [
        "对应的矢量/栅格/数据库图层类型",
        -9.553535926531596
      ],
      [
        "密度分布，是常见的数据可视化需求",
        -9.553535926531596
      ],
      [
        "字符编码）、.xml（元数据）等",
        -9.553535926531596
      ],
      [
        "多个地图框展示不同区域或不同主题",
        -9.553535926531596
      ],
      [
        "坐标参考系统，确认显示的信息正确",
        -9.553535926531596
      ],
      [
        "在分析过程中反复转换导致累积误差",
        -9.553535926531596
      ],
      [
        "发射微波脉冲并接收地面回波来成像",
        -9.553535926531596
      ],
      [
        "分布、交通便利度确定最优店铺位置",
        -9.553535926531596
      ],
      [
        "内，适合网络瓦片地图的组织和显示",
        -9.553535926531596
      ],
      [
        "光，因此NDVI值较高（接近1）",
        -9.553535926531596
      ],
      [
        "像元存储一个或多个数值的数据模型",
        -9.553535926531596
      ],
      [
        "便重复使用，在批量制图时非常有用",
        -9.553535926531596
      ],
      [
        "传播空间分析、医疗设施可达性评估",
        -9.553535926531596
      ],
      [
        "们统一显示在地图画布的坐标系统中",
        -9.553535926531596
      ],
      [
        "于资源调查、环境监测、灾害评估等",
        -9.553535926531596
      ],
      [
        "之间的差异在不同地区可达数十厘米",
        -9.553535926531596
      ],
      [
        "一般应用中多光谱数据已能满足需求",
        -9.553535926531596
      ],
      [
        "一个或多个起始点到终点的最优路线",
        -9.553535926531596
      ],
      [
        "、应急响应路线规划、灾后损失评估",
        -9.553535926531596
      ],
      [
        "、图层、工具箱和数据库连接等信息",
        -9.553535926531596
      ],
      [
        "、TIFF）、PDF或SVG格式",
        -9.553535926531596
      ],
      [
        "NDVI值较低（接近0或为负值）",
        -9.553535926531596
      ],
      [
        "CS）是开源GIS互操作性的基础",
        -9.553535926531596
      ],
      [
        "，通过传感器获取目标信息的技术",
        -9.553535926531596
      ],
      [
        "，用于评估植被生长状态和覆盖度",
        -9.553535926531596
      ],
      [
        "或等角割圆锥投影（兰勃特投影）",
        -9.553535926531596
      ],
      [
        "坐标才能获得准确的米距离缓冲区",
        -9.553535926531596
      ],
      [
        "地表粗糙度、介电常数和几何结构",
        -9.553535926531596
      ],
      [
        "右键图层-打开属性表查看和编辑",
        -9.553535926531596
      ],
      [
        "分析或空间统计，应使用等距投影",
        -9.553535926531596
      ],
      [
        "串联为一个可重复使用的分析模型",
        -9.553535926531596
      ],
      [
        "不同，GIS会进行实时动态投影",
        -9.553535926531596
      ],
      [
        "一个参考椭球体来近似地球的形状",
        -9.553535926531596
      ],
      [
        "等志愿者地理信息平台获取数据",
        -9.553535926531596
      ],
      [
        "格式），从根本上避免编码问题",
        -9.553535926531596
      ],
      [
        "大地水准面",
        -9.553535926531596
      ],
      [
        "放置",
        -9.553535926531596
      ],
      [
        "围绕",
        -9.553535926531596
      ],
      [
        "▁0.3，实现多因子综合评价",
        -9.553535926531604
      ],
      [
        "可通过菜单处理-工具箱打开",
        -9.553535926531604
      ],
      [
        "罗",
        -9.553535926531605
      ],
      [
        "初",
        -9.553535926531605
      ],
      [
        "扰",
        -9.553535926531605
      ],
      [
        "饰",
        -9.553535926531605
      ],
      [
        "既",
        -9.553535926531605
      ],
      [
        "售",
        -9.553535926531605
      ],
      [
        "教",
        -9.553535926531605
      ],
      [
        "触",
        -9.553535926531605
      ],
      [
        "掌",
        -9.553535926531605
      ],
      [
        "觉",
        -9.553535926531605
      ],
      [
        "树",
        -9.553535926531605
      ],
      [
        "衡",
        -9.553535926531605
      ],
      [
        "私",
        -9.553535926531605
      ],
      [
        "犯",
        -9.553535926531605
      ],
      [
        "曲",
        -9.553535926531605
      ],
      [
        "孔",
        -9.553535926531605
      ],
      [
        "做",
        -9.553535926531605
      ],
      [
        "，如将统计数据关联到行政区划图层",
        -9.553535926531605
      ],
      [
        "（大幅提升大型数据集的读写速度）",
        -9.553535926531605
      ],
      [
        "（IMG转GeoTIFF并压缩）",
        -9.553535926531605
      ],
      [
        "高的分类方法，但需要大量标注样本",
        -9.553535926531605
      ],
      [
        "钮（铅笔图标）或在图层上右键选择",
        -9.553535926531605
      ],
      [
        "部署版本）或国产替代方案如超图云",
        -9.553535926531605
      ],
      [
        "转换为物理量（辐射亮度或反射率）",
        -9.553535926531605
      ],
      [
        "表影像，经解译和分类提取地理信息",
        -9.553535926531605
      ],
      [
        "衡）或等面积投影（如需面积比较）",
        -9.553535926531605
      ],
      [
        "罪地点、店铺位置、GPS轨迹点）",
        -9.553535926531605
      ],
      [
        "结果，可同时识别变化类型和变化量",
        -9.553535926531605
      ],
      [
        "磁偏角差异，且磁北随时间缓慢移动",
        -9.553535926531605
      ],
      [
        "的过程，是遥感信息提取的核心技术",
        -9.553535926531605
      ],
      [
        "测量，但仅在投影的有效范围内准确",
        -9.553535926531605
      ],
      [
        "没有索引的查询性能差异可达数百倍",
        -9.553535926531605
      ],
      [
        "栅格图层、数值、字符串等）到画布",
        -9.553535926531605
      ],
      [
        "支持版本管理、事务回滚和备份恢复",
        -9.553535926531605
      ],
      [
        "插值误差估计，效果通常优于IDW",
        -9.553535926531605
      ],
      [
        "技术，是遥感应用最重要的方向之一",
        -9.553535926531605
      ],
      [
        "或添加WFS图层连接在线地图服务",
        -9.553535926531605
      ],
      [
        "志，可以在地理处理历史窗格中查看",
        -9.553535926531605
      ],
      [
        "属性值拉伸建筑高度）和天空盒背景",
        -9.553535926531605
      ],
      [
        "展示、GIS数据共享给非专业用户",
        -9.553535926531605
      ],
      [
        "对应的工具是重投影图层和指定投影",
        -9.553535926531605
      ],
      [
        "定、污染扩散模拟、生物多样性监测",
        -9.553535926531605
      ],
      [
        "多数新版本GIS软件会读取该文件",
        -9.553535926531605
      ],
      [
        "坐标系统是第一步也是最重要的一步",
        -9.553535926531605
      ],
      [
        "卫星影像、野外调查、公开数据等）",
        -9.553535926531605
      ],
      [
        "亮显示，可逐个检查并提供修复建议",
        -9.553535926531605
      ],
      [
        "、高德地图均使用此坐标系或其变体",
        -9.553535926531605
      ],
      [
        "hapefile时，往往出现乱码",
        -9.553535926531605
      ],
      [
        "QGIS中直接创建交互式统计图表",
        -9.553535926531605
      ],
      [
        "4）表达建筑，包含丰富的语义信息",
        -9.553535926531605
      ],
      [
        "）即可交互式执行ArcPy代码",
        -9.553535926531605
      ],
      [
        "边界明确的要素如道路、行政边界",
        -9.553535926531605
      ],
      [
        "的特定范围，在页面上绘出地图框",
        -9.553535926531605
      ],
      [
        "热红外波段和ECOSTRESS",
        -9.553535926531605
      ],
      [
        "栅格数据结构简单、适合空间分析",
        -9.553535926531605
      ],
      [
        "服务，是使用QGIS必装的插件",
        -9.553535926531605
      ],
      [
        "差异极小，日常工作中可互通使用",
        -9.553535926531605
      ],
      [
        "但仍大量存在于历史数据和图纸中",
        -9.553535926531605
      ],
      [
        "颜色或符号，如按土地类型着色",
        -9.553535926531605
      ],
      [
        "可以直接导出图层为KML格式",
        -9.553535926531605
      ],
      [
        "CRS中设置默认坐标参考系统",
        -9.553535926531605
      ],
      [
        "）即可正确配置该投影",
        -9.553535926531605
      ],
      [
        "减少",
        -9.553535926531605
      ],
      [
        "语义",
        -9.553535926531605
      ],
      [
        "依赖",
        -9.553535926531605
      ],
      [
        "眼",
        -9.553535926531614
      ],
      [
        "鹰",
        -9.553535926531614
      ],
      [
        "，是日常GIS操作的核心功能入口",
        -9.553535926531614
      ],
      [
        "访问和分析地理空间信息的技术体系",
        -9.553535926531614
      ],
      [
        "波、极化分解和干涉处理等专业技巧",
        -9.553535926531614
      ],
      [
        "椭球但在数学处理上将其简化为球体",
        -9.553535926531614
      ],
      [
        "和精校正（使用地面控制点GCP）",
        -9.553535926531614
      ],
      [
        "、分析和建模以提取有用信息的过程",
        -9.553535926531614
      ],
      [
        "考虑这三种北方向之间的转换关系",
        -9.553535926531614
      ],
      [
        "库（如交通、公用设施、地质等）",
        -9.553535926531614
      ],
      [
        "可见光、",
        -9.553535926531614
      ],
      [
        "重塑要素——调整要素边界形状",
        -9.553535926531621
      ],
      [
        "惯",
        -9.553535926531623
      ],
      [
        "夫",
        -9.553535926531623
      ],
      [
        "倍",
        -9.553535926531623
      ],
      [
        "游",
        -9.553535926531623
      ],
      [
        "追",
        -9.553535926531623
      ],
      [
        "著",
        -9.553535926531623
      ],
      [
        "握",
        -9.553535926531623
      ],
      [
        "卷",
        -9.553535926531623
      ],
      [
        "克",
        -9.553535926531623
      ],
      [
        "挂",
        -9.553535926531623
      ],
      [
        "悬",
        -9.553535926531623
      ],
      [
        "康",
        -9.553535926531623
      ],
      [
        "踪",
        -9.553535926531623
      ],
      [
        "神",
        -9.553535926531623
      ],
      [
        "（文本格式），不适合存储海量数据",
        -9.553535926531623
      ],
      [
        "（数据格式、访问方式）和联系信息",
        -9.553535926531623
      ],
      [
        "（如GB2312或System）",
        -9.553535926531623
      ],
      [
        "阻止标注重叠功能并设置标注优先级",
        -9.553535926531623
      ],
      [
        "记可能使用系统编码，需要正确识别",
        -9.553535926531623
      ],
      [
        "获取数十万到数百万个点的三维坐标",
        -9.553535926531623
      ],
      [
        "的推出大大推动了GIS的公众认知",
        -9.553535926531623
      ],
      [
        "度、限速、单行限制、转弯限制等）",
        -9.553535926531623
      ],
      [
        "小比例尺地图展示大区域但细节较少",
        -9.553535926531623
      ],
      [
        "作飞行动画、可添加图标和标签文字",
        -9.553535926531623
      ],
      [
        "于在地图上自动显示要素的属性文字",
        -9.553535926531623
      ],
      [
        "也是中国大比例尺地形图的标准投影",
        -9.553535926531623
      ],
      [
        "一图层的不同子集设定不同标注样式",
        -9.553535926531623
      ],
      [
        "pt/yum或Flatpak安装",
        -9.553535926531623
      ],
      [
        "▁创建后可在属性表中编辑字段值",
        -9.553535926531623
      ],
      [
        "——将选中的多个要素合并为一个",
        -9.553535926531623
      ],
      [
        "metryCollection",
        -9.553535926531623
      ],
      [
        "单波段伪彩色",
        -9.553535926531623
      ],
      [
        "动画",
        -9.553535926531623
      ],
      [
        "遵循",
        -9.553535926531628
      ],
      [
        "给",
        -9.553535926531632
      ],
      [
        "越来越多用于Web三维GIS场景",
        -9.553535926531632
      ],
      [
        "超过200种栅格和矢量格式的读写",
        -9.553535926531632
      ],
      [
        "大比例尺）均采用高斯-克吕格投影",
        -9.553535926531632
      ],
      [
        "变化检测、干旱评估和土地覆盖分类",
        -9.553535926531632
      ],
      [
        "内容、质量、条件、来源和其他特征",
        -9.553535926531632
      ],
      [
        "从无标注到单一标注或基于规则标注",
        -9.553535926531632
      ],
      [
        "智能",
        -9.553535926531632
      ],
      [
        "文件夹-新建-文件地理数据库",
        -9.553535926531639
      ],
      [
        "辅",
        -9.55353592653164
      ],
      [
        "鉴",
        -9.55353592653164
      ],
      [
        "旅",
        -9.55353592653164
      ],
      [
        "问题）、时间窗限制和实时交通状况",
        -9.55353592653164
      ],
      [
        "中的保存按钮保存所有编辑",
        -9.55353592653164
      ],
      [
        "人口密度、",
        -9.55353592653164
      ],
      [
        "00公里",
        -9.55353592653164
      ],
      [
        "克里金",
        -9.55353592653164
      ],
      [
        "查找",
        -9.55353592653164
      ],
      [
        "中，坐标系统通常以WKT格式存储",
        -9.553535926531652
      ],
      [
        "）是全球市场份额最大的GIS平台",
        -9.553535926531659
      ],
      [
        "（30米）以及中国的高分系列数据",
        -9.553535926531659
      ],
      [
        "勾",
        -9.55353592653166
      ],
      [
        "雨",
        -9.55353592653166
      ],
      [
        "末",
        -9.55353592653166
      ],
      [
        "欢",
        -9.55353592653166
      ],
      [
        "迎",
        -9.55353592653166
      ],
      [
        "升",
        -9.55353592653166
      ],
      [
        "府",
        -9.55353592653166
      ],
      [
        "，可以直接作为Web地图的数据源",
        -9.55353592653166
      ],
      [
        "表示地图上1厘米代表实地100米",
        -9.55353592653166
      ],
      [
        "经度在前、纬度在后的顺序组织坐标",
        -9.55353592653166
      ],
      [
        "点要素，块属性转为GIS属性字段",
        -9.55353592653166
      ],
      [
        "工程、水利、军事等领域有广泛应用",
        -9.55353592653166
      ],
      [
        "属性信息映射为CAD图层名和颜色",
        -9.55353592653166
      ],
      [
        "▁JS）都原生支持GeoJSON",
        -9.55353592653166
      ],
      [
        "CON、中国的坐标转换格网模型）",
        -9.55353592653166
      ],
      [
        "-Tree空间索引，查询性能优异",
        -9.55353592653166
      ],
      [
        "（功能最全面的开源桌面GIS）",
        -9.55353592653166
      ],
      [
        "导出DXF时可选择是否保留属性",
        -9.55353592653166
      ],
      [
        "地理坐标范围等）来实现地理定位",
        -9.55353592653166
      ],
      [
        "雷达，提供全天候对地观测能力",
        -9.55353592653166
      ],
      [
        "档案",
        -9.55353592653166
      ],
      [
        "巡检",
        -9.55353592653166
      ],
      [
        "健",
        -9.55353592653167
      ],
      [
        "，输出对应位置也将是Nodata",
        -9.55353592653167
      ],
      [
        "际上使用最广泛的地图投影系统之一",
        -9.55353592653167
      ],
      [
        "进行通视分析、流域分析和水文建模",
        -9.55353592653167
      ],
      [
        "致的岩石热惯量差异识别岩性和构造",
        -9.55353592653167
      ],
      [
        "用于1:10000比例尺立体测图",
        -9.55353592653167
      ],
      [
        "替代了传统ArcMap的文档模式",
        -9.55353592653167
      ],
      [
        "、要素权重等，避免地图上标注过密",
        -9.55353592653167
      ],
      [
        "1度在不同纬度代表的实际距离不同",
        -9.55353592653167
      ],
      [
        "▁1000000",
        -9.553535926531676
      ],
      [
        "尼",
        -9.553535926531678
      ],
      [
        "白",
        -9.553535926531678
      ],
      [
        "窄",
        -9.553535926531678
      ],
      [
        "哥",
        -9.553535926531678
      ],
      [
        "设置-选项-数据源中确认编码设置",
        -9.553535926531678
      ],
      [
        "涵",
        -9.553535926531687
      ],
      [
        "-CRS选项卡，选择项目坐标系",
        -9.553535926531687
      ],
      [
        "计算机的普及，桌面GIS开始发展",
        -9.553535926531698
      ],
      [
        "可见光、近红外、短波红外和热红外",
        -9.553535926531698
      ],
      [
        "公司成立并推出了Arc/Info",
        -9.553535926531698
      ],
      [
        "0纳米），形成几乎连续的光谱曲线",
        -9.553535926531698
      ],
      [
        "CGIS），因此被称为GIS之父",
        -9.553535926531707
      ],
      [
        "迭",
        -9.553535926531715
      ],
      [
        "丢失",
        -9.553535926531715
      ],
      [
        "浏览和添加PostGIS空间表",
        -9.553535926531724
      ],
      [
        "政",
        -9.553535926531733
      ],
      [
        "，放置在.shp文件同目录下即可",
        -9.553535926531733
      ],
      [
        "处理工具箱-矢量几何-缓冲区工具",
        -9.553535926531733
      ],
      [
        "、东偏移（500000米）等信息",
        -9.553535926531733
      ],
      [
        "（米级以上），两者可以视为等同",
        -9.553535926531733
      ],
      [
        "使用分析工具-邻域-缓冲区工具",
        -9.553535926531733
      ],
      [
        "我的数据没有.prj文件怎么办",
        -9.553535926531742
      ],
      [
        "矢量数据存储量小、精度高",
        -9.553535926531742
      ],
      [
        "满足",
        -9.553535926531742
      ],
      [
        "1:10000",
        -9.553535926531751
      ],
      [
        "熟",
        -9.553535926531753
      ],
      [
        "答",
        -9.553535926531753
      ],
      [
        "某些",
        -9.553535926531753
      ],
      [
        "壤",
        -9.55353592653177
      ],
      [
        "破",
        -9.55353592653177
      ],
      [
        "、Ctrl+",
        -9.55353592653177
      ],
      [
        "不同基准面之间的转换需要转换参数",
        -9.553535926531774
      ],
      [
        "训",
        -9.55353592653178
      ],
      [
        "品",
        -9.553535926531808
      ],
      [
        "培",
        -9.553535926531808
      ],
      [
        "和多光谱相机，适合农业和资源调查",
        -9.553535926531808
      ],
      [
        "分辨率，适用于城市规划和精细制图",
        -9.553535926531808
      ],
      [
        "——道路沿线缓冲区内土地利用统计",
        -9.553535926531808
      ],
      [
        "卫星，全天候观测能力突出",
        -9.553535926531808
      ],
      [
        "静",
        -9.553535926531815
      ],
      [
        "卫星，可对特定区域持续高频次观测",
        -9.553535926531815
      ],
      [
        "影像和DEM数据最常用的存储格式",
        -9.553535926531826
      ],
      [
        "链",
        -9.553535926531843
      ],
      [
        "基础也是最常用的空间分析操作之一",
        -9.553535926531843
      ],
      [
        "周围指定距离范围内创建区域的工具",
        -9.553535926531843
      ],
      [
        "分析某地点周边1公里内的人口数量",
        -9.553535926531843
      ],
      [
        "和ArcGIS的LAS数据集工具",
        -9.553535926531861
      ],
      [
        "在线底图",
        -9.553535926531861
      ],
      [
        "动态投影",
        -9.553535926531872
      ],
      [
        "不完全、三维和BIM功能相对较弱",
        -9.55353592653188
      ],
      [
        "脉冲并",
        -9.553535926531898
      ],
      [
        "桌面端",
        -9.553535926532009
      ],
      [
        "和WGS84需要转换吗",
        -9.553535926532014
      ],
      [
        "、线、面、注记分别导入地理数据库",
        -9.55353592653209
      ],
      [
        "的下载、预处理和分类",
        -9.553535926532145
      ],
      [
        "页面上",
        -9.55353592653221
      ],
      [
        "系统，对不一致的图层进行重投影",
        -9.553535926532227
      ],
      [
        "500000",
        -9.553535926532351
      ],
      [
        "脚本工具",
        -9.553535926532632
      ],
      [
        "参考系统的标准格式，由OGC定义",
        -9.553535926532723
      ],
      [
        "，必须根据分析目的选择合适的投影",
        -9.553535926532742
      ],
      [
        "估算和",
        -9.55353592653331
      ],
      [
        "名称、",
        -9.55353592653354
      ],
      [
        "、降水",
        -9.553535926533584
      ],
      [
        "ocessing，运行分析工具）",
        -9.553535926534263
      ],
      [
        "Lite（基于SQLite）",
        -9.553535926534309
      ],
      [
        "NetCDF数据的常用Web服务",
        -9.55353592653441
      ],
      [
        "如何处理",
        -9.553535926534419
      ],
      [
        "使用方法：处理-图形建模器",
        -9.553535926534458
      ],
      [
        "先重投影到适合本区域的投影坐标系",
        -9.553535926534867
      ],
      [
        "▁Hub完全免费开放",
        -9.553535926534936
      ],
      [
        "数据交换",
        -9.553535926534938
      ],
      [
        "和精细",
        -9.553535926535043
      ],
      [
        "）、融合",
        -9.55353592653681
      ],
      [
        "大地基准面（Datum）",
        -9.553535926537872
      ],
      [
        "（圆形",
        -9.553535926540604
      ],
      [
        "，可以创建和修改点、线、面要素",
        -9.55353592654072
      ],
      [
        "到Web发布的完整GIS工作流程",
        -9.553535926540853
      ],
      [
        "设施选址",
        -9.55353592654554
      ],
      [
        "工作中经常遇到的",
        -9.553535926546903
      ],
      [
        "可以视为等同",
        -9.553535926547589
      ],
      [
        "。问题五：",
        -9.553535926547644
      ],
      [
        "▁问题五：",
        -9.55353592654983
      ],
      [
        "标准，基于SQLite数据库技术",
        -9.553535926562684
      ],
      [
        "，高斯-克吕格为1.0",
        -9.553535926564324
      ],
      [
        "▁Estimation）",
        -9.553535926566097
      ],
      [
        "，通过处理工具箱-栅格计算器打开",
        -9.553535926567642
      ],
      [
        "作为标准数据交换格式",
        -9.55353592656909
      ],
      [
        "参考系统的标准",
        -9.55353592657014
      ],
      [
        "冲",
        -9.55353592657085
      ],
      [
        "谷",
        -9.553535926571143
      ],
      [
        "剧",
        -9.553535926571143
      ],
      [
        "不均匀的",
        -9.553535926571218
      ],
      [
        "脊",
        -9.553535926571254
      ],
      [
        "是最优的（尽量避免了细长三角形）",
        -9.553535926571254
      ],
      [
        "剖",
        -9.553535926571271
      ],
      [
        "软件中用于快速选择和指定坐标系统",
        -9.5535359265713
      ],
      [
        "地点），在这些方面优于栅格DEM",
        -9.553535926571328
      ],
      [
        "度），高效存储和管理大量科学数据",
        -9.553535926571337
      ],
      [
        "前提下可将文件减小30%至50%",
        -9.553535926571337
      ],
      [
        "了对空间数据类型和空间操作的支持",
        -9.553535926571364
      ],
      [
        "广泛的",
        -9.5535359265714
      ],
      [
        "月",
        -9.553535926571401
      ],
      [
        "虽",
        -9.553535926571401
      ],
      [
        "焦",
        -9.553535926571401
      ],
      [
        "）是GIS野外数据采集的重要工具",
        -9.553535926571401
      ],
      [
        "（海表温度、盐度）和气候模式输出",
        -9.553535926571401
      ],
      [
        "处理动态差分）技术可达厘米级精度",
        -9.553535926571401
      ],
      [
        "为不同坐标系统之间转换的中间桥梁",
        -9.553535926571401
      ],
      [
        "NetCDF数据为GIS栅格格式",
        -9.553535926571401
      ],
      [
        "面推广使用的新一代大地坐标系统",
        -9.553535926571401
      ],
      [
        "集，可在分析选项卡中打开工具箱",
        -9.553535926571401
      ],
      [
        "工程测量、洪水模拟和三维可视化",
        -9.553535926571401
      ],
      [
        "要素周围",
        -9.553535926571401
      ],
      [
        "训练样本",
        -9.553535926571401
      ],
      [
        "，从东经75度到135度依次编号",
        -9.55353592657141
      ],
      [
        "计算成本高于同等精度的栅格DEM",
        -9.55353592657141
      ],
      [
        "的UTM北半球，按经度带依次编号",
        -9.55353592657141
      ],
      [
        "络来表示连续表面的矢量数据模型",
        -9.55353592657141
      ],
      [
        "仍是数据交换的通用语言",
        -9.55353592657141
      ],
      [
        "夹",
        -9.553535926571419
      ],
      [
        "料",
        -9.553535926571419
      ],
      [
        "斗",
        -9.553535926571419
      ],
      [
        "洼",
        -9.553535926571419
      ],
      [
        "堤",
        -9.553535926571437
      ],
      [
        "冰",
        -9.553535926571437
      ],
      [
        "崖",
        -9.553535926571437
      ],
      [
        "严",
        -9.553535926571437
      ],
      [
        "事",
        -9.553535926571437
      ],
      [
        "表，双击或拖拽即可加载到地图画布",
        -9.553535926571437
      ],
      [
        "像素覆盖30米乘30米的地面范围",
        -9.553535926571437
      ],
      [
        "、透明度）、时间戳和相机视角设置",
        -9.553535926571437
      ],
      [
        "180至180、纬度-90至90",
        -9.553535926571437
      ],
      [
        "实时动态",
        -9.553535926571437
      ],
      [
        "英",
        -9.553535926571456
      ],
      [
        "特征包括空间性、时间性和专题性",
        -9.553535926571472
      ],
      [
        "锐",
        -9.553535926571474
      ],
      [
        "今",
        -9.553535926571474
      ],
      [
        "紫",
        -9.553535926571474
      ],
      [
        "探",
        -9.553535926571474
      ],
      [
        "张",
        -9.553535926571474
      ],
      [
        "，合并多个同类型图层为单一图层）",
        -9.553535926571474
      ],
      [
        "转换过程需要根据目的进行合理取舍",
        -9.553535926571474
      ],
      [
        "的差异，但在大多数应用中可以忽略",
        -9.553535926571474
      ],
      [
        "理坐标系统（GPS使用的经纬度）",
        -9.553535926571474
      ],
      [
        "大气的波段范围）是学习遥感的基础",
        -9.553535926571474
      ],
      [
        "图层混合了点线面，GIS如何分开",
        -9.553535926571474
      ],
      [
        "分析、数据安全性和备份恢复能力强",
        -9.553535926571474
      ],
      [
        "分、秒）、本初子午线和基准面组成",
        -9.553535926571474
      ],
      [
        "其官网地图展示使用百度墨卡托投影",
        -9.553535926571474
      ],
      [
        "信息，如城市、井位、GPS采样点",
        -9.553535926571474
      ],
      [
        "信息（如名称、人口等描述性数据）",
        -9.553535926571474
      ],
      [
        "从点数据或等高线生成TIN的工具",
        -9.553535926571474
      ],
      [
        "、无法存储三维数据的一些高级特性",
        -9.553535926571474
      ],
      [
        "、分割线面、合并要素和平滑边界等",
        -9.553535926571474
      ],
      [
        "ONASS和欧盟的Galileo",
        -9.553535926571474
      ],
      [
        "方案，这就是GCJ-02的来源",
        -9.553535926571474
      ],
      [
        "导致的，需要进行坐标加密或解密",
        -9.553535926571474
      ],
      [
        "s、ST_Distance等）",
        -9.553535926571474
      ],
      [
        "addo命令）以提升浏览速度",
        -9.553535926571474
      ],
      [
        "等现代格式迁移是推荐做法",
        -9.553535926571474
      ],
      [
        "逐步向",
        -9.553535926571474
      ],
      [
        "意义",
        -9.553535926571474
      ],
      [
        "创建NetCDF栅格图层工具读取",
        -9.553535926571476
      ],
      [
        "郊",
        -9.553535926571483
      ],
      [
        "己",
        -9.553535926571483
      ],
      [
        "野外现场的实时地图查看和数据编辑",
        -9.553535926571483
      ],
      [
        "表、支持复杂的网络分析和拓扑分析",
        -9.553535926571483
      ],
      [
        "目前全球使用最广泛的地理坐标系统",
        -9.553535926571483
      ],
      [
        "是直线），投影坐标表现为矩形网格",
        -9.553535926571483
      ],
      [
        "数据坐标转换为该平台使用的坐标系",
        -9.553535926571483
      ],
      [
        "成，如行政边界、湖泊、建筑物轮廓",
        -9.553535926571483
      ],
      [
        "地表温度差异，评估城市热环境质量",
        -9.553535926571483
      ],
      [
        "位数）和空值（Nodata）标记",
        -9.553535926571483
      ],
      [
        "，但在高精度测绘中需要进行转换",
        -9.553535926571483
      ],
      [
        "、环保、减灾等领域得到广泛应用",
        -9.553535926571483
      ],
      [
        "Package是目前最佳的选择",
        -9.553535926571483
      ],
      [
        "大气科学、海洋学和气候学领域",
        -9.553535926571483
      ],
      [
        "▁导航——使用等角投影（墨卡托）",
        -9.553535926571492
      ],
      [
        "闭",
        -9.553535926571493
      ],
      [
        "营",
        -9.553535926571493
      ],
      [
        "岛",
        -9.553535926571502
      ],
      [
        "使用数字化工具栏中的工具进行编辑",
        -9.55353592657151
      ],
      [
        "平滑——消除线的不必要弯曲",
        -9.55353592657151
      ],
      [
        "——栅格格式转换和子集提取",
        -9.55353592657151
      ],
      [
        "淹",
        -9.553535926571511
      ],
      [
        "易",
        -9.553535926571511
      ],
      [
        "购",
        -9.553535926571511
      ],
      [
        "只",
        -9.553535926571511
      ],
      [
        "铺",
        -9.553535926571511
      ],
      [
        "鼠",
        -9.553535926571511
      ],
      [
        "滚",
        -9.553535926571511
      ],
      [
        "\\",
        -9.553535926571511
      ],
      [
        "呈",
        -9.553535926571511
      ],
      [
        "封",
        -9.553535926571511
      ],
      [
        "瑞",
        -9.553535926571511
      ],
      [
        "军",
        -9.553535926571511
      ],
      [
        "士",
        -9.553535926571511
      ],
      [
        "轮",
        -9.553535926571511
      ],
      [
        "）和线段数（圆形缓冲区的平滑度）",
        -9.553535926571511
      ],
      [
        "角性质），因此被广泛用于航海导航",
        -9.553535926571511
      ],
      [
        "精度——数据反映当前状况的时效性",
        -9.553535926571511
      ],
      [
        "简化——减少线和面边界上的节点数",
        -9.553535926571511
      ],
      [
        "点表示面域内某变量的相对集中程度",
        -9.553535926571511
      ],
      [
        "是持续时间最长的地球观测卫星项目",
        -9.553535926571511
      ],
      [
        "字（如UTM坐标在数十万米量级）",
        -9.553535926571511
      ],
      [
        "地图投影平面上纵坐标线所指的方向",
        -9.553535926571511
      ],
      [
        "图片、3D模型等），文件体积更小",
        -9.553535926571511
      ],
      [
        "内管理和长期存储建议使用现代格式",
        -9.553535926571511
      ],
      [
        "三维球面坐标来定义地球上的位置",
        -9.553535926571511
      ],
      [
        "、PostGIS等之间相互转换",
        -9.553535926571511
      ],
      [
        "——栅格重投影、重采样、镶嵌",
        -9.553535926571511
      ],
      [
        "Z撤销、Ctrl+S保存项目",
        -9.553535926571511
      ],
      [
        "热力图（",
        -9.553535926571511
      ],
      [
        "估计",
        -9.553535926571511
      ],
      [
        "的关键，可以大幅加速空间检索操作",
        -9.55353592657152
      ],
      [
        "列形式表示地面高程的实体地面模型",
        -9.55353592657152
      ],
      [
        "下的坐标可能有数米到数百米的偏差",
        -9.55353592657152
      ],
      [
        "），一般性分析和展示可适当放宽",
        -9.55353592657152
      ],
      [
        "无实际意义），应先用投影坐标系",
        -9.55353592657152
      ],
      [
        "数据，浏览文件或数据库添加图层",
        -9.55353592657152
      ],
      [
        "工具箱中，可像内置工具一样执行",
        -9.55353592657152
      ],
      [
        "纠",
        -9.553535926571529
      ],
      [
        "买",
        -9.553535926571529
      ],
      [
        "隔",
        -9.553535926571529
      ],
      [
        "稳",
        -9.553535926571529
      ],
      [
        "演",
        -9.553535926571529
      ],
      [
        "革",
        -9.553535926571529
      ],
      [
        "独",
        -9.553535926571529
      ],
      [
        "标注字段、字体、大小、放置位置等",
        -9.553535926571529
      ],
      [
        "国或多省）需考虑等面积或等距投影",
        -9.553535926571529
      ],
      [
        "器拖入QGIS地图画布或图层面板",
        -9.553535926571529
      ],
      [
        "体系包括商业软件和开源软件两大类",
        -9.553535926571529
      ],
      [
        "之间的相邻、连接、包含等空间关系",
        -9.553535926571529
      ],
      [
        "使用经纬度来定位地球表面上的点",
        -9.553535926571529
      ],
      [
        "▁Engine、超图云GIS等",
        -9.553535926571529
      ],
      [
        "——叠加山体阴影增强地形立体感",
        -9.553535926571529
      ],
      [
        "语言",
        -9.553535926571529
      ],
      [
        "有广泛应用",
        -9.553535926571529
      ],
      [
        "提供了强大而灵活的符号化系统",
        -9.553535926571536
      ],
      [
        "干",
        -9.553535926571538
      ],
      [
        "阵",
        -9.553535926571538
      ],
      [
        "，可提供大范围、周期性的对地观测",
        -9.553535926571538
      ],
      [
        "面不能重叠，用于宗地、行政边界等",
        -9.553535926571538
      ],
      [
        "群组与团队成员共享地图和数据资源",
        -9.553535926571538
      ],
      [
        "椭球面正好相切的纬线，此处无变形",
        -9.553535926571538
      ],
      [
        "有高斯-克吕格投影、UTM投影等",
        -9.553535926571538
      ],
      [
        "时间处理——当前日期：now()",
        -9.553535926571538
      ],
      [
        "指数的差值，设定阈值提取变化区域",
        -9.553535926571538
      ],
      [
        "拼接为一幅覆盖更大范围的完整影像",
        -9.553535926571538
      ],
      [
        "地理处理工具和函数进行自动化操作",
        -9.553535926571538
      ],
      [
        "于确保矢量数据的空间完整性和质量",
        -9.553535926571538
      ],
      [
        "——GeoDa、R语言空间分析包",
        -9.553535926571538
      ],
      [
        "▁7946标准",
        -9.553535926571538
      ],
      [
        "▁选择或导入坐标系统，点击完成",
        -9.553535926571541
      ],
      [
        "勘",
        -9.553535926571543
      ],
      [
        "面为基准的高度，",
        -9.553535926571543
      ],
      [
        "线程处理，性能和响应速度明显更快",
        -9.553535926571543
      ],
      [
        "及东南亚的在线底图和多种分析工具",
        -9.553535926571543
      ],
      [
        "——将多个图层叠加以发现空间关系",
        -9.553535926571543
      ],
      [
        "igin）——投影坐标的纬度起点",
        -9.553535926571543
      ],
      [
        "字体、大小、颜色、粗体、斜体等",
        -9.553535926571543
      ],
      [
        "地图工具，在画布上绘制地图区域",
        -9.553535926571543
      ],
      [
        "3D建筑、地形和倾斜摄影可视化",
        -9.553535926571543
      ],
      [
        "符号（如按土地类型着色）",
        -9.553535926571543
      ],
      [
        "理处理工具箱中拖拽工具到模型画布",
        -9.553535926571545
      ],
      [
        "如何在CAD中正确显示GIS数据",
        -9.553535926571545
      ],
      [
        "向地球北极的方向，是地理学上的北",
        -9.553535926571545
      ],
      [
        "则另有10000公里的虚假北偏移",
        -9.553535926571545
      ],
      [
        "——基于DEM数据绘制地形剖面线",
        -9.553535926571545
      ],
      [
        "Tiles，.mvt/.pbf）",
        -9.553535926571545
      ],
      [
        "合并——将相邻的同类面要素合并",
        -9.553535926571545
      ],
      [
        "▁User），支持离线使用",
        -9.553535926571545
      ],
      [
        "_clip')裁剪数据",
        -9.553535926571545
      ],
      [
        "反之则需要简化",
        -9.553535926571545
      ],
      [
        "▁JS）负责地图展示和用户交互",
        -9.553535926571547
      ],
      [
        "▁start_date))",
        -9.553535926571547
      ],
      [
        "▁点击测试连接验证配置",
        -9.553535926571547
      ],
      [
        "▁GIS也开始萌芽",
        -9.553535926571547
      ],
      [
        "▁Pro开始学习",
        -9.553535926571547
      ],
      [
        "风",
        -9.553535926571548
      ],
      [
        "份",
        -9.553535926571548
      ],
      [
        "活",
        -9.553535926571548
      ],
      [
        "众",
        -9.553535926571548
      ],
      [
        "斑",
        -9.553535926571548
      ],
      [
        "育",
        -9.553535926571548
      ],
      [
        "晕",
        -9.553535926571548
      ],
      [
        "若",
        -9.553535926571548
      ],
      [
        "厂",
        -9.553535926571548
      ],
      [
        "纸",
        -9.553535926571548
      ],
      [
        "刀",
        -9.553535926571548
      ],
      [
        "俄",
        -9.553535926571548
      ],
      [
        "慢",
        -9.553535926571548
      ],
      [
        "住",
        -9.553535926571548
      ],
      [
        "摘",
        -9.553535926571548
      ],
      [
        "伏",
        -9.553535926571548
      ],
      [
        "贵",
        -9.553535926571548
      ],
      [
        "昂",
        -9.553535926571548
      ],
      [
        "就",
        -9.553535926571548
      ],
      [
        "授",
        -9.553535926571548
      ],
      [
        "险",
        -9.553535926571548
      ],
      [
        "践",
        -9.553535926571548
      ],
      [
        "省",
        -9.553535926571548
      ],
      [
        "，沿已有要素边界绘制）和拓扑编辑",
        -9.553535926571548
      ],
      [
        "，支持建筑物、点云、倾斜摄影模型",
        -9.553535926571548
      ],
      [
        "，广泛应用于蒸散发估算和干旱监测",
        -9.553535926571548
      ],
      [
        "，使用图形建模器可以大幅提高效率",
        -9.553535926571548
      ],
      [
        "，使用图层、颜色、线型来组织图形",
        -9.553535926571548
      ],
      [
        "，也在逐步向CGCS2000过渡",
        -9.553535926571548
      ],
      [
        "，LAZ是LAS的高效压缩版本）",
        -9.553535926571548
      ],
      [
        "）、建筑物三维建模和城市变化检测",
        -9.553535926571548
      ],
      [
        "（点）、河流（线）、湖泊（面）等",
        -9.553535926571548
      ],
      [
        "（形状失真）、距离变形和方向变形",
        -9.553535926571548
      ],
      [
        "黄色渐变色带得到经典的热力图效果",
        -9.553535926571548
      ],
      [
        "高度和去除地表物体后的裸地面高程",
        -9.553535926571548
      ],
      [
        "领土跨越UTM第43带到第53带",
        -9.553535926571548
      ],
      [
        "通性）、地籍管理（宗地无缝拼接）",
        -9.553535926571548
      ],
      [
        "适合在缺少训练样本时进行初步分类",
        -9.553535926571548
      ],
      [
        "送、应急响应、导航和公共交通规划",
        -9.553535926571548
      ],
      [
        "还可以叠加原始点数据进行混合展示",
        -9.553535926571548
      ],
      [
        "边的相邻要素，避免产生空隙或重叠",
        -9.553535926571548
      ],
      [
        "边形，适合分布不均匀的采样点数据",
        -9.553535926571548
      ],
      [
        "路径和格式（推荐GeoTIFF）",
        -9.553535926571548
      ],
      [
        "距投影（保持某些方向的距离不变）",
        -9.553535926571548
      ],
      [
        "该元素会成为模型的输入/输出参数",
        -9.553535926571548
      ],
      [
        "背景——添加文字的背景色块或形状",
        -9.553535926571548
      ],
      [
        "结合，帮助用户理解空间关系和模式",
        -9.553535926571548
      ],
      [
        "纸张尺寸（A4、A3、自定义等）",
        -9.553535926571548
      ],
      [
        "约束、对特定硬件和操作系统的依赖",
        -9.553535926571548
      ],
      [
        "精度测绘应用则需要专门的转换参数",
        -9.553535926571548
      ],
      [
        "精度——属性数据的正确性和完整性",
        -9.553535926571548
      ],
      [
        "精准农业、作物估产、森林资源调查",
        -9.553535926571548
      ],
      [
        "算法的输出连接至另一个算法的输入",
        -9.553535926571548
      ],
      [
        "等），设置分辨率和图像质量后导出",
        -9.553535926571548
      ],
      [
        "硬件即可使用强大的GIS分析能力",
        -9.553535926571548
      ],
      [
        "知采样点的值估算未知位置值的方法",
        -9.553535926571548
      ],
      [
        "的独特优势，是光学遥感的重要补充",
        -9.553535926571548
      ],
      [
        "的中间输出连接到下一个工具的输入",
        -9.553535926571548
      ],
      [
        "用线条将一个面或多边形分割为两个",
        -9.553535926571548
      ],
      [
        "用定义投影工具手动指定正确坐标系",
        -9.553535926571548
      ],
      [
        "理要素坐标值与真实位置的接近程度",
        -9.553535926571548
      ],
      [
        "然后右键选择导出保存为GIS格式",
        -9.553535926571548
      ],
      [
        "渐变色表示（如人口密度从浅到深）",
        -9.553535926571548
      ],
      [
        "浏览文件系统，双击或拖拽文件添加",
        -9.553535926571548
      ],
      [
        "植被监测中最常用的遥感数据源之一",
        -9.553535926571548
      ],
      [
        "标准入库，建立空间索引和拓扑关系",
        -9.553535926571548
      ],
      [
        "查、水资源评估、土地利用变化监测",
        -9.553535926571548
      ],
      [
        "有助于在需要自定义投影时精确配置",
        -9.553535926571548
      ],
      [
        "最重要的中等分辨率遥感数据源之一",
        -9.553535926571548
      ],
      [
        "显示，适合人口密度、GDP等数据",
        -9.553535926571548
      ],
      [
        "显示的图层，自定义图例标题和排序",
        -9.553535926571548
      ],
      [
        "明确项目目标、所需数据和分析方法",
        -9.553535926571548
      ],
      [
        "时，标注文字会随地图一起渲染输出",
        -9.553535926571548
      ],
      [
        "无分级，符号大小与数值严格成比例",
        -9.553535926571548
      ],
      [
        "文件并通过时间和高度维度进行浏览",
        -9.553535926571548
      ],
      [
        "数据覆盖范围和要素类型的完备程度",
        -9.553535926571548
      ],
      [
        "提供弹性扩展、按需付费的服务模式",
        -9.553535926571548
      ],
      [
        "提供了对PostGIS的一流支持",
        -9.553535926571548
      ],
      [
        "拓扑工具检查是否有违反规则的地方",
        -9.553535926571548
      ],
      [
        "执行缓冲区、叠加、汇总等空间分析",
        -9.553535926571548
      ],
      [
        "恢复）和突变性变化（如森林砍伐）",
        -9.553535926571548
      ],
      [
        "影像分类中效果明显优于像素级方法",
        -9.553535926571548
      ],
      [
        "应版本的DEM栅格数据和高程配置",
        -9.553535926571548
      ],
      [
        "并接收回波，如雷达、LiDAR）",
        -9.553535926571548
      ],
      [
        "带的中心经线，此经线上无长度变形",
        -9.553535926571548
      ],
      [
        "工作（昼夜皆可），但不能穿透云层",
        -9.553535926571548
      ],
      [
        "射特性，这种特性称为地物光谱特征",
        -9.553535926571548
      ],
      [
        "实现2D地图到三维场景的快速转换",
        -9.553535926571548
      ],
      [
        "定精度，适合影像底图和可视化场景",
        -9.553535926571548
      ],
      [
        "好，目前LTR版本为3.34.x",
        -9.553535926571548
      ],
      [
        "基于地理坐标的变换来设置转换参数",
        -9.553535926571548
      ],
      [
        "场景图层标准，也是OGC社区标准",
        -9.553535926571548
      ],
      [
        "地理处理自动化工作流的可视化工具",
        -9.553535926571548
      ],
      [
        "图形建模器（创建自动化处理流程）",
        -9.553535926571548
      ],
      [
        "图层的要素必须在另一个图层范围内",
        -9.553535926571548
      ],
      [
        "和管理空间数据、图层、地图和应用",
        -9.553535926571548
      ],
      [
        "和屏幕数字化转换为矢量GIS数据",
        -9.553535926571548
      ],
      [
        "命名项目并选择存储位置-完成创建",
        -9.553535926571548
      ],
      [
        "可获取更高分辨率的影像，灵活性强",
        -9.553535926571548
      ],
      [
        "可在图层的属性对话框中查看和修改",
        -9.553535926571548
      ],
      [
        "可以分析植被的季节变化和长期趋势",
        -9.553535926571548
      ],
      [
        "取——保留重要的要素，舍弃次要的",
        -9.553535926571548
      ],
      [
        "包含Z值（3D）和M值（测量值）",
        -9.553535926571548
      ],
      [
        "册为脚本工具，像内置工具一样使用",
        -9.553535926571548
      ],
      [
        "值型或线段型比例尺样式，设置单位",
        -9.553535926571548
      ],
      [
        "信息又具有高空间分辨率的融合影像",
        -9.553535926571548
      ],
      [
        "使用UTF-8，也不存在编码问题",
        -9.553535926571548
      ],
      [
        "但高质量的制图综合仍需要人工干预",
        -9.553535926571548
      ],
      [
        "但不准确（因为球面与平面的差异）",
        -9.553535926571548
      ],
      [
        "传感器的组合适用于不同的应用需求",
        -9.553535926571548
      ],
      [
        "优化、交通流量分析、公共交通规划",
        -9.553535926571548
      ],
      [
        "从卫星或飞机上对地球表面进行观测",
        -9.553535926571548
      ],
      [
        "中选中图层，点击编辑选项卡-创建",
        -9.553535926571548
      ],
      [
        "中的块参照（Block）如何处理",
        -9.553535926571548
      ],
      [
        "中一个图层的面不能与另一图层重叠",
        -9.553535926571548
      ],
      [
        "不是地理坐标，需要手动指定或配准",
        -9.553535926571548
      ],
      [
        "、网格生成、缓冲区合并等实用功能",
        -9.553535926571548
      ],
      [
        "、水体污染监测等方面具有独特优势",
        -9.553535926571548
      ],
      [
        "、智能化、实时化和众包化方向发展",
        -9.553535926571548
      ],
      [
        "、参考网格线（经纬网或投影网格）",
        -9.553535926571548
      ],
      [
        "、$y），支持条件语句和数学函数",
        -9.553535926571548
      ],
      [
        "▁Graph插件或创建网络数据集",
        -9.553535926571548
      ],
      [
        "verviews）以实现高效读取",
        -9.553535926571548
      ],
      [
        "t正交化法和NNDiffuse等",
        -9.553535926571548
      ],
      [
        "sertCursor用于新增要素",
        -9.553535926571548
      ],
      [
        "or循环对每个要素类执行相同操作",
        -9.553535926571548
      ],
      [
        "ger——制作基于时间的动画地图",
        -9.553535926571548
      ],
      [
        "chnikov或Quartic）",
        -9.553535926571548
      ],
      [
        "Web地图上为什么我的数据有偏移",
        -9.553535926571548
      ],
      [
        "SV表格中的经纬度数据转为点图层",
        -9.553535926571548
      ],
      [
        "QL数据库）管理海量实时空间数据",
        -9.553535926571548
      ],
      [
        "432）、数据库名、用户名和密码",
        -9.553535926571548
      ],
      [
        "180度W开始向东编号为1-60",
        -9.553535926571548
      ],
      [
        "0米（多光谱），重访周期为16天",
        -9.553535926571548
      ],
      [
        "（通过英国格林尼治）是0度经线",
        -9.553535926571548
      ],
      [
        "（属性表，使用dBASE格式）",
        -9.553535926571548
      ],
      [
        "（JavaScript地图库）",
        -9.553535926571548
      ],
      [
        "组织账号（有免费试用和个人版）",
        -9.553535926571548
      ],
      [
        "的空间位置、属性信息和空间关系",
        -9.553535926571548
      ],
      [
        "畸变，将影像配准到地图坐标系统",
        -9.553535926571548
      ],
      [
        "用途来决定优先保留哪些几何特性",
        -9.553535926571548
      ],
      [
        "环形工具——在已有面中挖一个洞",
        -9.553535926571548
      ],
      [
        "点击模型构建器打开新建模型窗口",
        -9.553535926571548
      ],
      [
        "灰度——用于DEM等单波段数据",
        -9.553535926571548
      ],
      [
        "工具迁移，但部分内容可能丢失）",
        -9.553535926571548
      ],
      [
        "城市人口规模显示不同大小的圆）",
        -9.553535926571548
      ],
      [
        "坐标北作为地图显示的正上方方向",
        -9.553535926571548
      ],
      [
        "和标注，支持点线面多种要素类型",
        -9.553535926571548
      ],
      [
        "变换，利用次要成分突出变化信息",
        -9.553535926571548
      ],
      [
        "但坐标值经过了GCJ-02加密",
        -9.553535926571548
      ],
      [
        "伪彩色——用渐变色带渲染DEM",
        -9.553535926571548
      ],
      [
        "二三维一体化，可在同一视图切换",
        -9.553535926571548
      ],
      [
        "为基准的高度，是通常所说的海拔",
        -9.553535926571548
      ],
      [
        "、格式转换、影像校正、数据清洗",
        -9.553535926571548
      ],
      [
        "▁点击项目-新建打印布局并命名",
        -9.553535926571548
      ],
      [
        "▁1000000）灵活筛选要素",
        -9.553535926571548
      ],
      [
        "▁0，将不同条件区域赋予不同值",
        -9.553535926571548
      ],
      [
        "ing）——南半球的北向偏移量",
        -9.553535926571548
      ],
      [
        "），可通过已知参考点坐标反推",
        -9.553535926571548
      ],
      [
        "系统之间精确传递空间参考信息",
        -9.553535926571548
      ],
      [
        "正在迁移到现代GIS数据格式",
        -9.553535926571548
      ],
      [
        "平滑连续分布的现象（如降水）",
        -9.553535926571548
      ],
      [
        "中可以通过拓扑检查器插件实现",
        -9.553535926571548
      ],
      [
        "、坐标网格（经纬网或公里网）",
        -9.553535926571548
      ],
      [
        "▁极地地区——选择极方位投影",
        -9.553535926571548
      ],
      [
        "View系列（商业高分辨率）",
        -9.553535926571548
      ],
      [
        "3857）以便与主流底图兼容",
        -9.553535926571548
      ],
      [
        "IDW插值和克里金插值工具",
        -9.553535926571548
      ],
      [
        "GPS直接输出的就是大地高",
        -9.553535926571548
      ],
      [
        "可多试几个半径值比较效果",
        -9.553535926571548
      ],
      [
        "，适合简单的底图要素",
        -9.553535926571548
      ],
      [
        "本初子午线",
        -9.553535926571548
      ],
      [
        "▁Now进入下载页面",
        -9.553535926571548
      ],
      [
        "允许",
        -9.553535926571548
      ],
      [
        "语句",
        -9.553535926571548
      ],
      [
        "汇总",
        -9.553535926571548
      ],
      [
        "SI/GB2312/UTF-8）",
        -9.553535926572225
      ],
      [
        "信号",
        -9.553535926603203
      ],
      [
        "▁Convergence）",
        -9.553535926638403
      ],
      [
        "▁Location）",
        -9.553535926645747
      ],
      [
        "拖拽",
        -9.5535359266601
      ],
      [
        "Web地图库",
        -9.553535926668623
      ],
      [
        "割圆锥投影（",
        -9.55353592672232
      ],
      [
        "Linux",
        -9.553535926722848
      ],
      [
        "导致",
        -9.553535926814916
      ],
      [
        "Intersect",
        -9.553535926897748
      ],
      [
        "速度",
        -9.553535926897787
      ],
      [
        "删除",
        -9.553535926918013
      ],
      [
        "快速",
        -9.553535926918059
      ],
      [
        "吸附",
        -9.553535926918077
      ],
      [
        "趋势",
        -9.553535926918096
      ],
      [
        "缩放",
        -9.553535926918242
      ],
      [
        "明确",
        -9.55353592691836
      ],
      [
        "务必",
        -9.55353592691837
      ],
      [
        "随着",
        -9.55353592691838
      ],
      [
        "，GeoJSON是最常用的格式",
        -9.553535926920341
      ],
      [
        "尺寸",
        -9.553535926920535
      ],
      [
        "保留",
        -9.553535926923686
      ],
      [
        "真实",
        -9.553535926926271
      ],
      [
        "负责",
        -9.553535926933236
      ],
      [
        "镶嵌",
        -9.553535926942823
      ],
      [
        "预算",
        -9.553535926966267
      ],
      [
        "符号库",
        -9.553535926967403
      ],
      [
        "中的重投影图层工具批量处理",
        -9.553535926993396
      ],
      [
        "专题",
        -9.553535927012765
      ],
      [
        "国际",
        -9.553535927033456
      ],
      [
        "、洪水",
        -9.553535927109975
      ],
      [
        "规模",
        -9.55353592737162
      ],
      [
        "跨平台兼容",
        -9.553535927384303
      ],
      [
        "Geometry",
        -9.553535927390884
      ],
      [
        "需求",
        -9.553535927404718
      ],
      [
        "读写",
        -9.553535927420763
      ],
      [
        "未知",
        -9.553535927420855
      ],
      [
        "穿透",
        -9.553535927420873
      ],
      [
        "拼接",
        -9.553535927422265
      ],
      [
        "弹出",
        -9.553535927423182
      ],
      [
        "编号",
        -9.553535927424118
      ],
      [
        "较弱",
        -9.553535927424374
      ],
      [
        "现象",
        -9.553535927444097
      ],
      [
        "应急",
        -9.55353592746283
      ],
      [
        "获得",
        -9.553535927466992
      ],
      [
        "选址——",
        -9.55353592750136
      ],
      [
        "框架",
        -9.553535927503285
      ],
      [
        "适合本",
        -9.553535927521542
      ],
      [
        "注册",
        -9.553535927577983
      ],
      [
        "库，支持",
        -9.55353592775251
      ],
      [
        "▁面积测量——必须使用等面积投影",
        -9.553535927803157
      ],
      [
        "飞行",
        -9.553535927873902
      ],
      [
        "纹理",
        -9.553535927935748
      ],
      [
        "平滑",
        -9.553535928025537
      ],
      [
        "平坦",
        -9.553535928025639
      ],
      [
        "性能",
        -9.553535928273709
      ],
      [
        "标签",
        -9.55353592848127
      ],
      [
        "标记",
        -9.55353592848532
      ],
      [
        "目标",
        -9.553535928486612
      ],
      [
        "社区",
        -9.55353592856601
      ],
      [
        "区划",
        -9.553535928568008
      ],
      [
        "有助于在",
        -9.553535929055636
      ],
      [
        "城市热",
        -9.553535929782846
      ],
      [
        "显示不同大小的",
        -9.553535929905182
      ],
      [
        "按钮",
        -9.553535930186083
      ],
      [
        "逐个",
        -9.55353593030126
      ],
      [
        "遇到",
        -9.55353593053829
      ],
      [
        "▁Analyst（地统计分析）",
        -9.553535930756492
      ],
      [
        "重访周期",
        -9.55353593175318
      ],
      [
        "80度",
        -9.553535932746948
      ],
      [
        "称为",
        -9.5535359328219
      ],
      [
        "、PDAL",
        -9.553535933450531
      ],
      [
        "▁Forest）",
        -9.553535936098879
      ],
      [
        "期数据",
        -9.553535936353363
      ],
      [
        "▁并指定输出栅格",
        -9.553535936506565
      ],
      [
        "（Java",
        -9.553535937935616
      ],
      [
        "▁Statistics）",
        -9.553535940519286
      ],
      [
        "制作专业",
        -9.553535942473767
      ],
      [
        "北半球",
        -9.5535359428766
      ],
      [
        "，需要手动指定",
        -9.553535943182144
      ],
      [
        "▁3以上版本）",
        -9.553535945485198
      ],
      [
        "经典的",
        -9.553535946348124
      ],
      [
        "▁Server）来管理空间数据",
        -9.553535946962914
      ],
      [
        "南半球",
        -9.553535947722075
      ],
      [
        "的新一代",
        -9.553535949327339
      ],
      [
        "、双",
        -9.553535953852553
      ],
      [
        "R-Tree",
        -9.55353595390669
      ],
      [
        "和最新的CGCS2000",
        -9.553535954020331
      ],
      [
        "，双",
        -9.553535956081129
      ],
      [
        "LZW",
        -9.55353595679528
      ],
      [
        "坐标表现为",
        -9.553535960541684
      ],
      [
        "rocessing",
        -9.553535961754902
      ],
      [
        "GeoPackage即可完成转换",
        -9.553535967040567
      ],
      [
        "按几何类型分别导入",
        -9.55353596775588
      ],
      [
        "。选择投影时需要",
        -9.553535970983633
      ],
      [
        "基于SQLite",
        -9.553535972115919
      ],
      [
        "▁选择投影时需要",
        -9.553535980920218
      ],
      [
        "数据的最便捷工具",
        -9.553535981650183
      ],
      [
        "相邻要素",
        -9.553535983881867
      ],
      [
        "局（",
        -9.55353598983016
      ],
      [
        "（Model",
        -9.553535990993396
      ],
      [
        "UTM为0.9996",
        -9.553535996335693
      ],
      [
        "百个Shapefile及相关文件",
        -9.553535997427135
      ],
      [
        "PDF、",
        -9.55353599832775
      ],
      [
        "分辨率的影像，",
        -9.553536000925368
      ],
      [
        "库中",
        -9.553536012856117
      ],
      [
        "是0度",
        -9.553536013237514
      ],
      [
        "开数据",
        -9.553536017013446
      ],
      [
        "对地观测",
        -9.553536023645709
      ],
      [
        "裸地面高程",
        -9.553536027665084
      ],
      [
        "用户交互",
        -9.553536043254244
      ],
      [
        ".prj的完整Shapefile",
        -9.553536045313994
      ],
      [
        "，添加图例、比例尺、指北针等要素",
        -9.553536050003267
      ],
      [
        "▁postgis",
        -9.553536074426852
      ],
      [
        "区域但细节",
        -9.553536076040494
      ],
      [
        "▁Engine免费下载",
        -9.553536100353753
      ],
      [
        "必须使用等面积投影",
        -9.553536104429217
      ],
      [
        "执行SQL查询",
        -9.553536121102525
      ],
      [
        "DAL的ogr2ogr命令行工具",
        -9.553536121962162
      ],
      [
        "ITRF",
        -9.55353612196856
      ],
      [
        "▁市",
        -9.55353612725741
      ],
      [
        "GCJ-02加密",
        -9.553536131269487
      ],
      [
        "卫星或飞机上",
        -9.553536155080828
      ],
      [
        "数学函数",
        -9.553536158814126
      ],
      [
        "点击编辑选项卡",
        -9.553536225394815
      ],
      [
        "——选择UTM或高斯-克吕格投影",
        -9.553536225795945
      ],
      [
        "、颜色、线",
        -9.553536283359557
      ],
      [
        "缓冲区（Buffer）",
        -9.553536292054591
      ],
      [
        "Server（C平台地图服务器）",
        -9.553536347488498
      ],
      [
        "）、重分类（",
        -9.553536354256762
      ],
      [
        "▁Conver",
        -9.553536381868359
      ],
      [
        "GeoPackage即可",
        -9.55353638667894
      ],
      [
        "加密坐标系",
        -9.553536447762935
      ],
      [
        "转GeoJSON）",
        -9.553536534437537
      ],
      [
        "。问题四：",
        -9.553536538712095
      ],
      [
        "先重投影到",
        -9.553536540617952
      ],
      [
        "RESS",
        -9.553536551046697
      ],
      [
        "常用的地理坐标系统是WGS84",
        -9.553536551288985
      ],
      [
        "是由美国",
        -9.55353659636789
      ],
      [
        "▁Gaps）",
        -9.553536599217017
      ],
      [
        "观测卫星",
        -9.553536600986643
      ],
      [
        "图层-添加图层",
        -9.553536622599037
      ],
      [
        "▁问题四：",
        -9.553536624465869
      ],
      [
        "新建-",
        -9.553536659172638
      ],
      [
        "仍是",
        -9.553536812020475
      ],
      [
        "。主要有三种",
        -9.553536845240288
      ],
      [
        "▁主要有三种",
        -9.55353688175858
      ],
      [
        "技术栈",
        -9.553536897044388
      ],
      [
        "——制作",
        -9.553537017265514
      ],
      [
        "的准确性",
        -9.55353727050981
      ],
      [
        "毫米",
        -9.55353735771828
      ],
      [
        "高级特性",
        -9.553537358127318
      ],
      [
        "3以上",
        -9.553537378748185
      ],
      [
        "通过SQL查询",
        -9.553537407293765
      ],
      [
        "七参数",
        -9.553537421168736
      ],
      [
        "（30米）",
        -9.553537568456223
      ],
      [
        "符号（如按",
        -9.553537685484546
      ],
      [
        "投影有CGCS2000坐标系",
        -9.553538081469494
      ],
      [
        "三维地图可视化",
        -9.553538648294191
      ],
      [
        "后可直接",
        -9.553539109965488
      ],
      [
        "选择对应",
        -9.553539252865797
      ],
      [
        "入DWG",
        -9.553539327842763
      ],
      [
        "exe",
        -9.553539846716696
      ],
      [
        "正常高",
        -9.553539953964899
      ],
      [
        "：右键图层-属性-",
        -9.553540554146066
      ],
      [
        "▁Tiles",
        -9.553541649416253
      ],
      [
        "纬线，",
        -9.553541905557884
      ],
      [
        "或OpenLayers）",
        -9.553542530946205
      ],
      [
        "th）——",
        -9.55354268717115
      ],
      [
        "空间数据类型和",
        -9.553545968850884
      ],
      [
        "和BIM",
        -9.553546335828955
      ],
      [
        "使用本地工",
        -9.553547661796646
      ],
      [
        "CGCS2000和WGS84",
        -9.553547748865475
      ],
      [
        "的基础数据",
        -9.553548253764419
      ],
      [
        "▁Pro（高级分析）",
        -9.553549983195225
      ],
      [
        "。在QGIS中，使用处理工具箱的",
        -9.553552595986707
      ],
      [
[...]
